#version: 0.2
h e
Ġ t
Ġ a
Ġ s
Ġ w
Ġt he
n d
e d
i n
Ġa nd
Ġ b
r e
Ġt o
Ġ h
Ġ f
i t
e r
Ġ o
Ġw a
Ġ c
o u
Ġ T
Ġ d
Ġ l
Ġ p
Ġ m
a r
i s
a t
Ġ he
o m
in g
Ġwa s
o n
e n
o r
i l
a n
a y
ĠT he
Ġ g
Ġ S
i d
e s
Ġ n
Ġ in
Ġh a
i m
a l
Ġt h
Ġs a
Ġ "
Ġo f
l e
Ġ H
u t
Ġ it
Ġ ,
o t
e t
i r
i c
Ġ e
v er
o w
e l
Ġhe r
a m
ĠH e
ĠS he
a c
Ġ u
i g
Ġ L
ĠThe y
Ġ I
Ġ .
s t
Ġ r
Ġb e
Ġs t
Ġo n
l d
it h
o o
v e
Ġw ith
Ġ y
Ġ B
l y
a d
p p
Ġsa id
en t
k e
il y
r i
k ed
Ġth at
Ġh is
Ġ re
Ġ M
Ġs he
n t
Ġf or
Ġp l
O n
Ġ A
u n
Ġs o
Ġy ou
ĠL ily
ver y
Ġd ay
Ġw e
c e
Ġha d
l l
s e
Ġu p
he r
Ġpl ay
i on
Ġw h
Ġa s
Ġthe y
u r
ou ld
t er
Ġs h
Ġ is
Ġm om
m y
e c
Ġa n
' s
Ġl i
it t
Ġn ot
ou nd
om e
Ġ k
e nd
h t
Ġha pp
Ġwa nt
r a
im e
c h
Ġn e
Ġd o
Ġt ime
Ġb ut
Ġ J
Ġ very
ac k
Ġthe re
u l
itt le
Ġa t
Ġwe re
ĠI t
o re
Ġl ittle
r o
r y
id e
Ġs m
v ed
Ġhapp y
Ġb ig
il l
Ġs e
Ġ W
u g
a s
ar d
ri end
a in
Ġsa w
Ġf riend
al l
r om
Ġl o
a ke
Ġ C
. "
Ġ On
t ed
Ġa re
u m
ĠT im
Ġ 1
' t
Ġh im
Ġl oo
Ġg o
! "
Ġs p
Ġe x
ĠOn e
Ġ j
On ce
Ġb o
i nd
Ġto o
Ġo ut
Ġthe ir
Ġa l
Ġ @
he n
Ġthe m
ir l
Ġa r
w ay
i f
Ġha ve
u c
o l
Ġup on
Ġwant ed
Ġg irl
he d
Ġ D
Ġ F
ig ht
o p
Ġd id
Ġc ould
a g
am e
u s
Ġl e
ou g
Ġa ll
Ġsm il
oo d
ĠT om
ĠB en
Ġc l
Ġ E
on g
Ġc an
Ġ '
Ġf rom
h ing
ar k
on e
Ġc a
Ġk n
Ġw ent
u re
el l
es t
Ġhe l
Ġs c
am ed
Ġhel p
Ġ P
Ġfriend s
Ġb ack
u d
- @
Ġ@ -@
Ġn o
ĠB ut
er s
? "
Ġm an
ou t
Ġst ar
Ġm e
Ġb y
Ġf un
Ġs ay
Ġc h
Y ou
Ġ v
f ul
q u
Ġn amed
i e
ic e
Ġr o
Ġw or
a b
ĠTim my
Ġw ould
k s
ow n
Ġa g
is t
at ion
Ġ R
el t
s ide
Ġs ome
t her
k ing
a nd
a st
ad e
re e
Ġlo ved
Ġli ke
Ġsmil ed
es s
Ġf e
e p
s s
Ġar ound
Ġas ked
Ġ 2
u st
ir d
Ġf elt
al ly
Ġse e
Ġto y
om et
g et
ing s
Ġ G
Ġloo ked
Ġc on
Ġ N
Ġwh o
Ġbo y
an t
Ġo ther
it ed
ou s
Ġc om
Ġa b
Ġc ar
at e
or t
p l
Ġs omet
Ġb ird
Ġb r
o s
Ġp r
Ġne w
Ġm ade
Ġr an
Ġwh at
â Ĥ
Ã ¢
Ġm ake
âĤ ¬
a p
ar ed
Ġo r
get her
Ġw hen
ac h
Ġag ain
i ve
Ġ You
Ġa way
ic k
u ch
Ġstar ted
ac e
u e
ĠM om
Ġf l
b er
, "
Ġd ec
e m
Ġon e
Ġto gether
ou d
Ġin t
Ġ )
Ġ (
Ġbe c
Ġsay s
i es
Ġp re
Ġf ound
Ġthe n
Ġsomet hing
Ġp ark
Ġex c
ar t
i al
o c
Ġsa d
Ġp ut
Ġh ome
ri ed
f ter
Ġg r
i a
Ġ =
oug ht
Ġg ood
ou r
Ġt r
Ġ1 9
pp ed
Ġm o
h at
f e
n ed
Ġh ug
g e
c t
Ġwa l
Ġb l
nd er
Ġg et
e w
Ġth an
is h
t h
Ġplay ing
id ed
a v
Ġt w
Ġs w
Ġc o
in e
0 0
a k
oo k
n n
a ug
a x
it e
a re
ou se
un k
Ġm ore
Ġab out
e ar
Ġth ings
Ġc ame
Ġd own
Ġg ot
Ġe very
oug h
Ġexc ited
Ġdec ided
Ġli ked
re at
a ve
ar a
Ġca re
n y
Ġf ind
Ġa d
i p
is e
u b
Ġ en
ĠS am
Ġo ver
Ġyou r
Ġth is
Ġ ke
ic h
Ġ <
Ġw ill
p t
Ġdo g
Ġtoo k
Ġsc ared
ud d
Ġm y
v en
Ġfe el
Ġsp ec
Ġp o
uc k
il e
Ġint o
Ġd e
way s
g ed
Ġp ro
Ġof f
i z
ĠJ o
ĠS o
Ġo p
Ġd ad
en ed
Ġg ra
ar y
Ġdid n
ĠM ax
Ġal ways
nn a
he re
Ġo ld
Ġth ought
Ġmom my
Ġout side
Ġl ot
Ġp e
Ġb all
ĠW hen
Ġsh ow
u se
Ġan y
Ġle ar
Ġit s
Ġtoy s
Ġp ic
Ġt ree
Ġh ow
Ġ qu
Ġ K
ec t
ĠS ara
Ġt ake
Ġ im
Ġkn ow
ĠH er
Ġf o
o b
Ġc at
ot her
Ġspec ial
Ġr un
ĠI n
s o
ot h
Ġs l
Ġb et
ĠA nna
Ġu s
Ġm uch
Ġkn ew
il d
Ġh o
at ed
udd en
Ġl aug
Ġtw o
i re
Ġ O
i v
Ġst r
ir st
Ġal so
it y
Ġha nd
m a
m ent
f f
a use
ag e
udden ly
v ent
or ry
Ġh ouse
n ing
ĠJ ack
Ġwa ter
an k
Ġs k
Ġ if
al s
Ġe ach
ig h
f t
t y
Ġplay ed
Ġe nd
Ġu n
Ġex pl
Ġbec ause
Ġman y
o y
Ġg ave
Ġl ong
ĠE very
ab le
d y
Ġcare ful
Ġj ust
Ġne ver
Ġto ld
um p
ĠW e
Ġs orry
Ġt e
Ġt ried
Ġs un
Ġcon t
an g
Ġin side
Ġc all
Ġloo k
Ġf irst
el f
Ġwh ich
Ġha s
Ġu nt
a se
Ġ U
as s
Ġsm all
v ing
Ġro om
el y
Ġcould n
Ġc ol
ĠH is
l es
Ġa c
ĠS t
Ġhe ard
Ġunt il
Ġpr oud
u ll
Ġe at
Ġu nder
Ġne ed
ĠA nd
â Ģ
Ġre m
Ġa pp
ĠF rom
i an
w n
ĠS uddenly
in k
Ġs ur
Ġpre t
Ġwa t
Ġa fter
i ed
Ġim p
an ce
Ġbe en
b le
ĠThe n
Ġb u
Ġbo x
Ġ âĢ
Ġan im
Ġd is
Ġf in
Ġp er
Ġhug ged
re ss
Ġy ear
oo l
m er
f ore
he s
p r
h n
or d
Ġbe ar
b ed
or y
Ġ 3
ĠM ia
' m
ou nt
or m
Ġb est
Ġs n
ur t
Ġt ry
Ġb oth
ĠA s
Ġw r
ĠT h
is hed
is s
Ġl et
ad y
Ġe ven
Ġf am
an e
b y
g ry
a il
Ġbet ter
Ġn ice
Ġth r
Ġc le
Ġk ind
Ġfl ow
i ous
o d
Ġlear ned
a ir
Ġcom p
i x
Ġwa y
Ġd on
ion s
Ġp art
Ġin c
Ġc r
op le
c hed
Ġbe fore
Ġc he
c k
or s
a ut
Ġg l
Ġwh ile
Ġ Ã¢
Ġst ill
is ed
ĠC h
s elf
o g
at er
ard en
ĠA fter
w ard
Ġf ast
Ġcall ed
Ġl ist
Y es
Ġre s
ic al
l ed
g an
Ġg arden
ĠS p
Ġcl os
Ġbe aut
er ed
Ġpe ople
x t
Ġf le
Å ĵ
ll ow
Ġc ome
Ġsk y
Ġh ard
T h
Ġj ump
ig n
a king
Ġthan ked
Ġwa r
Ġt ur
T he
Ġlaug hed
an c
Ġb ra
t ing
in y
Ġr ed
Ġfam ily
re n
Ġlo ve
Ġbe ing
if ul
Ġl oud
Ġbeaut iful
Ġanim als
u p
en s
Ġst ay
Ġlot s
p h
ĠJo hn
Ġ2 00
Ġf r
Ġsh ould
ac t
Ġh urt
Ġf ore
Ġw here
o se
re am
Ġth ree
t ure
Ġli ved
Ġon ly
Ġfo llow
Ġn ow
Ġd ra
I t
Ġd if
i ver
b e
Ġb ad
on s
Ġsa fe
Ġno d
d ed
Ġ V
Ġt ra
Ġre al
o nd
ĠL uc
Ġso on
Ġw ind
Ġg ame
Ġre c
em ber
m an
Ġ2 0
Ġa m
Ġwal ked
Ġsur pr
k ay
Ġh igh
en ce
Ġ ide
Ġf ly
iz ed
ĠLuc y
Ġbec ame
at h
Ġfle w
Ġf ar
Ġgo ing
Ġwor k
Ġke pt
Ġne xt
Ġne ar
Ġke ep
Ġsh are
Ġ ;
Ġgr ound
an s
Ġthr ough
Ġop ened
Ġan gry
or n
ĠB ob
Ġo wn
v el
Ġbra ve
ĠâĢ ĵ
Ġat t
Ġw o
L et
Ġhe ad
Ġre pl
Ġg reat
re nt
Ġpret ty
w e
Ġcle an
il ly
Ġad vent
Ġ :
Ġb ro
am p
u pp
Ġd es
Ġe y
Ġm on
Ġide a
Ġc ry
um my
Ġd el
ĠMom my
Ġexpl ore
Ġdo ll
Ġu se
in s
ĠD ad
Ġdo or
Ġst o
b it
Ġno ise
as ed
Ġs er
n g
Ġsh iny
Ġs ing
ir ed
v es
c ess
Ġt re
Ġcl im
t hing
s h
W hat
Ġ 4
Ġdif fe
N o
at her
Ġimp ort
ur ing
oc k
Ġfeel ing
e y
le ase
Ġr ight
Ġs ong
â Ħ
Ġus ed
âĦ ¢
âĤ¬ âĦ¢
Ġpic ked
ak es
Ġf ood
Ġ 5
Ġb ed
Ġwal king
Ġs ound
Ġs ec
Ġpl ace
Ġg ive
ĠB r
ic ed
Ġnod ded
t s
Ġadvent ure
Ġyear s
Ġre l
Ġch ild
Ġper f
j oy
an ge
Ġb el
Ġimport ant
re w
Ġe ver
. @
Ġ@ .@
Ġ1 8
Ġstr ong
it ion
Ġpic ture
im es
Ġqu ick
Ġdiffe rent
o ice
o in
T hat
l ud
Ġbe gan
Ġgra b
Ġloo king
Ġsmil e
Ġwa it
l and
Ġs qu
ay be
a w
Ġs et
Ġt al
Ġey es
Ġfore st
Ġsto pped
Ġen joy
u ri
i el
Ġr ain
Ġhand s
Ġm ag
, @
Ġ@ ,@
ac hed
Ġm us
Ġbl ue
am es
Ġlist en
Ġ20 1
ĠA t
ĠSp ot
Ġmo st
Ġm or
r ed
Th ank
ĠS ue
u ed
e ver
Ġshow ed
Ġro ck
Ġflow ers
u ff
Ġwat ch
Ġf ish
Ġrem ember
Ġnot iced
Ġb re
Ġf av
Ġre st
ab bit
Ġrepl ied
op e
Ġst ory
Ġquick ly
ĠC an
Ġwo nder
ĠTh is
ma z
Ġe ar
Ġp rom
Ġex p
Ġb us
ro ss
Ġdo es
Ġn ight
Ġb ook
e e
Ġv oice
Ġwor ld
Ġinc lud
Ġo ur
Ġa maz
at es
re en
Ġbo at
Ġcont in
Ġwat ched
ation s
Ġr abbit
Ġsl ide
Ġop en
ĠSara h
out h
ou p
i ent
Ġa ir
Ġo kay
Ġf ace
Ġevery one
by e
Ġf ire
Ġa ct
st er
Ġsw e
Ġp ain
Ġst ore
Ġy ell
Ġt ell
id ent
ĠA l
Ġb it
o on
Ġtr uck
Ġbe h
L ily
Ġm at
Ġha ving
d er
k es
Ġs ure
Ġ z
Ġf ell
Ġs uch
Ġf il
Ġwal k
Ġn ame
Ġc ount
Ġd ress
W e
ĠJ ane
Ġe le
Ġan other
u it
Ġme an
m b
iel d
d ay
ĠU n
Ġc uri
n er
Ġclos er
Ġd ro
Ġre p
Ġwar m
ain ed
Ġl ess
un ny
Ġto p
Ġgood bye
ow er
m ore
Ġre t
Ġm et
Ġre ached
le ep
r ic
it c
Ġfor g
m e
Ġpr in
Ġbr ight
b o
Ġhe re
m ed
ol ly
m s
Ġac c
Ġc ook
are nt
Ġhelp ed
L ook
ill ed
Ġhim self
Ġcuri ous
i er
Ġbr other
h y
il a
Ġl ater
Ġp ull
Ġst e
ĠT hat
ri es
b r
re t
Ġm aking
nd ma
Ġd r
Ġle ft
Ġp ol
Ġbut ter
Ġk id
Ġfl o
Ġany more
Ġst op
Ġc ake
ward s
Ġbird s
Ġ 6
Ġfav or
d uc
Ġbu ild
ĠF in
Ġswe et
i et
Ġsa nd
Ġc ut
On e
ul t
Ġcom m
Ġn um
t on
is y
Ġpo in
C an
i ke
Ġhe ld
Ġhe ar
Ġdra w
ar ch
Ġgrab bed
Ġse en
ĠE m
a z
itc hen
Ġl ight
Ġjump ed
ĠL et
Ġk itchen
ĠEvery one
Ġd ri
re ed
ĠJo e
Ġmus ic
Ġp arent
Ġgl ad
Ġre ally
M om
Ġhapp ened
ap er
Ġgra ss
a pp
Ġunder st
ou ted
Ġtur n
Ġse es
Ġm in
one y
Ġm ess
Ġc reat
u ally
Ġlo st
Ġreal ized
Ġmo ve
Ġho ld
e re
Ġd one
Ġb unny
Ġre ad
ul ar
Ġfavor ite
Ġf ull
ot t
Ġv is
Ġ 7
Ġso ft
w here
al e
Ġch ar
Ġlear n
Ġy ummy
Ġwor ked
Ġsh outed
in ed
Ġth ing
Ġar ri
Ġl ady
Ġf ur
ro g
Ġbeh ind
Ġcom ing
g er
Ġl and
Ġw ell
et er
Ġre ady
ĠD o
Ġat e
Ġm um
Ġe l
' re
Ġst ick
Ġf ix
Ġle av
as h
Ġca st
Ġcontin ued
re l
Ġ ent
on t
Ġto uch
Ġc ra
as on
Ġwh y
Ġpl an
oc ks
Ġsh o
er t
Ġbutter f
Ġin v
Ġw ood
Ġd uring
Ġ Y
ch ool
we en
is ter
Ġh at
Ġparent s
ĠL ila
Ġloo ks
Ġpret end
Ġchild ren
Ġp ass
Ġrun ning
Ġfollow ed
ĠA ll
Ġcat ch
en er
Ġs at
Ġre g
Ġcar s
Ġh op
Ġd ark
ĠThe re
Ġc ool
Ġdo ing
Ġt ired
Ġkid s
o ve
Ġpo nd
Ġwor ry
Ġth ink
Ġb at
Ġm ouse
Ġflow er
Ġ -
o st
Ġb ow
Ġp us
Ġin st
Ġ 8
ie w
Ġg reen
Ġha ir
ĠD a
Ġs upp
Ġdel ic
oo ks
Ġwa ved
ĠTom my
Ġw in
Ġt ast
ĠL e
ĠA r
Ġsp ot
Ġp at
Ġfun ny
Ġfe w
Ġl ar
Ġwe ar
Ġpre s
re s
Ġd in
ĠR e
Ġw on
Ġbet ween
Ġtre es
ab y
Ġj oin
t ion
en c
l ing
Ġfin ished
ĠS ally
W ow
Ġneed ed
Ġsurpr ise
Ġwind ow
Ġflo or
D on
Ġsl ow
Ġsa me
Ġab le
c c
Ġclim b
Ġcl ose
am a
Ġbl ocks
Ġp aper
ug g
at ing
m ber
Ġrec ord
Ġho pped
ou n
Ġ 9
Ġto w
Ġm ar
Ġcol or
ub l
Ġyell ow
Ġdis c
Ġth in
Ġc ried
ke y
Ġcon s
Ġp ick
Ġm iss
Ġb ar
Ġd ist
k en
us ed
Ġc ent
Ġ19 9
Ġsw im
Ġ ice
Ġfil m
Ġlaug h
" .
Ġal ong
Ġf our
Ġ ind
ang er
r ow
av y
Ġs leep
et s
Ġco ld
z y
T om
Ġin ter
ĠBen ny
ĠW h
Ġbu y
u al
ed dy
Ġw ished
Ġarri ved
Ġb ag
Ġhapp ily
Ġp ers
i ble
Ġremember ed
Ġless on
Ġsec ond
Ġb ooks
Ġh ot
ort h
ell o
Ġg u
Ġp ur
Ġm ight
Ġbutterf ly
Ġf rog
Ġsurpr ised
Ġte am
Ġs uc
it ing
Ġt ri
Ġbel ie
le t
or ed
Ġres p
ĠN ew
ĠJ im
Ġcareful ly
as ure
Ġli kes
Ġany thing
Ġsw ing
Ġt all
Ġf air
Ġenjoy ed
Ġret ur
ĠDa isy
ation al
Ġho le
Ġs ub
Ġher self
is ion
Ġf ight
p s
Ġwr ong
ĠF l
ĠG ra
ac es
Ġs ide
as k
Ġlo c
Ġs ign
ĠN ow
Ġag reed
Ġen ough
H ello
i o
Ġother s
Ġre f
p er
Ġ 00
Ġh ill
l f
Ġunderst and
Ġnum ber
Ġp op
Ġf all
ĠFin ally
Ġs chool
Ġt able
Ġm il
Ġca nd
ĠB illy
Ġel se
Ġsn ow
Ġwor d
Ġh un
Ġm other
ter s
Ġfriend ly
ĠD e
g r
Ġh id
i b
Ġwh ite
Ġe vent
o ver
Ġthan k
Ġtur ned
Ġs it
Ġbro ken
mer ic
Ġle ad
Ġd ir
Ġagain st
ro om
Ġsomet imes
Ġdelic ious
I n
Ġpro duc
ĠA meric
or ing
Ġs y
ĠA my
Ġgr ow
Ġc our
Ġfin ally
Ġb aby
ĠH ow
Ġbr ought
Ġg ent
Ġmom ent
Ġp lease
Ġst ud
Ġg one
ur y
Ġt reat
Ġf illed
Ġf ield
Ġt ight
Ġwonder ful
Ġse ason
g on
Ġleav es
or k
Ġmor ning
Ġb ug
ĠJ en
ic y
Ġsome one
Ġwa ll
Ġd ep
ant s
Ġcol ors
Ġsh ip
Ġle g
le ased
Ġcon f
p le
ac ed
ĠS h
at ure
es e
ap e
Ġy es
ir rel
ot e
Ġg ames
r al
Ġperf orm
b um
Ġto wn
Ġtra in
or ies
Ġde ep
Ġget ting
le ct
Ġto wards
Ġm akes
l ess
in ce
Ġe p
Ġcl a
ĠM ar
ver s
m ing
ot s
Ġ00 0
Ġst and
Ġp ink
Ġas s
Ġsqu irrel
Ġcast le
n ey
Ġin f
Ġo b
Ġb and
' ll
Ġtry ing
Ġp h
Ġstay ed
ig in
Ġwant s
Ġr ace
Ġbre ak
Ġpart y
Ġl ion
Ġperf ect
ĠW hat
Ġl ate
Ġex t
Ġre ce
iv es
Ġh ig
Ġas k
id ge
Ġ1 0
Ġbe ach
ĠC om
Ġsa il
o om
Ġac ross
Ġsp l
ct or
if ic
c le
Ġrun s
ĠM olly
Ġg ener
Ġwith out
Ġ Z
ĠB l
Ġbl ack
Ġ es
al th
Ġal one
Ġdin ner
st r
ic s
e ared
Ġp upp
Ġo w
c ed
Ġw et
Ġt ail
Ġal bum
h ip
re et
le y
er n
Ġsm ell
Ġd ream
Ġle ave
Ġcook ies
ĠC l
ent s
Ġe m
Ġ /
j ect
ol og
Ġvis it
Ġsc ary
Ġm ust
Ġforg ot
Ġp ie
Ġcl ot
e ad
Ġgr oup
Ġli fe
e k
i ally
Ġyou ng
Ġhun gry
Ġdad dy
Ġc ream
Ġthe se
Ġgra ndma
Ġsuc cess
is es
is od
Ġpicture s
ĠM ary
Ġd anc
Ġamaz ing
Ġp ower
u nt
Ġclim bed
Ġevery thing
ĠM aybe
el s
aug ht
i am
uck y
Ġs ister
Ġt er
Ġtal k
Ġp ubl
b all
Ġro ll
Ġm oney
Ġm ill
Ġep isod
u ary
Ġwas n
Ġm ix
Ġr iver
Ġg i
Ġli ving
Ġlist ened
Ġmo ved
Ġj ob
Ġa nt
Ġhe avy
Ġor igin
Ġd anger
Ġclot hes
Ġd uck
ĠB e
el c
a f
Ġm ed
a j
Ġh it
Ġstar t
Ġchar ac
Ġr ide
ig g
Ġpr ot
n ess
Ġj oy
ur ed
ĠT o
t o
Ġ1 7
i ved
Ġpupp y
Ġl ast
Ġad d
Ġfly ing
o ld
Ġf ree
Ġp ot
Ġ ve
Ġpers on
un ch
Ġwood s
Ġth ough
Ġinclud ing
Ġstr ange
i pp
Ġpull ed
ic t
Ġday s
om an
u nd
c ri
Ġsh ar
Ġp et
Ġsmil es
Ġsp ark
vel op
s w
an y
uff y
Ġ 0
Ġsh ared
Th is
Ġown er
O h
ĠM r
Ġfo x
Ġas ks
ĠJ ust
i ec
Ġd ance
it ies
Ġear ly
Ġcl ass
o ber
ĠF r
Ġp ar
ĠSo on
u z
Ġd ire
Ġor gan
Ġte ac
Ġbro ke
iec es
ĠâĢ Ķ
Ġmor al
Ġh ide
Ġcl oud
ter n
r ay
in es
ment s
Ġy ard
Ġp ieces
Ġlar ge
ack s
Ġprom ised
Ġwa ited
Ġst orm
un e
ĠJ ill
Ġt eddy
Ġb ott
Ġm ark
ĠUn ited
itt en
Ġamaz ed
in a
Ġser ies
er v
Ġ ed
Ġl ake
Ġ1 5
s on
Ġqu iet
Ġ19 8
ĠS c
un g
Ġ1 2
Ġj u
ere st
B ut
Ġkn own
ĠBr it
Ġl ine
t en
Ġar t
Ġpro v
t le
Ġdis app
i pped
Ġre ach
Ġan sw
o ke
Ġro ad
ow s
Ġslow ly
Ġm ain
Ġs illy
s et
our s
Ġint erest
ec ted
ĠDad dy
Ġword s
Ġco ver
ec k
on y
Ġ19 4
Ġg if
ut e
Ġv al
aug h
Ġcour se
Ġar m
Ġclos ed
et h
Ġse ver
ount ain
th ough
Ġfast er
iz e
ate ful
ĠW ith
at ely
Ġde velop
Ġwor ried
z e
Ġw elc
Ġhe art
Ġthin ks
Ġm ay
Ġj our
ĠE ng
Ġc up
Ġc ir
id er
f ort
Ġgr ateful
Ġepisod e
g g
Ġop er
O kay
Ġm outh
Ġtow er
Ġcolor ful
M aybe
Ġsever al
Ġpain t
Ġhelp ing
ĠM ay
Ġhig her
s p
id es
Ġbig ger
at ive
Ġdanger ous
Ġde f
Ġw he
Ġk iss
a ur
us h
Ġcon c
Mom my
Ġb en
ĠW ar
Ġlong er
a h
ic ks
Ġbelie ve
Ġmon ster
Ġbl ank
Ġp en
c es
Ġmon key
Ġtre asure
igh b
Ġad m
Ġsp e
Ġ1 6
Ġse a
Ġcand y
it al
Ġre leased
Ġke y
Ġe ff
Ġmag ical
Ġprin cess
er y
bo ard
itt ing
Ġch air
ĠAmeric an
Ġbow l
Ġbr own
Ġc ity
c ks
Ġsm art
a id
Ġevery where
Ġt aking
an ch
Ġb ike
iver s
Ġoff ic
Ġne ighb
Ġg un
ĠI nd
Ġ19 7
Ġr ound
Ġfar mer
Ġfr uit
Ġdra gon
Ġacc ident
O K
re ad
if e
augh ter
ut h
Ġth rew
Ġto day
ĠM ama
or ted
Ġp ast
uc ks
il t
Ġ19 6
Ġ1 1
Ġn ap
ask et
ar l
ĠA ust
ep t
Ġpie ce
Ġk ing
Ġwr ote
Ġexpl ained
Ġpres ent
W hy
on es
Ġinst ead
Ġs im
Ġh um
ort s
Ġp os
Ġtr ans
ĠG er
Ġste pped
i um
at or
S ure
Ġwould n
Ġb ath
ro p
Ġre v
Ġbe e
ct ion
Ġbr ing
Ġb ite
H i
ow ed
Ġdir ty
Ġc al
Ġfo ot
Ġcry ing
Ġstar s
Ġc orn
Ġhop ed
Ġanim al
ĠG r
Ġ est
ac ked
ear s
ut ion
ĠThe ir
Ġst uck
Ġmat ch
v ely
Ġdoll s
Ġme et
Ġb asket
Ġso ld
Ġeat ing
or row
Ġfr ont
alth y
ub b
Ġcar r
Ġdes ign
Ġst ories
ĠL ater
Ġs uddenly
Ġa v
Ġtw ins
us s
Ġball oon
Ġf ive
Ġnear by
c ted
oc ked
Ġad v
ĠEm ma
ir th
ag es
Ġbuild ing
Ġd ry
Ġpus hed
Ġpro ble
in ing
Ġmag ic
Ġteac her
Ġd aughter
el ly
Ġm id
Ġb uck
Ġfeel s
Ġdro ve
u es
st em
Ġfollow ing
Ġdes cri
Ġdo ctor
ist s
s y
ĠGra ndma
ĠW or
ug ht
Ġcr it
Ġmill ion
Ġapp eared
ig ned
ĠJim my
Ġgent le
em ent
Ġturn s
Ġsing ing
it ch
ĠA d
Ġh ar
Ġof ten
Ġh or
ĠU S
Ġdro pped
Ġw ings
ĠT r
Ġfair y
ĠW ill
Ġd est
Ġc e
y ing
ĠI s
Ġb al
Ġv ill
Ġc ross
Ġfor m
Ġrece ived
it s
Ġ Q
ce pt
Ġrel ie
ĠN o
Ġen g
Ġsong s
Ġcla pped
is on
ĠHow ever
ĠIn side
Ġcr ay
Ġsh ap
ĠG e
Ġpr act
um b
Ġp ock
at s
Ġbel ong
re amed
i ence
Ġst ate
ag ed
v ious
Ġwelc ome
Ġtr ou
Ġhapp en
Ġso l
Ġca ught
Ġcar ry
Ġt akes
Ġhis t
r on
Ġsw ings
p ed
ver n
Ġ $
Ġ1 3
Ġsec ret
Ġs ang
Ġs al
l a
Ġfar m
Ġan n
ĠGer man
ĠH ar
ĠBrit ish
Ġs ix
Ġs ince
end ed
ak en
Ġh on
Ġblank et
n a
B en
Ġr ad
Ġn eck
Ġmo d
y ard
Ġfor get
ĠC on
Ġc re
Ġst reet
Ġretur ned
Ġup set
Ġc ard
ir t
Ġc amp
ĠF or
Ġp ri
aj or
os ed
ĠA ug
Ġche ered
Ġb irth
Ġfe et
Ġsh op
Ġevent ually
ĠS ept
g y
ace ful
is m
ĠSept ember
Ġadventure s
ud e
Ġdisc over
Ġm ine
Ġn est
ĠAug ust
ĠC ol
uz z
os p
ĠM um
Ġresp ect
Ġcharac ter
Ġele ph
c hes
Ġsee med
y p
ĠSt ates
Ġo cc
Ġnot hing
u ly
Ġsho es
Ġl on
ĠK ing
Ġgo vern
Ġth ose
Ġw ish
Ġar ms
ĠP r
Ġbec ome
Ġapp le
Ġe as
Ġno ises
Ġare a
ĠJ an
Ġv iew
Ġorigin al
m ost
Ġl ed
pp ing
Ġbu ilt
Ġcom es
Ġqu est
Ġow l
Ġto m
ri b
ĠWh ile
ĠA n
g in
Ġ1 4
Ġlon ely
Ġon to
ag er
Ġr a
. .
Ġl unch
Ġj ar
ĠE ll
Ġpock et
ĠCh r
is ted
Ġhold ing
Ġs ugg
we et
Ġk m
ll o
Ġc ou
Ġro cks
Ġbr anch
p ort
ĠWor ld
Ġsound s
Ġexpl oring
qu e
iv ing
il ity
A nna
Ġw ide
Ġhug s
Ġf ence
Ġcol lect
Ġ19 5
Ġv ide
ut es
ĠM e
Ġca p
Ġs oup
Ġw ise
ĠO ct
Ġcont ro
Ġpart ic
Ġm ail
Ġw oman
e al
Ġf it
Ġn orth
ic ked
Ġor ange
Ġb ur
Ġm ach
Ġapp ro
Ġinc re
Ġsh ook
ĠFl uffy
u ce
ens ive
ĠAust ral
aught y
n e
Ġback yard
Ġsy stem
Ġp ig
ow ing
Ġn aughty
ĠJ une
Ġshe ll
Ġs itting
Ġprot ect
Ã ©
Ġ19 3
Ġpre ss
Ġsp ent
Ġsh ort
Ġpur ple
ĠA nn
ĠO r
Ġsw am
Ġa f
t e
ĠSam my
ĠOct ober
Ġben ch
d le
in ess
in ation
ĠGe or
D o
Ġshap es
Ġpat ient
Ġor d
Ġe ast
Ġno se
Ġwo ke
Ġjour ney
Ġt iny
Ġm en
Ġv ar
Ġbus y
Ġsupp ort
ĠB y
Ġsing le
Ġl a
Ġl aw
Ġf ather
Ġto uc
Ġm ist
Ġim ag
Ġ19 1
Ġm ad
b ow
Ġs ick
Ġgra nd
r ing
es ted
Ġhug e
Ġte le
m on
Ġre qu
Ġwonder ed
and y
Ġc ur
Ġcent ury
Ġal most
ic es
Ġrelie ved
Ġ ]
ĠN orth
Ġha lf
Ġsp in
ĠS e
Ġe gg
ra id
Ġgif t
Ġg ather
Ġd em
t al
Ġcomp et
Ġpo st
Ġdri ver
Ġwho le
ĠP l
Ġk ite
o v
Ġ [
ĠP eter
Ġju ice
Ġcreat ure
Ġfore ver
Ġb an
Ġf ing
ian s
Ġbirth day
Ġt aken
Ġs our
d en
Ġl ay
Ġd eter
ain s
Ġp ath
Ġb oun
Ġg ives
Ġaf raid
Ġprom ise
Ġpubl ic
Ġb ought
ĠT weet
Ġ %
Ġm ajor
ĠJ uly
Ġeleph ant
Ġcomp le
ĠR o
p ar
Ġhor se
ar s
Ġes c
pr il
Ġca pt
f ic
Ġwatch ing
Ġh ope
Ġpo ss
Ġcut e
ĠA pril
Ġh ur
Ġshar p
Ġl ow
Ġb le
str uc
Ġaccident ally
ord ing
ce an
Ġe mb
ĠTh ank
O f
ĠN ove
ĠS ome
ĠNove mber
ĠF e
Ġexp er
Ġs elf
Ġcir c
Ġr ub
Ġinclud ed
Ġth ird
Ġapp ear
Ġr u
Ġtouc hed
ent ion
Ġswim ming
g es
Ġexc iting
en se
itt ens
i k
Ġdr ink
ivers ity
Ġimp ress
Ġm ot
Ġsa f
Ġst ra
Ġmon th
Ġfin al
Ġh ours
Ġt est
up er
sh ip
Ġfur ther
Ġpoin ted
Ġe v
ĠC ome
ĠM arch
Ġsun ny
an a
ĠE d
ad ow
Ġany one
ĠD on
ĠY ork
Ġp ort
Ġche ese
ld er
oo se
Ġbuck et
Ġt em
S ara
Ġn et
Ġw ild
Ġvide o
Ġse arch
ur al
Ġhe llo
pp er
Ġw ra
iv ely
Ġlaug hing
a ul
Ġs ent
ec h
Ġbo dy
Ġmat ter
it er
sh ine
art h
Ġb reat
T im
Ġt imes
Ġvill age
Ġa p
r act
Ġbre ad
Ġor der
Ġ3 0
Ġcra w
Ġm ind
Ġwor king
im ed
ur ch
Ġrain bow
Ġf ig
Ġis land
Ġbus h
Ġmil k
Ġca ve
Ġus ing
Ġwe ek
Ġmin utes
ĠEm ily
oin ted
Ġpl ane
Ġg igg
le br
Ġbott le
Ġse ar
Ġwh ist
Ġs outh
iss ion
ĠJen ny
Ġco zy
Ġen c
Ġh oney
Ġinterest ing
r at
Ġtal ked
Ġdeter m
gr ound
Ġser v
Ġmo der
at o
Ġm ountain
Ġsuccess ful
b ers
ĠC ar
l ish
if f
Ġp ay
Ġ vers
H ey
S t
Ġco st
ĠM c
Ġcle ar
Ġsun shine
ro y
Ġpass ed
Ġpl ant
if ied
Ġpl aces
Ġcl ub
is a
Ġd ue
ĠDe ce
Ġf act
ag ue
Ġf re
Ġcan n
ĠS outh
b s
Ġco nd
ĠP h
ĠDece mber
it her
d om
air s
Ġsear ched
Ġce lebr
Ġto ur
Ġsh out
ent ly
Ġro b
Ġl ucky
Ġcar ried
Ġfight ing
ĠF o
Ġd am
Ġproble m
Ġsand w
Ġ2 5
Ġput s
Ġpol ice
Ġs on
Ġmach ine
ĠJan uary
Ġdri ve
Ġpop ular
Ġb ased
Ġp udd
ĠA b
Ġretur n
Ġfe ather
Ġgo ld
Ġcom b
ic ally
Ġ19 2
Ġlet ter
Ġplay er
Ġr ing
Ġfor ward
Ġmy ster
Ġgovern ment
Ġhe althy
Ġt it
Ġtr ack
ĠD an
fort able
w ork
s el
Ġapp les
Ġgo es
Ġwr ite
Ġwear ing
Ġgi ven
Ġli ve
Ġsmil ing
er ry
Ġneighb or
ĠE ur
Ġon ce
Ġo pp
Ġspot ted
Ġp ill
Ġde ath
Ġsm o
as ing
Ġcorn er
Ġad ded
Ġcloud s
Ġsp read
Ġar g
Ġcount ry
ĠI I
Ġdif fic
ĠN e
an ged
Ġcle ver
ap an
Ġm ud
p a
ĠS m
Ġsh r
Ġe qu
Ġ. ..
Ġlo ves
Ġwa ve
Ġt en
ĠT V
Ġtrou ble
s c
Ġrev iew
Ġp ile
Ġco at
iv al
Ġtast y
Ġp uzz
he ad
e f
e en
Ġdescri bed
ĠM ark
Ġgi ant
ĠJ apan
osp ital
Ġpre vious
Ġsp oon
it ive
Ġpo or
l s
ĠChr ist
Ġbr idge
Åĵ I
Ġatt em
Ġme ant
Ġre lease
G ood
ĠS omet
Ġst ep
ĠF red
g ged
Ġd ucks
ep end
Ġz oom
Ġco in
i or
Ġr ope
Ġz oo
Ġsh ining
ĠTo gether
ĠJ ake
Ġas h
r ated
Ġansw er
ro duc
Ġbut ton
Ġes p
Ġp ack
at ter
Ġcray ons
Ġt ries
Ġst one
l er
Ġch ange
Ġpoin t
ren ch
Ġche er
Ġst ri
il ar
ain ing
ĠC o
ion al
ĠM y
is hing
Ġo cean
a ff
ĠB ill
Ġdanc ed
Ġsmell ed
ec ially
og ra
ĠGeor ge
ren ce
i od
Ġme mb
ĠCom m
Ġ ign
ĠM ittens
ĠL isa
id ing
pl ay
Ġsn ack
Ġpro p
Ġc ow
Ġtri p
Ġsp o
Ġte eth
Ġesp ecially
p ted
Ġfin ish
sel ves
Ġsn ake
Ġ1 00
y al
p or
ĠT e
Ġph one
Ġcomm and
Ġcann ot
Ġst at
v ision
an n
Ġas leep
ĠD av
Ġ Â
Ġfig ure
Ġwith in
Ġdest roy
iv ision
itt y
J o
Ġse at
Ġsc reamed
Ġconf used
Ġlo vely
C ome
ick et
Ġ er
ie f
en e
Ġhow ever
Ġst ret
Ġb ark
out e
Ġsay ing
Ġgent ly
ĠS us
Ġg as
Ġst ation
br uary
Ġco ll
Ġis s
ĠBr own
Ġal though
ĠFe bruary
ĠJo h
is ing
iz z
Ġmoder n
Ġmemb ers
ĠB at
g th
bo x
Ġadd ition
Ġeff ect
Ġcomp let
Ġdir t
Ġsnow man
Ġs um
ĠL ittle
Ġfl ag
Ġspec ies
Ġl ab
r or
os aur
Ġcol our
ĠI nt
Ġroll ed
Ġtra vel
Ġc op
ar ra
Ġsc ar
Ġr ul
Ġpol it
Ġl ad
n ic
Ġb ase
Ġs ell
Ġoff ice
p ite
Ġc oo
k in
Ġst y
Ġthr ow
i que
Ġspl as
Ġg rew
anc y
Ġdel ight
Ġtal king
oc ol
Ġdiffic ult
Ġw ore
ĠP e
ig er
it ions
Ġf aces
Ġtast ed
anc es
Ġh ospital
ra ft
Ġsmo oth
Ġtell s
Ġfor mer
g est
ĠN ational
Ġper iod
Ġp our
Ġwe ak
Ġam ong
Ġin s
Ġsp ider
n am
ĠEur ope
Ġcal m
oo f
Ġinf l
ĠE l
ĠF rench
Ġe ight
Ġdec or
c ast
uit ar
Ġb ell
al es
Ġrem ind
l ight
Ġst age
Ġp ool
Ġt un
ĠG u
Ġ201 0
he l
Ġforg ive
Ġw est
um e
Ġpower ful
Ġpe aceful
ĠH en
Ġall owed
Ġmo v
Ġch ick
Ġr ude
ol f
oc i
Ġwait ing
Ġmiss ed
ĠE ven
Ġo ven
Ġmid dle
ip e
Ġshow s
Ġro le
Ġ X
Ġc or
ĠJ ames
Ġpus h
Ġhelp ful
end ing
Ġin it
ĠWill iam
ĠM an
ĠI f
ĠW est
Ġtr ust
Ġbo ard
Ġeng ine
ĠB ar
Ġt yp
Ġfix ed
re ady
Ġpic nic
Ġcook ie
Ġpretend ed
Ġstr ing
Ġsh y
Ġv ol
e b
Ġ2 1
ed s
ĠD uring
ĠP et
Ġjoin ed
rop ical
Ġfur ry
ĠM in
Ġest ab
Ġto r
Ġkn ee
ĠGra nd
Ġcons id
Ġt id
ut ed
er p
Ġp an
Ġs uff
Ġch ocol
c l
Ġloc al
Ġland ed
Ġcomp any
ul ation
Ġatt ack
Ġob s
ig hed
Ġv ict
ĠM ich
arra ss
Ġmo ving
Ġde b
c om
uc t
Ġal ready
Ġsho ot
Ġs il
Ġhid ing
Ġtom orrow
Ġimp ro
Ġsa ve
Ġe ager
Ġcreat ed
Ġemb arrass
h o
n al
h am
Ġtast e
Ġst ood
Ġble w
Ġ200 8
Ġpl ants
Ġfe ature
ĠT od
ra g
Ġex am
le x
Ġlad der
er ing
Ġwe e
Ġstand ing
Ġ200 9
c ial
Ġle af
Ġwr itten
Ġwhen ever
Ġch ased
nn y
ph y
Ġsim ilar
it ary
Ġreg ular
Ġind epend
Ġve get
M y
Ġdr um
ĠP at
Ġ2 4
ĠP aul
ĠSomet imes
Ġpl aced
Ġcou ch
Ġro d
Ġtreat s
Ġg uitar
Ġca se
f l
Ġp il
Ġg ar
Ġdeterm ined
Ġfe ed
Ġleg s
ĠG o
Ġh ous
Ġcon struc
Ġle vel
ab les
ĠT eddy
Ġmark et
Ġcreat ive
as es
ert ain
Ġ201 1
Ġab ove
Ġst ir
Ġpl ate
Ġbug s
Ġneck l
Ġ &
Ġoff ered
m en
ub e
Ġp ra
es tern
Ġtr ue
he st
Ġdiscover ed
Ġchocol ate
om in
ung le
Ġbl ock
en n
ir on
Ġm aybe
Ġshe lf
Ġem pt
Ġhist ory
op h
l ine
Ġd rew
Ġme asure
Ġv i
Ġcover ed
Ġrem ained
ĠEng land
Ġself ish
r it
Ġgl ass
Ġpudd le
Ġtele vision
Ġconsid ered
Ġsh ore
Ġsur f
Ġhon est
Ġa ff
Ġdist ance
Ġsa ck
Ġmo on
Ġcl oth
Ġme m
ĠA ng
Ġsp ray
Ġshar ing
ro c
Ġkn ocked
ell a
se qu
Ġd ig
Ġp aw
ump y
Ġsugg ested
Ġj ungle
a ked
Ġgr ay
Ġ2 2
ast ic
Ġwas h
ĠA m
Ġse par
Ġ200 7
Ġcomm un
Ġr are
ric ane
Ġbar ked
Ġa uth
Ġann oun
k n
ĠEvery where
am er
Ġsh irt
Ġinclud e
ĠP ark
Ġjump ing
Ġpoin ts
og n
ĠJoh nny
c y
l o
ust rated
ĠE ast
Ġfe ar
Ġcarr ot
ĠSt e
Ġrob ot
Ġn orm
el p
Ġempt y
ect ion
ĠB o
he t
amp ions
Ġt aught
Ġde fe
Ġrecord ed
ĠC ity
Ġunderst ood
Ġte ach
Ġv an
ce ed
im ent
Ġs uper
ĠEng lish
Ġcall ing
Ġwr iting
Ġn ut
Ġp in
P lease
Ġproduc tion
ic tion
Ġpartic ular
ĠC ount
ĠBl ue
Ġpos ition
om en
le cted
Ġeas y
al k
Ġembarrass ed
ĠHen ry
Ġvers ion
Ġte a
enc es
Ġdire ct
ĠThe se
Ġsee k
igh ter
Ġear l
Ġl it
Ġcar t
Ġsp ace
Ġinv ol
Ġhid den
Ġneckl ace
Ġj og
Ġgo al
Ġd et
re st
ĠAl ice
Ġwa ves
ĠC ent
Ġtight ly
Ġ201 2
ĠP lease
ond on
Ġshe ep
ad o
Ġde ad
ree k
Ġst icks
Ġext ra
Ġbreat h
Ġwh is
c o
Ġtr ad
Ġd ied
Ġrec ogn
Ġtid y
ap s
Ġe ither
ĠA lex
Jo hn
Ġmix ed
Ġj ew
T here
Ġth ick
res ent
Ġinfl u
Ġan c
olog y
Ġdisapp ointed
Ġob ject
Ġf ail
Ġcarr ots
Ġleav ing
Ġ2 3
ĠL ondon
ĠR iver
Ġthem selves
Ġpro ject
Ġman aged
in t
v al
Ġres ult
Ġg iving
f ted
Ġh ang
bo dy
f ord
Ġf ill
Ġlo g
ĠW hy
ĠA ir
ab ly
ĠT w
Ġhear s
Ġg ate
Ġcr own
ĠR ed
Ġcontro l
Ġav ail
u el
Ġon es
oo p
Ġknow ing
Ġfam ous
Ġwhist le
Ġch anged
ĠC al
Ġcont ent
Ġ19 0
Ġres ul
um ent
st it
Ġqu ar
Ġmyster ious
Ġele ct
Ġre ve
iet y
i est
Ġash amed
c raft
ĠE x
ĠCan ad
med i
Ġpro f
gr am
Ġspl ash
Ġme adow
ĠM ummy
Ġattem pt
ĠLe o
Ġprin ce
Ġw ife
Ġcre ate
a u
Ġbed room
Ġh unt
ĠUn iversity
Ġt ent
Ġme ans
a pped
Ġhum an
Ġgather ed
Ġcomm on
enc y
Ġto tal
Ġfe at
Ġno vel
Ġlo ck
Ġser ved
on om
ĠM or
Ġinv est
Ġm el
Ġyell ed
erv ous
ang u
Ġcra b
Ġcom pl
Ġgener ous
Ġsn acks
l ies
ic ro
Ġn ervous
g ing
Ġd i
Ġche st
Ġs ight
ĠS y
Ġexp ensive
Ġend ed
Ġp ir
Ġey e
pp y
m in
Ġship s
Ġb ored
Ġbat ter
il ed
at t
Ġsa ved
Ġph ot
al y
Ġche w
ĠE nd
Ġsmall er
Ġint roduc
Ġmed ic
Ġfing er
Ġdin osaur
i ant
ol a
Ġmov ie
Ġproduc ed
Ġpuzz le
Ġw olf
Ġk itten
Ġspark ly
il le
ĠDav id
W here
ĠTod ay
Ġrep orted
Ġperform ance
Ġfr ustrated
Ġpubl ished
Ġits elf
ol es
ug ar
Ġs uit
Ġas king
al d
ap t
Ġt ie
Ġl im
ĠN or
izz a
S am
is er
Ġstud y
Ġbat tle
ĠM ad
Ġst ated
i ers
n s
Ġpro gram
Ġbe gin
ĠM ag
Ġavail able
az ine
Ġbo ss
us hed
Ġm ir
Ġ200 6
ĠH igh
Ġfav our
Ġsandw ich
Ġsty le
Ġsc ream
it es
g u
Ġspe ed
Ġnod s
ast er
Ġcare er
ill s
Ġget s
Ġy et
Ġegg s
ĠG ener
Ġhous es
uc ture
Ġorgan ized
Ġpol ite
Ġrad io
ch ie
ec hn
Ġli ft
Ġan g
Ġserv ice
cc ording
ĠTh om
Ġthank ful
Ġscar f
om es
ĠS w
Ġfor t
b led
Ġun ique
Ġp al
Ġro ar
Ġf ancy
ĠE vent
Ġr ough
Ġmonth s
m p
Ġdraw ing
ill ar
Ġfor ces
Ġg en
Ġpract ice
Ġj elly
c ent
Ġwor ks
Ġmot or
ĠRe x
Ġser ious
Ġdanc ing
Ġb i
Ġp izza
Ġsp icy
Ġs ighed
f orm
al ed
Ġansw ered
itt ed
Ġvi ol
re y
Ġmess y
Ġsleep y
Ġu r
Ġcat erp
Ġher o
Ġclos et
is hes
r ound
ubb les
n el
Ġwor m
Ġp leased
ĠC r
ĠR ep
Ġde er
Ġ2 7
Ġr ail
Ġ5 0
Ġact iv
St op
ĠD es
Ġyour self
ĠAl though
om m
' d
Ġinst r
Ġe lder
Ġsc reen
Ġstr ucture
ĠM us
Ġesc ape
Ġlo se
Ġch urch
Ġ2 8
Ġr ich
ĠR ose
Ġnorm al
g ly
ĠP o
ĠBob by
Ġwee ks
Ġsc ore
Ġn ature
Ġl angu
Ġlo yal
ĠSm ith
ĠQ u
Ġsail ed
Ġst uff
Ġag ree
Ġcharac ters
Ġquest ions
Ġair craft
er al
ĠSus ie
a el
Ġmil itary
Ġauth or
ĠM ike
Ġgr umpy
ĠR oy
Ġt ears
Ġexc it
Ġl ying
a e
ĠA f
Ġun us
Ġ201 3
Ġpr ay
ĠEvent ually
Ġca b
Ġgu ard
ug h
Ġun l
ad ed
her n
Ġkiss ed
Ġs ugar
iss ors
Ġn ic
ar ian
Ġexcit ement
Ġwall s
Ġho pping
Ġbott om
ampions hip
Ġu gly
Ġkn ight
Ġcrit ic
Ġc y
Ġstr ugg
Ġfor ce
ĠAustral ia
Ġmedic ine
Ġb one
ĠF irst
Ġent ire
iz zy
Ġfoot ball
c i
Ġmet al
Ġtw irl
Ġrock et
Ġa ut
Ġp ow
Ġobs er
Ġmist ake
b ur
in ary
k y
Ġm ass
Ġnum bers
Ġplay ers
ĠS im
u nder
Ġf ine
Ġindepend ent
Ġsc issors
use um
Ġsum mer
Ġcom fortable
Ġb oring
Ġneed s
Ġed ge
A re
Ġj ud
out hern
Ġc ere
Ġcaterp illar
pt ion
Ġ4 0
an ks
a ign
Ġanc ient
Ġrep resent
Ġfo ld
Ġc ries
Ġdog s
Ġwhe el
Ġse ven
c ut
ĠC or
ar n
Ġca used
Ġm ummy
ra ge
Ġ2 6
ĠSt ate
Ġveget ables
ĠM ill
h a
Ġm arch
Ġres c
Ġfeather s
Ġp acked
Ġannoun ced
Ġperform ed
Ġm icro
ut er
ĠS ec
Ġs ize
Ġdevelop ment
Ġ18 9
Ġco ins
Ġc age
Ġf t
Ġm ap
Ġli br
B e
Ġo k
Ġha m
Ġwa gged
Ġtit le
Ġdisapp eared
Ġbelie ved
S orry
ac ing
Ġa ud
Ġwal ks
Ġf ake
kn own
n et
ke ep
Ġen er
ĠG od
Ġdevelop ed
Ġv ase
Ġh orn
Ġf at
Ġa w
ĠR ober
ĠH o
Ġbr ush
Ġearl ier
Ġpic ks
Ġocc ur
Ġend ing
ĠAr my
Ġsw ord
ĠK itty
c an
Ġestab l
Ġmil es
f er
Ġref used
Ġwa nder
Ġr at
Ġt ax
er c
ĠP ro
Ġpain ting
Ġw ing
Ġsqu are
Ġqu een
Ġcomple ted
ac hes
ĠGener al
ĠS n
Ġbrother s
Ġbal ance
Ġboy s
h ood
Ġcl own
Ġfruit s
ĠG l
Ġn ational
ang es
Ġinc red
Ġst ren
ĠR ob
Ġgigg led
Ġunus ual
Ġelder ly
ĠPet e
ĠLe ague
az y
Ġt ag
Ġdec l
Ġthrough out
Ġpre vent
as er
ĠP res
Ġsh ot
Ġcomplet e
ic le
Ġquest ion
Ġoffic ial
Ġsh ark
Ġw ip
Ġdel iver
anc hes
Ġsign ific
Ġim medi
Ġinv ited
Ġsh ape
ff ic
Ġsk in
Ġm ater
Ġdep end
Ġb orrow
Ġch ose
Ġlear ning
Ġst ones
ubl ic
Ġt ape
id ence
Ġcon n
Ġhist or
av en
Ġn ames
Ġnot ed
W ho
Ġdec ide
Ġbr anches
ill a
Ġare as
ĠAmeric a
Ġmir ror
Ġst ream
a ks
v in
ac y
ĠD ivision
Ġresp ons
Ġun known
Ġb ake
at ic
ĠS qu
ĠP ar
ĠP ol
app ing
ĠCom p
Ġgun s
Ġgl ue
Ġdis play
Ġk illed
Ġag e
Ġl azy
le ge
Ġbath room
Ġche ck
Ġr oof
ĠCh ar
Ġsweet ie
Ġball s
Ġy og
ph one
Ġpra ised
Ġle mon
a i
Ġenc ou
ĠO K
ther n
Ġvar ious
Ġsplas hed
ĠRo ad
Ġimpress ed
im ately
Ġper m
o ons
ĠMr s
Ġ200 5
Ġpre p
Ġhur ricane
Ġd ish
ell ig
Ġposs ible
Ġplay ground
ĠâĢ Ļ
ĠSt reet
ĠEll ie
la imed
em s
Ġsur round
ĠPh il
ĠR uss
ĠCount y
Ġrel ax
Ġsm elly
Ġa ver
Ġl amp
Ġso ap
Ġin sp
re ll
Ġb ill
Ġpro cess
Ġsc ale
Ġcir cle
Ġc amer
ut ure
Ġpolit ical
Ġhar m
r ation
Ġa chie
Ġdo l
Ġshow ing
ress ion
Ġru ined
Ġmag azine
ee z
N ow
Ġgr own
v iew
Ġno isy
Ġcab in
f ield
ĠJapan ese
Ġdisc uss
Ġincred ible
Ġreal ised
Ġinvest ig
Ġd iam
Ġe c
Ġj oke
Ġl icked
Ġ2 9
app y
Ġcamp aign
om b
M e
Ġpr im
fe rence
om ing
ĠJ e
Ġ201 4
?" .
n ight
Ġa head
Ġme mber
Ġvict ory
is k
Ġboat s
Ġch art
Ġf a
Ġt urt
Ġold er
Ġmom s
Ġk ick
Ġp ump
Ġj o
Ġst aff
Ġdr ank
Ġent ered
Ġli fted
Ġro se
Ġfl uffy
umb led
Ġt ropical
ĠM on
Ġsp ir
eal ous
Ġc rew
Ġpat tern
Ġchick en
Ġrep e
ĠD ave
keep er
Ġsk ipped
ian o
Ġway s
Ġyour s
enc ed
Ġch ase
Ġstra w
Ġco ast
Ġprov ided
Ġre se
Ġmater ial
Ġd iv
Ġe arth
ay s
ol ution
Ġch oose
al ity
ĠA nt
Ġbar n
Ġt iger
u le
Ġclean ed
Ġf rag
Ġt echn
Ġact ion
Ġbr ill
Ġlead ing
Ġn or
iz ation
Ġn on
Ġ ident
ic a
Ġju icy
u able
Ġj ealous
Ġs ort
ip s
ĠYou r
Ġsignific ant
i able
Ġmin ute
om ed
Ġwe ird
ad es
Ġdol ph
Ġr oute
ĠIs land
as hing
Ġf oc
ĠM andy
ĠCh arl
Ġto ugh
Ġord ered
Ġbro ad
Ġhappen ing
Ġfavour ite
Ġfind ing
est s
ĠA ccording
Ġpart s
Ġpill ow
Ġgar age
ĠB ella
Ġsp ring
Ġa ward
Ġb er
Ġfor med
Ġfl ash
ĠEll a
ber t
p ack
ur ous
Ġfr ight
Ġsur v
Ġ !
Ġestabl ished
ĠRe g
Ġgrow ing
Ġkn ife
Ġbrill iant
udd y
and a
Ġbelong ed
ĠR ec
Ġr ather
ĠR ich
Ġdam age
ĠThom as
Ġfall s
Ġwh ale
Ġsm oke
Ġter ri
Ġval ue
ĠAf ric
Ġm m
om p
Ġener gy
Ġadvent urous
W ell
Ġfre sh
t ime
oo ps
Ġrel ation
h i
Ġfeature s
Ġd a
ĠMich ael
ĠOn ce
ĠAustral ian
Ġin j
Ġt ank
Ġpoin ting
Ġcheer ful
Ġw omen
Ġb ubbles
Ġmiss ing
Ġran ge
Ġtow el
ier ce
Ġint ellig
ĠTweet y
ĠP art
Ġcolour ful
t i
Ġf uture
ĠH ouse
Ġrepl aced
Ġb ul
Ġap olog
ot ed
Ġjew el
Ġval uable
all en
Ġlangu age
oun c
Ġuse ful
Ġgener al
Ġnot ice
ak er
ĠBob o
Ġsc ored
al t
em o
Ġcarry ing
Ġshell s
Ġhelp s
iv il
Ġstar ting
ĠM il
enc il
Ġfr own
Ġj ack
Ġpain ted
H elp
Ġhig hest
Ġtr unk
Ġp air
Ġhard er
Ġbal d
Ġp encil
Ġle ast
Ġth reat
at ors
ĠS er
ar i
ĠM iss
Ġho se
Ġgu ess
oc o
Ġloc ated
Ġb orn
Ġcamer a
Ġsuc ceed
r ight
Ġwa ke
Ġcirc les
ar ing
Ġpro per
Ġwa nd
Ġf ool
ĠFr ank
ĠK im
Ġdri ving
ĠB ra
Ġtr ucks
Ġsh ake
Ġp aid
Ġear s
Ġenjoy ing
Ġmar ried
ech an
Ġar ch
Ġhand ed
ĠS oph
Ġmeet ing
Ġwra pped
Ġopen ing
Ġcraw led
e x
Ġdestroy ed
iv id
ĠRoy al
Ġsp end
ĠSt ar
ĠL ou
he ast
Ġball oons
Ġkind ness
is her
Ġtr ade
ĠA ss
in o
Ġ18 8
Ġbox es
Ġsp un
Ġatt ract
Ġexper ience
Ġber ries
Ġf if
Ġsaf ely
Ġmight y
Ġc ell
f ast
Ġstret ch
g o
ĠRober t
ĠQ ue
Ġatt ention
h us
Ġturt le
hy s
t ons
ĠL ee
w ood
Ġrep air
ce pted
Ġprin t
Ġcl ay
Ġfl ood
Ġlight s
Ġhurt s
Ġf an
Ġ3 1
m et
Ġdec ision
Ġknow s
Ġloud er
Ġcomp uter
Ġp iano
c ked
h ouse
ĠM ed
Ġd izzy
Ġban ana
Ġstraw ber
Ġdoes n
Ġpil ot
r ot
Ġt ied
as c
ĠInd ian
Ġ ing
ĠR os
Ġ200 4
Ġdem and
Ġtoo ls
Ġcl ock
Ġbus iness
Ġadv ice
Ġcom ment
Ġimmedi ately
Ġs ite
Ġprov ide
Ġbird ie
Ġnot e
Ġpop ulation
Ġsc are
Ġho st
ist ent
Ġread ing
Ġnew sp
Ġloud ly
Ġbreak fast
Ġdes igned
Ġde v
Ġhold s
Ġlo ss
ĠBe fore
Ġshe l
ĠS ch
ĠN emo
ĠAnd y
l t
Ġsl ipped
Ġcur rent
Ġn ur
Ġv oc
Ġpr ed
Ġdream s
ĠG reat
Ġlibr ary
Ġpe e
Ġlaugh s
Ġsc ene
Ġ18 6
ĠBl ack
Ġhat s
B y
z er
Ġboss y
Ġexpl ored
Ġhapp iness
ĠS chool
ĠD r
Ġwe ap
se ct
f all
ic o
Ġstrong er
ĠFr ance
Ġo il
Ġtell ing
Ġb as
Ġproud ly
Ġrelation ship
Ġfright ened
il ty
Ġwhis p
e ep
Ġtor n
Ġst ubb
Ġd reamed
Ġm echan
Ġres ist
Ġloc ked
ĠGrand pa
Ġfour th
b or
Ġre b
Ġha ll
Ġinf orm
amp le
Ġbut tons
Ġthin king
p es
pl oy
Ġkind s
b les
ap ers
Ġsound ed
Ġjour nal
Ġsub sequ
Ġorigin ally
Ġste al
Ġ201 5
Ġrul es
ac hing
orm ous
ĠH all
ounc il
H ere
Ġe mer
ĠA re
Ġconstruc tion
Ġa unt
Ġex ample
Ġsh ut
u ing
Ġdelic ate
ĠT ob
ĠL a
r ison
Ġwa gon
Ġen ormous
ist ic
Ġo bed
Ġsw an
Ġw itch
Ġgr aceful
Ġf ierce
ec ause
Ġfor th
Ġstubb orn
s es
ar m
Ġsy mb
Ġcr ack
Ġwin ter
hus i
Ġsp r
Ġfe m
Ġass oci
Ġbit ter
Ġmod el
Ġbl oom
Ġl ines
Ġgu ilty
u ation
ĠInt ern
Ġle an
Ġun cle
Ġtr uth
ers on
n es
Ġve h
um ber
Ġfool ish
ir ing
est ival
Ġsp oke
Ġac cepted
ĠHe re
Ġrod e
ĠB el
Ġam b
Ġs igned
o ved
Ġwe althy
Ġj am
Ġdiam ond
Ġb elt
Ġent husi
Ġch ance
Ġlet ters
Ġvis ited
ĠB est
Ġac cept
L ila
Ġp un
Ġ icy
Ġexc laimed
Ġfr idge
Ġsepar ate
Ġcour t
ĠAng el
Ġimpro ve
ĠA ct
Ġtom ato
Ġf ountain
Ġk icked
Ġd ust
Ġcray on
ĠP er
Ġc her
Ġm i
Ġnic ely
H e
Ġ200 0
Ġpour ed
Ġch allen
Ġd ou
am b
ient s
ol i
Ġwip ed
is c
Ġfeat ured
Ġbig gest
Ġtrad ition
Ġadm ired
ĠIt s
re g
Ġsymb ol
Ġtr acks
Ġqu ite
ĠS an
ĠPres ident
p e
nam ent
Ġdro p
Ġprof ess
Ġind ivid
ĠL ola
Ġspir it
ĠD ucky
ĠP ort
Ġobed ient
Ġar my
k i
ĠP en
Ġcount ed
Ġsol ve
Ġplay ful
Ġthought ful
Ġ5 00
ĠPl ay
Ġno sy
en gth
Ġham mer
Ġaver age
Ġc udd
Ġcla im
in king
Ġm ult
Ġmo le
c ing
Ġfriends hip
Ġspl it
art ment
H ow
Ġfing ers
A fter
Ġgrand pa
Ġintroduc ed
Ġ18 7
Ġfrag ile
Ġw id
Ġsc rat
ashing ton
ors es
ist ing
ĠTw o
Ġth under
Ġcl ap
Ġcr icket
Ġset t
Ġreg ion
Ġind ust
in c
Ġsto ve
ell ed
Ġbel ow
Ġbag s
Ġcrit ics
Ġspin ning
Ġw ire
Ġwe ather
i us
Ġstren gth
ĠJ ul
at a
ĠH am
Ġexcited ly
ant ic
f ish
Ġfind s
Ġterri ble
ĠO ther
Ġr aced
Ġne g
ĠW il
Ġincre ased
r u
Ġwindow s
h an
ĠS l
ĠM art
Ġwin ning
Ġfle x
Ġremind ed
Ġst amp
Ġbl ood
Ġbus hes
h ost
Ġsil ver
Ġsn ugg
Ġmat ches
Ġt ick
Ġd ough
ver se
Ġgo at
Ġplan et
Ġsold iers
ĠW ashington
Ġpri ze
l oo
ll ip
ad ium
Åĵ Let
st al
ric t
Ġpe ace
c orn
st ant
Ġrel iable
Ġrec omm
Ġest im
o ot
Ġdelight ed
Ġcount er
Ġsurf ace
s ing
up id
ri an
Ġtr oops
Ġspo iled
Ġstat ue
Ġbad ly
Ġrecord ing
en a
mb rell
Ġdist ur
Ġevent s
Ġsearch ing
Ġst umbled
Ġgener ally
!" .
ĠHar ry
Ġre ward
Ġec onom
ress ed
Ġpres ident
Ġr ushed
Ġse x
Ġparticular ly
Ġ200 3
Ġ ill
il ing
Ġproble ms
Ġbright ly
as ion
Ġex ec
Ġclean ing
Ġtun nel
Ġbe es
Ġr ug
ure s
u ke
Ġtw ig
Ġdepend able
ad ron
bur g
Ġme as
ĠB ear
id s
ent ial
llow ing
Ġele v
Ġrepl ace
ĠL i
ĠBat tle
Ġimpress ive
Ġpartic ip
Ġrest aur
Ġc one
en es
Ġ iron
h ile
Ġop ens
Ġbuild ings
Ġbr ace
Ġstar ts
ĠC our
ĠWhen ever
ĠB ur
Ġsee m
ro be
it ation
Ġf ed
Ġp up
Ġun com
ĠT ur
h od
Ġmess age
olog ical
Ġtra ins
Ġpic king
oc key
Ġsc atter
Ġinvol ved
Ġhand le
Ġl ower
Ġu mbrell
Ġl ength
ant ry
Ġch ir
e er
Ġsleep ing
Ġplan ned
Ġpat ch
d uce
A l
Ġnew s
Ġing red
ee ze
Ġt ummy
Ġsh one
Ġbegin ning
Ġpot ato
z ard
Ġp ale
Ġac orn
Ġb ump
Ġm ph
Ġwas hed
ĠNe xt
ĠTob y
Ġ3 5
an ut
ent y
ic ated
Ġm ention
Ġus ually
ĠC up
il i
Ġse eds
Ġco al
Ġpar rot
Ġar row
Ġem ploy
Ġsun fl
Ġwhisp ered
Ġreg ard
Ġb ull
Ġh orses
Ġinter n
ipp ing
Ġs ink
anc ed
Ġp it
Ġj olly
Ġm useum
Ġa er
Ġf und
Ġcomp ass
Ġn ine
Ġsn iff
Ġcl um
ĠM o
Ġsa uce
Ġd ull
v ille
Ġhair y
ĠR ock
llip op
z z
az z
Ġs udden
ĠM id
Ã ¡
r am
iz es
Ġtow ers
Ġdo ve
Ġwra p
B C
ĠV ir
Ġwar ned
w est
Ġli ves
us ing
ĠR es
Ġbec oming
Ġboun ce
Ġstop s
re nder
at ural
het ti
Ġdolph in
Ġra ised
Ġst upid
ul a
Ġlo llipop
ĠMar ia
Ġto ast
ĠEurope an
Ġreve aled
Ġn ation
Ġs end
av al
Ġpop corn
Ġbe ak
Ġde al
Ġoff er
os ition
ĠF il
Ġlar gest
Ġcra zy
Ġfor ced
Ġst airs
ug ged
Ġdire ctor
Ġsal ad
Ġtrain ing
Ġh ay
ĠSc ott
roc od
Ġpig e
et y
Ġclos ely
Åĵ Yes
ĠA g
Ġl y
ag hetti
Ġpump kin
Ġeven ing
Ġhigh way
eb ra
Ġstud io
Ġjack et
Ġafter n
ĠM al
Ġcont rib
Ġpri v
a it
Ġpir ate
Ġs outhern
Ġpro b
le g
il ities
Ġbeaut y
Ġclum sy
Ġang el
ul ture
Ġcons ider
Ġme al
ĠCh ampionship
Ġte xt
Ġcom mer
n ings
Ġcapt ain
oin t
ĠR oman
ĠV al
Ġinit ially
Ġappear ance
Ġ Ã
Ġfil ms
Ġflex ible
Ġmus h
Ġan x
Ġbe et
Ġse qu
Ġbar ber
st ead
ab or
Ġper cent
st on
ĠM ac
Ġcelebr ate
Ġgas ped
Ġ200 1
ĠN ot
Ġsold ier
Ġmush room
Ġincre ase
ic op
Ġgr ad
Ġz ip
Ġdes pite
Ġm er
on na
ĠRich ard
Ġaftern oon
Ġfail ed
Ġf ac
Ġg oose
ĠAt l
irst y
Ġvol can
or able
R e
Ġy arn
S ee
ogra ph
ĠN avy
ĠRep ublic
Ġche ap
ĠJo ey
Ġsh ocked
Ġsp aghetti
Ġingred ients
ec ess
Ġcont ract
Ġd en
Ġpos itive
Ġfl ight
Ġsn e
Ġoper ation
Ġall ow
f or
Ġpre c
Ġser ve
Ġord inary
se y
Ġimag ined
ĠÂ °
Ġz ebra
ĠS ing
Ġwhe els
ĠKing dom
ate g
Ġc rocod
Ġre n
n ers
Ġpe anut
ĠO l
Ġtra il
Ġtri ang
ib b
Ġcent er
Ġmain t
ag o
Ġk ill
ĠChar les
d ing
Ġumbrell a
ĠWh ite
ĠSoph ie
ĠMus ic
ĠP olly
ri age
Ġli e
Ġtr ick
Ġwho se
ific ation
Ġg host
ĠG ame
ĠE n
eez ed
Ġwind s
Ġresc ue
ĠB ig
Ġfl our
if orn
Ġso cial
ott en
ĠCharl ie
f a
Ġhel icop
Ġcr ow
Ġg um
Ġnor thern
Ġdream ing
Åĵ What
Ġcompass ion
ĠDes pite
Ġar r
Ġoffic er
ĠJ erry
ĠT ony
Ġcoo king
ol id
ib ility
Ġcare less
Ġhead ed
it o
Ġcontin ue
Ġspe ak
ro ad
Ġsur render
Ġ200 2
Ġcent ral
Ġrestaur ant
l in
oom y
Ġc urt
Ġapp re
Ġp hys
Ġmed al
Ġuncom fortable
im p
Ġbe g
ĠCanad a
Ġfollow s
ĠB aby
Ġf ought
az e
ĠD ep
l us
Ġj et
Ġlo ad
re m
Ġdel ay
Ġh oop
Ġtoo l
Ġstep s
ĠP al
p et
Ġh y
Ġli zard
Ġstr anger
m ar
ĠB er
Ġr ot
Ġrel ig
iz ing
icy cle
Ġbutterf lies
ĠCh urch
Ġspark led
r ac
Ġpe b
Ġhead s
Ġun its
âĤ¬ âĢ
Ġed uc
ro phy
ĠB et
Ġb ent
ĠS en
ĠCal iforn
Ġsh iver
Ġcreature s
Ġab s
Ġo ct
ĠSn ow
Åĵ It
Ġnur se
Ġintellig ent
Ġpen ny
Ġse as
ord s
ĠGr ace
Ġnewsp aper
ar ily
Ġl ic
Ġcou rage
Ġpack age
Ġn ar
Ġp age
Ġsp illed
Ġgo als
Ġdis p
Ġcup board
us es
G o
c her
Ġrub bed
Ġcompet itive
Ġhe al
ĠVir gin
Ġref er
o id
p ect
Ġt ap
Ġmiss ion
Ġdist ant
Ġnet work
Ġs orts
Ġn ail
Ġex cept
Ġcollect ion
Ġsp ell
Ġsad ly
ĠB ay
Ġanx ious
over n
Ġpers istent
Ġfall ing
Ġhum ble
Ġmail box
Ġt ask
Ġch oice
Ġact ually
ic hes
ore s
Ġrem ain
Ġfield s
Ġpen gu
n it
Ġbl ow
Ġto oth
Ġs le
ĠJohn son
ve re
Ġflash light
Ġbrace let
Ġstud ents
Ġlead er
Ġf uel
Ġdes k
Ġwor th
Ġstra ight
ĠIn stead
o ff
ĠCaliforn ia
Ġp ed
Ġth irsty
Ġacc ording
im in
ĠC arl
Ġair port
ist ol
and er
itt ee
Ġhun g
ĠG reen
ap a
Ġpar ade
ĠCour t
Ġcount ing
Ġred uc
Ġgroup s
ĠL ook
Ġrem oved
g ie
Ġd ug
Ġhot el
Ġbasket ball
Ġse al
Ġp ear
Ġso il
Ġter m
ĠI r
Ġbatter y
Ġs ection
Ġbase ball
Ġjud ge
Ġplay s
ĠM ont
c ase
Ġappre ci
Ġany where
Ġac cess
ÅĵLet Ã¢
ĠUn ion
Ġchar ming
Ġam ount
Ġfl ute
ĠC ong
Ġal ert
Ġtra p
Ġprevious ly
ĠG old
Ġc ertain
Ġpee ked
Ġme at
le ton
ĠK at
Ġcall s
Ġg or
ĠV ict
Ġtra ffic
ĠG ive
op us
Ġcr ane
ĠA ward
Ġsl ides
ĠA c
Ġcry stal
pl ace
ĠM et
b and
am ber
Ġgif ted
Ġharm less
Ġst ates
Ġch asing
ĠT ra
ĠMc C
er ve
ĠW here
Ġl ack
Ġacc ount
Ġde af
Ġbeet le
on se
Ġin sect
Ġele ments
Ġcard s
Ġking dom
Ġp or
v an
Ġ199 0
ĠAss oci
Ġide as
The y
u x
Ġhunt er
Ġf ro
op ard
Ġw ishes
Ġrequ ired
Ġsupp ly
ĠComp any
Ġrespons ible
Ġsunfl ower
ĠIntern ational
ound s
ĠK e
Ġr ise
Ġattract ive
Ġcrocod ile
Ġinter view
Ġca use
Ġdire cted
Ġne at
Ġ6 0
Ġjump s
id a
ĠR oute
ir m
Ġreview s
Ġhel met
ĠInd ia
Ġp ony
pl es
Ġpract iced
Ġtr ump
A s
vel ope
Ġset tle
Ġli vely
Ġdefe ated
Ġbe at
Ġen velope
Ġr aven
ra ged
Ġ4 5
ĠB oth
g ust
Ġcompet ition
Ġcouldn Ã¢
op l
at in
if orm
Ġdeb ut
Ġste am
Ġpal ace
or ial
Ġass ist
Ġex erc
Ġhe av
iver se
Ġign or
aw s
Ġcom fort
Ġt ar
Ġse ed
Ġcoll ar
Ġ ?
Ġcr ed
Ġpretend ing
Ġch ain
ĠTim es
he ster
ul ated
Ġcol lected
ĠGerman y
ri ef
Ġsl id
w or
ĠO ut
h in
ĠAnn ie
ĠG overn
tal ion
y er
Ġdis gust
Ġcere al
Ġcla imed
Ġch anges
Ġsal t
ĠChrist ian
Ġ18 5
ĠSp an
Ġo t
Ġs us
Ġen v
Ġsandw iches
ic les
M ax
O w
ĠK ate
Ġhar sh
ĠÂ £
Ġant s
Ġth read
ĠD ay
Ġnear ly
Ġpress ed
Ġteam s
Ġant i
ub ble
Y ay
Ġeas ily
Ġm iser
Ġfr ame
o dy
Ġgl oomy
Ġsing er
ver t
Ġmag net
Ġlab el
Ġt ire
Ġsee ing
ub by
Ġlisten ing
I f
ber g
Ġstret ched
Ġno body
Ġpo em
ĠFo x
ĠG ood
Ġset ting
Ġtem per
Ġwh om
Ġent er
Ġsub ject
g ers
Ġneed le
Ġso fa
Ġle ague
Ġsell ing
Ġsupp orted
Ġsnugg led
Ġresp onse
Ġtem ple
at ch
ĠU K
Ġdis ag
Ġtur key
Ġpige on
Ġstand ard
Ġm elt
Ġm ask
Ġtrans fer
Ġtrou bled
Ġs ke
ĠJ ess
ĠE ach
ĠMe x
c ream
Ġg em
Ġr iding
Ġequ ip
Ġmar ry
ĠE nt
Ġsh aking
ĠH ill
ĠSo v
Ġmiser able
Ġsc oot
ĠBrown ie
Ġh ipp
un a
f fe
ĠSt ud
Ġaddition al
d ge
Ġlar ger
Ġput ting
u k
ĠPe ople
Ġblue ber
Ġal ive
Ġth ief
Ġev idence
he m
Ġun iversity
he art
ĠSov iet
g l
Ġpe pper
Ġintern ational
Ġh omes
Ġwe ight
Ġhelicop ter
Ġfeel ings
b an
Ġexp ected
Ġdraw er
ĠN Y
Ġneighb our
ĠCol lege
Ġhur ry
Ġcommun ity
ab ility
ar ies
im i
b ing
ĠW estern
Ġow ned
Ġsh ield
ell ing
an as
r is
Ġvolcan o
Ġany way
Ġtyp e
ch ange
Ġlead ers
Ġmod est
oco a
ĠTweet ie
Ġfre qu
ĠAd am
ĠT ed
Ġp apers
Ġignor ant
e es
ou l
m i
Ġval ley
ig an
ul f
Ġhelp less
y s
Ġocc up
in ct
ĠCh in
Ġmus ical
Ġt ub
Ġele ction
Ġpo le
p ire
Ġsc rew
ĠI m
Ġequip ment
Ġtra sh
ĠDan ny
Ġoct opus
Ġspec ific
all ed
Ġtwirl ed
ain t
r s
Ġboun ced
is l
Ġbear s
ĠAr t
Ġl aid
Ġh oles
ĠH ot
Tom my
Ġsome where
Ġr ice
Ġg ir
Ġb in
ĠU p
Ġw estern
Ġp ants
os h
Ġ197 0
Ġrem aining
Ġbr ighter
Ġdo c
Ġfem ale
ĠFor ce
Ġimp at
Ġprob ably
ĠL ove
Ġpl ans
Ġc ivil
Ġdet ail
Ġc omet
er o
Åĵ That
Ġt ube
Ġp ipe
Ġ3 2
y m
Ġcy cl
Ġeff ort
th y
Ġsh ine
Ġshe et
Ġsugg est
ĠFl or
Ġh ook
Ġband age
Ġiss ue
Ġtrump et
Ġenthusi astic
is ions
ĠM att
Ġadm ire
Ġapp l
ĠQue en
Ġsk ull
Ġj eep
ĠE arth
Ġ198 0
Ġm uff
Ġc ocoa
ul ly
ĠS oc
Ġwr iter
Ġdire ction
g a
Ġpr ison
ang ar
Ġfire man
Ġli k
un ched
Ġcar pet
Ġf ishing
g en
o very
Ġcompassion ate
Ġshel ter
Ġres ident
Ġcoo ked
Tim my
Ġstir red
Ġsho e
Ġdecor ate
Ġsh adow
Ġloo p
Ġcross ed
Ġnow here
Ġpress ure
cc oli
Ġsuff ered
Ġv ac
Ġincre asing
Ġall ig
ĠVict or
Ġimpat ient
Ġpast a
Ġtw ist
ĠEvery thing
Ġb icycle
iam ent
Ġestim ated
Ġp ad
Ġoper a
Ġd ate
ess ion
Ġm ild
Ġcand le
Ġcat s
Ġrest less
Ġmo ves
ac he
o e
Ġle ash
ĠM el
Ġv ine
Ġatt ic
Ġconf l
ĠBrit ain
Ġbroad cast
Ġj ug
Ġmin or
Ġd ess
ĠM any
Ġr ibb
Ġmonkey s
angar oo
Ġun iform
Ġl iter
Ġch ubby
i en
Ġb rief
Ġexper i
Ġeast ern
Ġc ube
Ġfear ful
Ġap art
Ġadm in
Ġbe ep
Ġbar rel
Ġsaf ety
ĠC at
Ġly ric
i os
Ġrep ort
Ġpus hing
Ġbu ried
Ġa x
Ġrespect ful
ĠP ri
ĠK en
d d
Ġstick ers
Ġ199 9
ro at
ĠSte ve
Ġun h
Ġnut s
Ġs ides
ĠS un
ĠM a
Ġappro x
Ġun s
ut ter
Ġdisgust ing
ĠWh o
Ġb ud
ĠP ac
Ġviol in
Ġh ockey
Ġorgan ize
ogra phy
Ġm ug
ffe e
Ġle opard
Ġcol ours
ac ht
ĠL os
Ġsk ip
Ġfact ory
Ġcommer cial
Ġpur ch
Ġwhe at
ĠS andy
Ġo l
Ġsw itch
Ġad orable
Ġjo kes
Ġhe alth
ĠD em
Ġsc enes
Ġcost ume
as y
Ġg ained
Ġfor k
Ġexpl ain
Ġmove ment
ĠFr anc
ĠL illy
ĠSpan ish
ri al
Ġperson al
o ss
Ġb omb
por ary
Ġl atter
Ġan ch
Ġm os
Ġmar ched
st airs
lect ion
Ġ3 6
ra b
ĠCh ic
Ġin ch
ĠW ould
G ive
t les
Ġter rit
ĠS al
Ġac qu
ĠJack son
Ġbeh av
Ġ8 0
Ġsweet heart
Ġh our
Ġoffic ers
Ġepisod es
Ġfil thy
Ġen vious
act ion
Ġhop ing
Ġwa ff
Ġcomp ared
ĠB unny
v a
t r
is f
Ġtriang le
d e
in ked
ro ll
Ġpri or
Ġlim ited
str ich
Ġlight ning
Ġbat ht
Ġcon v
ĠB uddy
Ġover all
Ġroom s
Ġtar get
Ġkn ock
Ġcraw l
Ġstr uck
Ġbatht ub
Ġn omin
Ġapp ointed
Ġroll ing
Ġpro g
Ġd er
Ġmar riage
Ġtr ay
Ġc ows
Ġsc ri
Ġn atural
it ter
Ġrece ive
Ġman ager
Ġcomm ission
Ġshoot ing
ĠS uper
Ġshout s
hi bit
Ġaud ience
Ġso ar
ĠVirgin ia
ly mp
Ġdraw ings
it or
er ous
Ġfle et
Ġd ive
Ġright s
Ġf ans
Ġk angaroo
at ory
Ġdam aged
Ġprop osed
Ġk il
Ġaut om
Ġb ubble
Ġbro ccoli
Ġhapp ier
Ġim age
Ġp le
ig ade
Ġc ush
Ġaer opl
Ġeffect s
r d
Ġclimb ing
ipp er
Ġun c
Ġhe dge
ĠU nder
ĠF ort
af fe
ĠJ ones
ĠO lymp
ĠPart y
Ġsh ade
ens ion
Ġbark ing
Ġart ist
o ices
Ġcelebr ated
Ġc oup
ĠLou is
um ents
ĠJe ff
Ġgigg le
Ġsand box
y n
Ġf isher
Ġr hy
s en
Ġr ap
Ġv eter
ĠTe x
k ins
Ġsh own
Ġot ter
ĠCl ub
Ġm ama
Ġthan ks
ic king
ĠS und
Ġappro ached
N A
Ġ7 5
Ġr id
Ġra ft
Ġint ended
Ġarg ued
y ear
Ġ18 4
Ġscoot er
b ack
Ġsqu ash
Ġl uck
Ġcount ries
ĠM imi
b es
ĠB un
Ġ3 00
Ġo x
Ġc act
Ġbre aks
Ġcapt ured
ĠAssoci ation
Ġd ivision
Ġl id
Ġinsp ired
Ġinflu ence
Ġrese arch
Ġland s
an es
uc ted
Ġallig ator
I I
Ġdess ert
uc ked
Ġcont ain
Ġ196 0
ic ation
Ġw ool
Ġus es
Ġforg ave
Ġsit uation
ĠO t
an ted
Ġpur se
Ġbo ots
Ġmar ked
ent al
Ġaward ed
ĠChic ago
Ġt rophy
Ġtri pped
iron ment
ut or
ac hel
Ġswing ing
Ġst ack
isk ers
A F
Ġpor ch
Ġrub ber
Ġyog urt
Ġkeep ing
Ġr ag
Ġstar ed
Ġperfect ly
Ġthe ater
Ġm ule
Ġre ason
Ġbeh ave
ĠC ast
Ġwhe ther
ĠP apa
Ġpur p
Ġmotor cy
w ell
Ġgor illa
Ġco ffee
Ġpaw s
Ġint ens
ĠC ouncil
ĠChin ese
ĠA wards
ĠSec ond
Ġo strich
Ġdidn Ã¢
stit ution
Ġ199 8
Ġsc ient
im um
at ively
Ġhit s
ass es
Ġcomp an
ĠEd ward
Ġmost ly
Ġst adium
Ġobser ved
Ġmel on
ĠL ike
Ġgrab s
ĠF le
ĠMill ie
Ġst able
Ġamb ul
Ġrem ains
Ġdi ary
Ġfif th
Ġsett led
Ġl ions
Ġpull s
ĠWh iskers
Ġhipp o
Ġtax i
Ġqu it
Ġgo lf
ĠH ist
Ġjelly fish
ĠCar ol
Ġkn ot
Ġbu zz
ĠT our
ic ted
Ġc el
Ġunh appy
ect ure
Ġnot eb
ĠB ow
Ġagree ment
Ġwa g
ĠS ee
er os
Ġtr icks
Ġconc lud
Ġesc ap
Ġmed ia
Ġlear nt
Ġbelong s
und ry
Ġban anas
Ġpass ing
Ġp anda
ĠS ant
Ġcop ies
Ġrel ated
Ġhair cut
e ed
Ġhad n
Ġso ck
Ġro ared
Ġdis hes
Ġatt acked
m as
Ġc ult
Ġm ath
Ġtemper ature
Ġapprox imately
Ġu nd
ri e
om er
By e
k a
Ġra ise
und red
ĠBill board
Ġmicro phone
ĠS ong
Ġbi kes
Ġsc old
Ġshould er
Ġch alk
Ġth us
Ġcomplet ely
Ġc ust
ĠO ver
ĠPac ific
Ġc ord
as is
ed ing
ĠC le
Ġteac hing
Ġinvestig ate
at ives
Ġ7 0
Ġsail or
Ġche cked
Ġin k
ip le
u f
Ġ3 3
Ġinclud es
Ġproduc er
Ġwith d
Ġdro ps
Ġext ended
Ġre aching
Ġcra s
Ġu lt
Ġquar rel
Ġpriv ate
ĠIt al
Ġdis s
Ġquar ter
Ġtorn ado
Ġt icket
Ġla undry
Ġambul ance
ĠK ore
ĠM ost
nit ure
Ġf estival
Ġact ive
Ġswe ater
A t
Ġop in
Ġscri pt
Ġcra sh
um es
Ġgold en
Ġt ear
Ġmusic ian
Ġstrawber ry
Ġwal let
Ġcomple x
Ġfrown ed
Ġca ble
Ġapolog ized
Ġav oc
Ġcon cept
ĠIn f
Ġru le
ĠC ont
Ġoper ations
Ġ â
Ġc ub
Ġear ned
et t
Ġbat tles
ĠL ake
Ġphot o
Åĵ You
Ġcom f
ĠChr is
l or
Ġsk ills
Ġfl ies
Ġimag ine
Ġcact us
ous ly
Ġcool er
ĠSt ep
uri es
Ġ199 7
Ġm ur
Ġb ank
Ġfur niture
Ġport ray
Ġact ions
Ġshop keeper
ĠSc ot
Ġdisapp ear
Ġgl ow
Ġh ive
m m
Ġc reek
Ġre ind
ĠAtl antic
Ġnoteb ook
Ġp ine
Ġsa us
r m
Ġiss ued
Ġy acht
Ġpengu in
Ġlik ely
Ġact ing
Ġstick er
oo ped
Ġelev ator
ĠJ ew
ree ze
ve y
Ġw ound
ĠB oy
um ed
ĠMart in
ĠD is
Ġencou raged
Ġrequ est
ĠH ur
Ġg ain
Ġsour ce
Ġsail ing
Ġc m
ĠW in
ag ement
ash ion
se mb
Ġcan c
Ġad op
ra w
Ġv et
Ġo y
Ġrecogn ized
Ġdo ors
Ġde g
ĠS ir
Ġcre ation
Ġdress ed
ri a
j ected
ĠTr ue
Ġspr ink
i ation
Ġthr owing
Ġexp and
Ġdecl ared
ant ly
Ġapp ears
Ġste ak
Ġprep ared
Ġcl apping
Ġce iling
Ġdefe at
Ġlean ed
ro s
il es
Ġpus hes
ĠAfric a
Ġcr u
Ġwar ning
ĠR ub
Ġinit ial
Ġn one
ĠCong ress
Ġsmell s
Ġsho vel
un ately
Ġhe at
Ġmechan ic
Ġzoom ed
ot ion
Ġwar d
Ġcap ital
Ġpain ter
Ġlyric s
Ġgra pes
ĠSe a
Ġlaw yer
Ġpow der
ĠO ld
Ġve nd
D uring
ord er
Ġ3 7
Ġun able
ĠCh ina
ĠT own
Ġmem ories
Ġarg ue
ish op
Ġbra in
Ġsh akes
Ġreind eer
Ġloc ation
Ġachie ve
ang ers
Ġsubsequ ently
Ġt ip
Ġsoft ly
Ġsw amp
Ġanch or
ven ue
Ġprofess ional
Ġst om
Ġshould n
ĠFlor ida
her o
Ġsim ple
Ã Ń
Ġv ia
qu ito
Ġsupp osed
Ġmoment s
ĠJ er
ur ity
Ġaeropl ane
Ġpol ish
ĠO per
ir al
Ġex act
Ġpeb ble
ĠL ord
Ġbur ned
ĠH al
Ġtur ning
Ġfrog s
Ġfall en
Ġunderstand ing
Ġsp ending
Ġso cc
Ġsocc er
ĠT ime
Ġsand cast
Ġter ms
W hen
ĠA pp
ĠTex as
ĠS ad
Ġsl ight
Ġto ns
he w
Ġserv ices
J im
ĠFo llowing
Ġste el
Ġf iction
Ġthr ows
Ġab ility
Ġstuff ed
Ġske leton
Ġfl ame
Ġpresent ed
Ġgl ove
Ġunl ock
Ġbl owing
Ġforg otten
Ġconc er
Ġback pack
Ġmotorcy cle
Ġh olid
Ġwr it
re ts
ertain ment
Ġsus p
Ġprep are
Ġcol on
d o
Ġmajor ity
Ġshr imp
Ġrepe ated
ol k
Ġcel ery
Ġdist rib
Ġ18 3
Ġpass en
ĠCl a
st ers
Ġstat us
Ġsuper hero
ĠMag gie
ĠD V
ĠS ince
Ġon ion
Ġcabin et
Ġadmin ist
Ġdon Ã¢
Ġh ut
y l
ĠCanad ian
ĠL ind
Ġcard board
Ġr out
Ġran ked
D ad
Ġrain ing
Ġp itch
Ġperm ission
b ury
Ġinform ation
Ġhang ing
Ġconc ert
ĠCl ara
M ia
Ġpl ot
Ġconn ect
Ġb aking
Ġeat en
Ġer aser
Ġbra nd
Ġimag ination
ĠO ff
if l
Ġrem ove
ĠW ood
ĠJo se
vent ion
Ġmem ory
h old
in ks
Ġindivid ual
ĠW al
Ġsecond s
Ġl aser
Ġk itty
ĠCent er
Ġim m
Ġeager ly
Ġatt acks
Ġla unched
Ġcast les
Ġveh icle
ĠR ail
it z
ĠT or
ag ing
d ie
ĠC amp
Ġmyster y
Ġs ch
Ġkn ob
Ġcomp osed
Ġsucceed ed
S p
Ġmist akes
Ġr hin
Ġpres ents
ĠM er
Ġrhy th
Ġtreasure s
Ġstri ke
Ġsurround ed
âĤ¬âĢ ľ
ren ces
Ġp ages
Ġactiv ities
ort heast
ĠC ath
if y
Ġrespect ively
Ġoccur red
Ġign ored
Ġal tern
Ġtra v
and on
Ġnum erous
d own
Ġfo g
Ġso c
Ġmention ed
Ġcont em
Ġattem pted
Ġnot es
ĠAngel es
Ġsal es
b ie
led ge
Ġbark s
Ġsun set
Ġshout ing
Ġassoci ated
Ġfin anc
Ġwas te
Ġro yal
Ġyard s
Ġcont ains
ĠEm pire
Ġpir ates
A nd
Ġdisc overy
Ġ199 5
Ġre ef
ĠT er
Ġre aches
Ġh undred
oc eros
Ġmos quito
Ġs ense
ĠSqu adron
Ġresp ond
r ough
Ġwelc omed
Ġ9 0
ĠJ on
Ġhop es
Ġdanc er
Ġeff orts
Ġacc omp
Ġgirl s
Ġpl astic
Ġsle pt
Ġu pper
ic ing
Ġk ay
Ġweap on
Ġcond itions
Ġyog a
Ġun iverse
ĠRuss ian
ch air
ĠII I
ĠDV D
Ġsw ung
Ġdou ble
re es
id ges
Ġco b
ĠK ent
ib ly
ĠHigh way
u als
Ġsp ort
Ġca ul
J ack
Ġf ashion
Ġmicro sc
Ġcent re
Ġcup s
Ġatt ached
ĠCent ral
Ġl end
Ġins isted
Ġcurt ain
ic ip
ĠJ ac
Ġse lected
Ġthe at
Ġit ems
Ġf aced
Ġco ach
elc ome
ol ic
Ġwe igh
ĠY ear
Ġdem on
Ġcomp os
Ġtw enty
Ġcush ion
Ġp istol
Ġche ss
un ity
i j
Ġwork ers
Ġcl iff
it ude
ag le
Ġenv ironment
g ely
Ġcaul ifl
ĠT ina
Ġg reed
Ġrhin oceros
Ġh us
ĠFranc is
Ġ199 6
Ġmar ble
ob ile
ĠD el
ĠS u
Ġfisher man
Ġresul ted
Ġrefer red
Ġpr ice
Ġ3 4
ĠR achel
Ġatt ach
Ġarch it
Ġneighbor hood
Ġreg ret
Ġiss ues
ĠS erv
be y
Ġ195 0
Ġcreat ing
re me
Ġen s
Ġt utor
Ġg e
Ġsat isf
Ġpe ek
Ġgl owing
ri er
Ġpe ach
Ġinc or
Ġcomment ed
Ġqu al
Ġd ear
Ġp a
Ġ3 8
Ġele cted
Ġrequ ire
Ġn ecess
en ing
Ġ201 6
Ã ¼
Ġtw ink
Ġre verse
ĠM ur
ĠAn other
uc le
Ġ ig
Ġmix er
ĠMin ister
Ġcrit ical
u ated
Ã ¶
Ġvend or
Ġenc ount
Ġmake up
Ġtele phone
Ġs en
Ġfo lder
Ġc ulture
Ġsc hed
Ġpl at
Ġbul b
Ġ i
im s
Ġexec ut
Ġfast est
ĠL iz
Ġown ers
Ġpow ers
Ġgir affe
land s
il s
Ġlar gely
Ġw ipe
ĠGr oup
Ġm aze
Ġ199 4
Ġfire place
ĠRos ie
ĠM u
Ġquiet ly
Ġindust ry
ĠM ir
Ġleg isl
il ies
Ġmiss ile
ĠT y
Ġcaulifl ower
Ġm ale
Ġt im
ĠJo y
Ġl isted
Ġch im
Ġv est
Ġpo pped
Ġwa ving
Ġab andon
Ġm op
Ġass igned
Ġprot ected
Ġpo ison
ĠChrist mas
Ġhus band
ĠSund ay
ĠItal ian
ĠL aw
Ġbur n
Ġpe ak
Ġd omin
Ġis n
ĠCor ps
Ġg ear
M um
Ġhapp ens
la ud
ĠSt an
ent ed
M ama
w hile
ĠV er
Ġtradition al
Ġcrow d
ut ch
gl asses
Ġo ak
Ġscatter ed
Ġdiffe rence
Ġpo ke
Ġb ury
m ark
Ġdra in
S h
Ġb reeze
Ġrecord s
wor ks
Ġfle a
ĠJ am
Ġsun glasses
og ue
Ġplan es
Ġsl ipp
ĠTr ans
Ġg roc
ĠR y
Ġan aly
ra s
ĠV iet
Ġprim ary
Ġmet hod
Ġdep ression
Ġroad s
Ġsquirrel s
Ġ x
Ġav oid
ĠRe v
re ak
Ġch amber
Ġchim ney
Ġb es
Ġax e
on a
d ies
ĠTe am
Ġstud ied
Ġtun a
Ġinc hes
Ġit ch
Ġchir p
ĠI Ã¢
ĠR ad
Ġmean ing
ĠF ore
Ġf ile
M olly
Ġpro duce
Ġto il
Ġopp ort
st e
Ġapp laud
Ġun pack
Ġpet als
Ġs ect
Ġent r
Ġex ist
Ġind ic
Ġig loo
Ġ194 0
ll ie
Ġd ut
um n
Ġpuzz les
Ġchick ens
t ress
it a
B ecause
Ġl ime
os en
Ġsupp lies
Ġar rest
ĠC apt
ĠE v
Ġm ount
at ur
Ġholid ay
b our
Ġwin ner
Ġg rey
ant asy
ĠW ales
Ġ18 0
Ġpin ch
stit ute
Ġrelig ious
Ġclass room
r ick
Ġse vere
Ġcommand er
Ġmeas ured
Ġbring ing
Ġcart oon
Ġcar ed
Ġ4 9
I s
ĠH el
Ġit Ã¢
ĠDem oc
o h
Ġr ate
Ġm ax
ĠC y
Ġstick y
ĠC am
ir med
ĠL y
ĠMich igan
Ġg ym
ĠS pr
end er
ed er
Ġrap id
Ġpre par
Ġdoc ument
or ter
Ġpl ates
Ġrhyth m
Ġsk irt
ut ions
ig ning
l oy
Ġn ortheast
Ġca using
You r
br idge
ever al
Ġgreed y
Ġun it
te en
Ġmy self
Ġw is
Ġse vent
ĠS um
Ġgr in
Ġatt end
Ġeduc ation
in ated
Ġal arm
om pl
Ġch ief
Ġbec omes
Ġbe y
w ide
g ency
Ġwood en
Ġprom in
Ġestab lish
om s
w as
qu ar
Ġcoup le
Ġmicrosc ope
Ġyou th
Ġcont est
if t
ĠP an
Ġlet ting
Ġslipp ery
ĠN et
iv ity
Ġbey ond
Ġ199 2
ĠK n
ĠZ eal
Ġsign s
Ġchallen ge
Ġmot ion
Ġbee f
ĠT ri
Ġsniff ed
Ġt ug
ut en
Ġdirect ly
Ġbre aking
ĠPr ince
Ġacc ompl
Ġg ust
Ġthem e
Ġexp ect
z en
end ar
Ġj azz
Ġpun ish
in em
Ġboun cing
Ġkil omet
Ġmat tress
ĠS ur
Ġs izes
ĠT est
Ġhigh ly
Ġter min
Ġconstruc ted
Ġnap kin
Ġs up
Ġs ir
Ġh om
Ġactiv ity
Ġsp ear
Ġrest ore
ĠF ar
ĠO x
ul ations
Ġview ers
ĠM ass
Ġall owing
out heast
Ġrad ish
Ġavoc ado
Ġsc ience
Ġsne ak
Ġf irm
Ġse ats
Ġlevel s
Ġvoc als
Ġtoil et
Ġro ot
Ġb ound
Ġlo sing
Ġdis m
w in
ĠR ay
Ġpre m
Ġtrust ed
Ġfree zer
ĠG ar
c he
Ġcontro ll
Ġc rib
Ġcan e
e my
ĠZeal and
Ġcomb at
t he
v et
ĠP enn
Ġachie ved
Ġresul ts
o k
Ġfl apped
ag on
ed y
Ġz ipper
ĠD og
Ġatt ended
ĠM ic
Ġlot ion
fort unately
rac ted
m ble
Ġ4 1
ĠFin al
Ġch osen
Ġen emy
Ġag o
ĠFred dy
ce nd
Ġarm chair
Ġfl at
Ġoy ster
ĠL ight
ĠL ong
Ġann ual
ol ar
iz ard
Ġreduc ed
as p
ĠO h
n ie
Ġsa ving
Ġr az
ĠMex ico
ĠAfric an
Ġconc ent
re ck
Ġj ail
Ġyoung er
ĠM ore
Ġscrat ch
Ġcontro vers
ous and
Ġspot s
Ġ4 00
Ġtw ice
Ġmountain s
iction ary
ĠC are
Ġla wn
Ġshow er
Ġjewel ry
Ġed ition
Ġcob we
Ġl umber
c les
s is
Ġschool s
ĠJ ud
Ġward robe
Ġland sc
Ġspray ed
Ġ193 0
Ġattempt s
Ġproper ty
Ġst ating
Ġr ac
Ġlic ense
Ġhar bor
Ġappro ach
B ob
Ġpres ence
Ġcont ra
ĠSt one
Ġbeg ins
Ã ³
Ġc ases
Ġm is
Ġw ine
ĠO w
Ġfa uc
Ġkay ak
Ġvar iety
Ġcand id
Ġ et
Ġve il
Ġb other
Ġimpro ved
ĠH aw
ĠRub y
Ġwr ites
ad s
Th anks
Ġ199 3
Ġknow ledge
Ġbr idges
Ġhill s
Ġbe an
Ġ199 1
ĠB ird
Ġ17 9
Ġchair s
Ġadv ance
Ġearth qu
p o
Ġcal endar
Ġmin t
Ġblank ets
W ait
Ġd ed
Ġco ats
Ġfigure s
ĠD en
Ġcontin ues
Ġperform ances
Ġpur s
p her
Ġtrans port
Ġsub way
Ġstud ent
ĠH olly
Ġv room
Ġpos itions
uc tion
Ġcher ries
Ġcl aws
Ġcar ing
Ġqu ality
Ġwater s
Ġcol lege
Ġimp act
Ġleg al
erv ation
Ġsplas hing
Ġ5 5
Ġfoc us
Ġf reed
r ical
Ġto ng
Ġre in
Ġben e
was her
ĠCapt ain
Ġfauc et
Ġfor ms
ĠScot land
re ct
Ġconfl ict
Ġl ap
Ġelect ric
Ġair pl
an i
ĠBr ad
Ġexerc ise
Ġpattern s
ĠM at
Ġproduc t
ĠFil m
Ġdish washer
Ġkiss es
Ġdel i
ic an
ĠMad onna
se cut
Ġresul ting
ĠDep artment
ĠP arl
Ġchar ge
Ġshr ugged
Ġcycl one
aw ned
Ġch ampionship
Ġre fe
y gen
Ġor nament
ill ery
ĠG reek
Ġcand les
Ġ18 2
Ġdo ct
C h
Ġa pr
ĠAnn e
ÅĵIt Ã¢
on c
e el
ĠAc ade
Ġv ent
ĠC reek
ĠEl iz
Ġg ross
Ġscold ed
Ġpudd les
Ġv ot
am ing
Ġb om
Ġpot ential
Ġt ucked
uten ant
ĠD oc
Ġgr anted
Ġprog ress
Ġ3 9
ĠL ar
Ġ +
Ġto ward
ĠL uck
Ġf asc
ĠSim ps
Ġincor por
Ġr acing
ĠInf antry
Ġgreat er
Ġimport ance
M S
in arian
Ġr ow
ĠF er
Ġr ake
Ġalong side
Ġthe rm
Ġfl av
per or
le ment
anc ing
Ġn ucle
Ġpe aked
up s
Ġfam ilies
et ch
os ity
ic ient
th ur
ĠM anc
v est
ĠH elp
ent h
ĠB ost
Ġbo dies
ĠJose ph
Ġcraw ling
Ġ4 8
m ic
ĠB C
ĠF our
ĠC ross
Ġescap ed
ĠE r
Ġopin ion
p ly
ĠW all
Ġ18 1
Ġc ong
Ġsc oring
Ġveter inarian
it iz
ĠD ist
gy pt
Ġ4 2
ad ing
Ġslight ly
oc king
Ġwag s
le e
Ġinv ite
Ġmet res
amp oo
Ġstrugg ling
k er
uz zy
um ble
Ġwor se
Ġraz or
ĠB ecause
ĠT re
Ġrecomm end
Ġbo ot
Ġeconom ic
ĠSec ret
ĠC ons
ĠLe g
Ġsqu eezed
ĠGu ard
ĠN ick
Ġy ield
ĠB uzz
ang ing
Ġdemon str
is ation
ĠG ames
Ġbl ouse
p y
Ġref res
Ġwe bs
Ġperf ume
Ġrabbit s
Ġring ing
rat ic
u an
ĠWilliam s
Ġblueber ries
Ġweap ons
ĠSnow y
and ing
Ġwhis per
Ġribb on
Ġdist inct
ĠAd m
ĠParl iament
Ġbook case
ĠRec ords
Ġhelp er
Ġpo ll
ĠC he
Ġob t
Ġfore ign
ink y
Ġbl inked
Ġwarm th
ĠR am
Ġcontra st
ĠM illy
Ġrelax ed
ĠE gypt
un es
Ġport ion
Ġsee ms
Ġdeep er
Ġconc ern
Ġcond ucted
Ġsp aces
ĠNew s
Ġw ed
Ġprin c
ful ly
Ġs igh
Ġsp orts
Ġseas ons
he lf
ur s
Ġgr ill
Ġsim ply
Ġs ens
Ġd ictionary
Ġwid ely
a wn
Ġsh ampoo
Ġgu est
Ġbooks helf
Ġamaz ement
Ġheart s
ĠDan iel
ĠR og
ĠS il
ĠGeor g
ian ce
Ġprop os
Ġact or
Ġman age
Ġtransfer red
ĠL o
Ġun f
F o
Ġgreat est
Ġha bit
Ġdiv ided
Ġretur ning
Ġconclud ed
Ġ194 2
ĠM em
h ab
ol ved
Ġth ousand
Ġdest ination
Ġinstr ument
Ġhe ight
Ġvoc al
ĠH ave
Ġbe gged
ĠL atin
ĠH op
Ġfound ed
Ġn avy
Ġco pper
Ġd om
Ġdistur b
Ġpo ked
Ġrelie f
sy ch
ĠAr ch
Ġmult iple
ar ly
Ġhard ly
Ġrel atively
Ġpull ing
Ġign ore
ro l
Ġmust ache
Ġ6 5
ĠB u
ĠL ife
Ġm all
Ġpro ved
ann el
ĠSoc iety
on ic
Ġsqu eeze
Ġprim arily
Ġwe ep
ĠS outhern
ĠB ets
ĠSh ow
Ġfed eral
Ġinc ident
Ġwrit ers
Ġbr ings
Ġplat form
w ise
et te
ĠSt r
Ġlaugh ter
Ġshr ink
Ġpr ide
Ġcompl ain
us ion
ĠPr in
Ġfeat uring
igg ing
ĠStep hen
Ġfinanc ial
t or
Ġd u
Ġtit led
Ġd ried
Ġmuff in
Ġwor ms
c age
Ġsurpr ises
Ġinf ant
an while
ĠH ung
ĠFo ot
Ġbr ick
Ġunder ground
ĠComm ittee
Ġrec over
ĠBost on
ĠKat ie
Ġpo et
Ġkn eel
Ġad j
ĠLuck ily
Ġcomb ined
Ġsit s
Ġadd ing
ad a
âĤ¬ .
ĠCh ief
Ġhe s
Ġox ygen
im ate
ĠH or
Ġ4 7
Ġwh ip
ĠBr idge
Ġh ate
ĠJ osh
Ġshe d
r iger
ped o
Ġd ise
Ġsn eeze
Ġheav ily
ĠSw ed
Ġv el
Ġfl utter
Ġbird cage
Ġcoll abor
ĠBets y
m ond
ag ers
Ġth umb
ĠO llie
Ġdecor ations
Ġin nings
ate ver
Ġhurt ing
ĠInt er
ĠB eth
ind er
Ġch ap
Ġl icks
Ġy ucky
Ġref riger
a ult
ĠG i
Ġdr inking
Ġsister s
Ġinstr uct
ĠManc hester
ĠBe at
Ġflo ating
Ġpol icy
Ġult imately
Ġ6 4
Ġ5 2
Ġord ers
Ġal right
sh ire
Ġj unk
Ġwander ed
Ġr ating
Ġocc asion
ĠComm ission
ins on
ĠOx ford
ĠF ur
Ġ4 6
ĠTh ree
Ġgrow led
ĠL ine
Ġtong ue
ĠPar is
Ġbur ning
ĠAdm iral
ĠBat talion
id ers
omed ay
Ġtri al
Ġbra vely
Ġfun ction
Ġopp os
Ġlaw s
Ġcompan ies
Ġ194 4
ĠM od
Ġb ones
Ġapr on
Ġvis iting
ĠHar rison
Ġart ists
Ä ĩ
Ġcut ting
ĠSant a
Ġentr ance
Ġs ought
Ġend s
ĠCol umb
D id
Ġc as
Ġw igg
Ġle m
Ġdef end
Ġcapt ure
Ġback ground
Ġdeliver ed
ĠOt t
tr ack
ĠB BC
Ġstrawber ries
ĠV an
Ġinterest ed
Ġvan ished
O k
Ġ ess
Ġqu iz
ste in
Ġmain ly
Ġsn apped
Ġstom ach
Ġcross ing
Ġearthqu ake
Ġpast ry
Ġdesign ated
Ġ4 3
Ġmax imum
Ġb erry
ĠW ay
Ġbat he
Ġo asis
i qu
Ġer a
Ġdep art
Ġcon sequ
igh ters
Ġdef in
Ġcollect ing
Ġofficial s
Ġexact ly
ad ows
Ġ4 4
for ce
ĠAcade my
ĠW ater
m other
Ġsec ure
ot i
Ġv ess
Ġ192 0
Ġe agle
Ġso cks
Ġautom obile
ly ing
Ġsc r
pt ions
Ġcop y
Ġlandsc ape
Ġse w
Ġinter p
ĠM useum
Ġinflu enced
ist ry
Ġcras hed
ĠSer ies
Ġpass es
it an
Ġser ving
ĠD ar
Ġt ide
Ġsp ade
Ġc ities
ĠSp ec
Ġemer gency
Ġsandcast le
Ġgif ts
Ġtor pedo
ĠC ap
Ġ194 1
Ġrefriger ator
ĠA rab
Ġrec ent
Ġbuck le
Ġ15 0
Ġex it
Ġclimb s
ĠBr igade
Ġcon vers
Ġto es
Ġche ek
Ġnomin ated
ĠC roat
Ġstud ies
Ġexam ine
ĠPen ny
ĠSp ike
ĠT ay
Ġstrugg led
ht ray
Ġconf irmed
ĠS aint
Ġtrans l
ĠIt aly
Ġ194 5
ĠD ire
as ks
Ġref orm
Ġse g
Åĵ No
ĠAmeric ans
Ġn in
ĠJ ay
Ġcon ver
Ġshort ly
Ġas htray
' ve
re land
om ers
Ġr ush
ra in
Ġreve al
Ġ ir
ĠFl o
ĠM ajor
ab eth
Ġsoc iety
Ġbreat he
w r
us hing
Ġperform ing
Ġsix th
ĠW ind
H L
Ġd igging
Ġappreci ate
W elcome
Ġs omeday
Ġbump ed
Ġbe amed
ĠReg iment
or ation
Ġthe ory
he ll
van ia
Ġinj ury
Ġpan ic
Ġsour ces
Ġjew els
r ative
ĠB a
ĠS k
ot a
un n
ĠYou ng
Ġdress es
ĠI reland
Ġfoc used
Ġvac ation
ĠP op
Ġsystem s
ic ations
Ġbattles hip
Ġw izard
Ġprom oted
Ġb oo
Ġnorth west
quar ters
Ġv oices
Ġcon vin
Ġsh all
Ġsubsequ ent
Ġcond ition
ĠA venue
Ġdra wn
W ill
Ġpart ies
Ġex hibit
Ġd are
ol t
o le
T V
Ġn aval
Ġs outheast
ĠP ost
ad el
ĠJac ob
ig ail
Ġspark ling
Ġplan ning
ĠServ ice
' .
Ġeas ier
Ġb order
Ġtall er
Ġad ult
ĠEvery day
Ġsn ap
Ġbe ans
Ġmin eral
A S
ĠK h
al le
The se
Ġexp ressed
ĠAnd rew
Ġpurp ose
Ġsol ved
Ġcount y
Ġ198 9
r ig
Ġobser ve
el ve
Ġran ch
ĠEnt ertainment
Ġairpl ane
Ġwas hing
if ying
ĠCon f
ĠN ight
r ise
Ġinv asion
Ġveh icles
Ġre le
ĠVal ley
ĠK r
ĠCl ass
ĠVictor ia
Ġs ings
ĠCath olic
Ġalbum s
Ġshap ed
Ġst ro
Ġdef ense
Ġexp ress
ateg ory
Ġte ase
Ġon wards
ĠPo ppy
ĠG irl
Ġspe ech
ĠAb igail
Ġexper iment
Ġfire f
Ġphys ical
Ġbath robe
Ġresident s
Ġappear ances
Ġbill board
Ġrecomm ended
Ġblack board
Ġr isk
Ġsex ual
ĠFle et
Ġrepresent ed
ĠO p
Ġf ired
omet er
w ater
an ny
A A
Ġ ver
Ġflo at
Ġto re
Ġun p
Ġident ified
l ers
Ġm ast
Ġle ak
Ġtw isted
A n
oy s
Ġ5 1
Ġpass port
Ġdra ft
uf act
to ons
Ġspark le
in i
Ġpatient ly
o ll
Ġ194 3
Ġf ully
ĠRo ll
Ġprin ted
Ġda isy
Ġsc ooped
Ġy awned
ĠM ountain
ans ion
Ġcont act
Ġr aid
Ġs ust
Ġac ted
Ġcont ained
Ġk g
amp ion
em ember
g al
Ġoffic ially
Ġinv itation
Ġj un
Ġh anger
Ġcar toons
ĠD uke
Ġobject s
Ġwaff le
Ġag g
Ġdec ides
ain e
Ġapp arent
ron ic
Ġb are
Ġn om
ul ed
re ets
Ġgrow th
Ġspo il
Ġdist rict
Ġart illery
Ġtra pped
Ġdeb uted
Ġtri b
ĠDe f
Ġst ations
Ġher s
Ġpo ppy
ĠS a
ust ed
Ġvers ions
in n
Ġterrit ory
Ġc itiz
Ġbene ath
Ġw ob
gg ing
Ġlemon ade
Ġsurround ing
Ġexecut ive
ke nd
Ġmark s
ĠH ann
Ġorgan ization
ow ers
Ġspe aking
Ġapp eal
Ġbuzz ing
Ġsaus age
ĠD utch
ĠB on
Ġup stairs
ĠUn fortunately
Ġchirp ing
ĠD i
ir ation
Ġrest ored
Ġint ro
Ġpromin ent
t ies
Ġexp ed
Ġa ired
ul ts
Ġtour nament
Ġaff ected
ess ions
Ġcudd led
Ġpal m
ĠN orm
Ġgra ph
Ġtyp es
Ġwis dom
Ġgl itter
Ġinst it
Ġmeas uring
Ġsc ra
Ġcons isted
ĠM en
Ġrel uct
ĠMid dle
Ġstri p
g t
ĠAr m
st one
Ġrepe at
ĠL and
o ves
Ġwat ches
ab el
Ġcobwe b
o x
p ool
Ġwh atever
Ġact ors
Y uck
ĠHur ricane
er ved
Ġli p
Ġcontem porary
r id
Ġdemand ed
r r
ing u
Ġeleph ants
Ġa we
Ġsuccessful ly
Ġmaint ained
l am
ac ity
Ġdisag reed
ĠTay lor
N ot
Ġnew ly
Ġfold ed
ĠH an
Ġthr illed
ĠB us
Ġcritic ized
Ġout do
ĠSus an
Ġm itten
are n
Ġmed ical
ĠJe an
Ġexperi enced
Ġfix ing
ĠW ell
ĠAs h
Ġtravel ed
ĠCarol ina
ĠT am
Ġbes ide
ĠH omer
Ġ6 00
ĠSp ark
d a
int end
g n
ĠRy an
Ġsing les
Ġdr ug
w alk
ĠO cean
Ġre ference
ĠB ey
ĠAl bert
Ġhes it
ĠNor thern
M mm
Ġform ation
ĠH ard
Ġpain ts
Ġabandon ed
it ness
Ġtreat ment
Ġland ing
Ġworld wide
m ony
ĠS everal
Ġflo ated
Ġwed ding
u ous
ĠT op
ĠF antasy
ĠK ay
Ġun ite
Ġsen ior
ĠFoot ball
Ġsun light
ĠDe v
est ic
ex p
Ġd ial
Ġsn eezed
Ġor anges
Ġas pect
Ġconn ected
y a
Ġ198 7
Ġla unch
Ġhy d
ĠL ie
Ġdra g
Ġdecor ated
Ġset s
al a
ĠN ever
Ġpaint ings
Ġus ual
ĠD ra
ĠMar sh
ĠOn ly
Ġsol ution
ĠCast le
Ġher b
Ġcr unch
ro ps
Ġrain fall
Ġneg oti
Ġr ust
ĠSy stem
g ian
ĠD am
ĠR od
are s
Ġclaim s
Ġ198 8
ĠR om
Ġadv ant
Ġnecess ary
ĠI ll
Ġsho pping
g ar
Ġc ert
ĠT em
Ġbit es
ĠScott ish
ĠDist rict
Ġfrequ ently
Ġsun rise
ĠJul ie
Ġdesign s
Ġmarch ing
ĠC ivil
im ents
ĠL ew
Ġstrugg le
Ġch ores
c hest
Ġcon secut
Ġfell ow
Ġben ef
Ġpill ows
Ġhistor ian
ra el
Ġsound track
Jim my
Ġclear ing
ĠDoc tor
ĠEliz abeth
Ġdinosaur s
Ġ5 3
ĠZ oe
Ġrep orts
ĠP re
ogra pher
ĠStud ios
Å į
Ġplan ted
sy l
Ġgl owed
Ġgovern or
Ġthere fore
ĠF ire
Ġhum ans
semb ly
ile y
Ġaccomp an
Ġmel ted
Ġpret t
ĠPol ish
m osp
ĠC D
Ġur ge
Ġmass age
am ent
Ġrail way
ĠSim on
ĠSen ate
orn e
ĠHist or
b a
ĠWe ek
ast y
Ġafter wards
Ġtherm ometer
e v
on ents
Ġbr icks
Ġdeg ree
Ġtw elve
Ġoper ated
am as
ĠF ield
Ġwound ed
ĠB rian
as hed
Ġpa used
Ġ8 5
M ummy
w ar
ĠB ad
ĠA v
Ġgra pe
Ġcher ry
lus ion
g ent
Ġadop ted
Ġprov iding
ĠP ic
Ġcond uct
Ġl ung
Ġre ar
ian a
ĠGovern or
Ġto e
Ġman ufact
Ġkeep er
ĠB art
ĠM ount
Ġin n
Ġspark les
ne ath
Ġstud ying
Ġv ote
Ġbill ion
ili ar
Ġcost umes
Ġele ment
Ġne ither
Ġtyp ically
ĠJ es
ĠO f
ĠMe anwhile
pr ise
ĠG al
Ġad apt
Ġconsecut ive
ĠEast ern
Ġsec urity
Ġwebs ite
Ġopport unity
Ġt une
Ġw reck
c king
ĠPenn syl
ĠCol on
ĠF estival
Ġwhere ver
ĠC orn
Ġl ily
Ġpig s
Ġs u
r up
ĠGovern ment
Ġmach ines
Ġauthor ity
Ġadv anced
ĠWil son
ut ation
Ġgl ob
Ġmov ies
lo e
Ġopp osed
Ġbud get
Ġ198 6
Ġrul er
ell er
ĠSte ven
Ġt end
uc cess
S he
Ġwere n
Ġsl iding
Ġexam ined
Ġn ative
l im
o ir
Ġtick ets
Ġph il
ĠS atur
Ġte asp
Ġproduc ers
Ġgot ten
!" ,
pt on
Ġmar bles
Ġsepar ated
Ġparticip ated
Ġbed s
Ġsl ip
Ġsugg ests
ĠC ard
Ġg az
ĠL una
Ġatt rib
Ġplan ets
ĠD oug
Ġbas is
Ġcas ual
Ġgrin ned
Ġ5 4
ĠAll ied
Ġoff ensive
Ġc ouncil
Ġem ph
Sp ot
Ġfilm ing
Ġproper ly
Ġnar row
W ould
r ad
Ġopp osition
Ġdoct ors
ugg age
ir ty
ĠB ond
ag a
ĠB ack
Ġr oles
! '
Ġso re
Ġdr inks
Ġtrans form
Ġmen u
ĠS and
ĠTh rough
Ġcomp ar
Ġarr anged
Ġfail ure
im ens
ĠAd d
ĠRe my
Ġ9 5
em bers
Ġmaterial s
Ġprotect ion
Ġol ive
i ven
ul ty
ÅĵI Ã¢
b on
Ġl uggage
Ġp sych
ot ional
Ġsequ ence
Ġposs ibly
ar ked
ĠS up
c el
Ġa str
Ġme owed
Ġr ival
ĠTh ough
ĠH ome
Ġrecogn ize
Ġfil med
Ġb ass
Ġsprink les
Ġmix ing
Ġlet s
f ire
ĠLi ber
c a
Ġ5 6
Ġpotato es
ĠPennsyl vania
Ġrespond ed
ĠAlex ander
ĠM oo
oc ated
Ġca kes
e xt
Ġl ecture
Ġman e
Ġste ep
Ġconf ident
ĠP ip
ĠUn cle
ĠE arly
Ġdistur bed
Ġsc ur
ĠSpr ing
Ġcap acity
ĠSqu are
Ġsupport ing
Ġ17 7
Ġsqu adron
Ġchew ed
Ġle ather
av ing
Ġs ip
Ġgl oves
ip al
ir ts
ĠSome one
r ane
ĠR on
Ġarri ve
yp e
ĠJer sey
Ġtomato es
ĠIr ish
h aps
ĠN ut
Ġregard ed
Ġsuff er
Ġtwig s
exp ected
el ess
as m
Ġisland s
ĠCo ast
ĠO s
Ġvide os
gt hen
i Äĩ
T C
ĠIsland s
Ġneg ative
Ġref lect
Ġdise ase
ĠOper ation
i ot
ĠT ropical
ĠC a
is ers
Ġat mosp
Ġev ac
m it
Ġindivid uals
ĠC ra
Ġevery day
Ġdism iss
p ass
ĠL u
Ġexp ansion
Ġstructure s
Ġret reat
Ġcur led
Ġli f
Al though
Ġ17 8
Ġwee kend
Ġrequ ested
Ġdisag ree
ĠS ub
Ġkill ing
Ġz ero
Ġmail man
ĠSp ain
ĠF riend
ĠL uke
ath an
ĠW at
Ġint e
Ġmag n
Ġjog ging
ĠG et
Ġdep loy
Ġaw are
ĠR hod
ÅĵThat Ã¢
ĠJam ie
ĠH ol
O r
le ts
Ġhistor ical
ĠW ed
oss ible
ĠT ech
Ġ9 7
Ġwater ed
Ġmult i
ĠCla ire
ĠW ild
Ġexpl os
Ġwant ing
ĠAr thur
Ġcere mony
ĠM D
Ġchir ped
B A
Ġret ired
st ream
Ġsy m
Ġteasp oon
ĠSt orm
im al
Ġlo aded
Ġhon or
Ġt y
on ent
Ġper man
ĠFin n
ĠL ive
Ġout f
ĠH unt
Ġex ha
Ġkind ly
Ġw ins
Ġmo b
Ġ7 6
ĠCh loe
ill ing
Ġstr angers
Ġun expected
ch o
Ġadm iring
b ell
ul u
Ġche m
Ġbrief ly
ĠPrin cess
ĠS S
Ġsk ipping
op es
ĠF air
Ġinstruct ions
Ġwe ighed
Ġgrand mother
Ġintro duce
Ġ193 9
Ġgather ing
Ġre jected
Ġmon sters
Ġf ab
Ġfreed om
res p
ĠG il
as ons
Ġch or
z a
Ġarr ang
Ġkn ots
Ġtw in
Ġw ond
Ġo at
Ġar med
Ġr om
Ġst reets
z ag
Ġat h
Ġfire work
Ġath let
Ġsl ice
2 0
Ġhear ing
us hes
Ġinter change
f s
Ġ196 8
Ġsa m
Ġeffect ive
Ġsol o
Ġbe nd
y le
im mer
Ġwe b
ist ics
out s
ĠIs rael
ĠBo ard
Ġsh ock
Ġpray ed
Ġm aster
Ġext rem
Ġcor rect
Ġh ated
se ek
Ġpro ceed
Ġ198 5
Ġst air
joy ed
Ġwhist ling
um an
Ġli ps
Ġext ensive
ĠC ub
Ġrec ently
Ġkilomet res
Ġd ata
im a
Ġaccident s
ĠL es
ĠRepublic an
Ġpo ems
Ġreb u
Ġa id
F A
Ġpar alle
Ġst em
Ġarchit ect
sp ect
Ġadminist ration
Ġs ale
ĠS ound
ĠV en
Ġansw ers
ĠD un
Ġur ged
Ġ6 6
Ġleaders hip
ĠD id
op s
Ġgroc ery
ĠSum mer
Ġexpand ed
Ġsc ul
Ġover joyed
Ġmur der
av a
z il
Ġli qu
struc tion
Ġadvant age
ir a
Ġinj ured
Ġco vers
Ġhur ried
Re ady
F or
ul s
Ġpet ted
ĠIn stitute
Ġdescri bes
Ġpassen gers
ĠW W
u ate
ĠS unny
Ġinf antry
Ġad vert
ol n
ĠGeorg ia
or ters
Ġrem embers
Ġl ux
ĠS ure
am m
Ġrest ed
Ġz ipped
Ġre ign
Fo llowing
Ġsy nt
Ġacqu ired
Ġadd ress
adel ph
Ġsevent h
ĠRev olution
Ġ6 1
l ings
ĠF ree
Ġinit i
Ġdrum s
ĠN ob
Ġsaf ari
Ġfire works
ĠM os
or a
im et
Ġunder neath
Ġim ages
Ġdec k
Ġman agement
Ġor bit
ĠPr ot
Ġarri val
c ome
Ġfr anch
ĠCl ark
Ġ198 4
Ġsatisf ied
Ġc ous
Ġcon qu
Ġcommission ed
Ġdr ama
ret t
Ġprec ious
w are
Ġ8 00
ĠPhil adelph
ĠH ind
are t
Ġm ile
Ġre act
w all
Ġart icle
Ġflood ing
Ġside walk
ĠOh io
Ġcom edy
ĠMor al
Ġprov ides
art s
Ġd ie
Ġcomm ittee
r an
Ġentire ly
Ġcirc us
Ġauthor ities
ĠG all
in er
ĠBet ty
Ġdraw s
Ġacorn s
m es
ĠSecret ary
Ġs ession
ĠJ un
Ġmod els
Ġcontroll ed
Ġz ig
ĠP ers
m ates
Ġdiscuss ed
Ġgen us
Ġal ien
Ġhouse hold
ĠAl bum
ĠPhiladelph ia
Ġpract icing
Ġda ily
Ġb ang
Ġcommon ly
ĠK a
Ġstr ings
Ġcatch ing
ĠFur ther
intend o
Ġstand s
in al
Ġrece iving
Ġhead quarters
Ġ196 7
Ġfin ishing
Ġour s
Ġex change
Ġsteal ing
Ġ12 0
Ġtrav elled
Ġp anc
Ġup gr
Ġhapp iest
ĠH a
r ich
r ate
Ġro ots
Ġsuff ering
ĠH y
Ġreal ize
Ġv en
W ith
Åĵ Thank
Ġal le
Ġpe ered
ĠR A
Ġimp ossible
Ġperm it
Ġm uddy
Ġsec rets
Ġcell s
ĠCh ir
j o
Ġcent uries
Ġspaces hip
Ġtouch down
Ġbat talion
f riend
Ġpurch ased
ĠB ook
Ġ5 7
Ġarg uing
Ġkey s
Ġbehav ior
Ġnucle ar
ac ted
it led
ĠI S
ĠD et
Ġped al
Ġsh adows
ub bed
ess ed
Ġcont aining
ĠSu zy
l ike
Ġloo se
ĠN intendo
Ġremind er
se ction
Ġdog gy
om a
Ġmin ister
ĠB ul
Ġby e
ĠCh ild
Ġtre mb
Ã ¨
ĠE lect
ĠHann ah
ĠSomet hing
ĠD ie
Ġdep th
Ġtit les
Ġpre fer
ĠE ric
ul ate
Ġac ade
Ġded icated
Ġvill agers
iver pool
Ġeng ines
Ġal ter
Ġdef ence
Ġaccompan ied
Ġcontrib uted
Ġbow ed
Ġwithd raw
Ġrefres hed
ĠE arl
ĠSh aring
ĠRuss ia
Ġad ults
ious ly
ĠPr ime
ru pt
ĠH ay
Ġdef ensive
ĠColumb ia
ie ce
inc oln
Ġcult ural
ĠD ark
O uch
Ġexped ition
ĠAs ia
Ġlead s
Ġdes cend
loo king
Ġsched uled
ic orn
Ġwhist led
Ġp ies
St ation
ĠL ucky
ĠAl ong
Ġscrat ched
ĠLet Ã¢
Ġcitiz ens
oint ment
" ,
Ġtast es
ĠJew ish
Ġre action
ur a
Ġprin ter
Ġ198 3
ĠSad ly
Ġw itness
Ġwill ing
Ġdest r
Ġo bey
Ġoccup ied
ĠFrancis co
Ġcut s
Ġcrunch y
Ġocc as
Ġpeanut s
Ġsub s
Ġkeep s
Ġdeli very
Ġintens ity
ĠR ain
Ġgo d
Ġscream s
H a
ĠBra zil
ap ore
Ġband s
resp ond
ĠS ky
ĠKe vin
ĠCam bridge
Ġphil os
W hile
Ġm ister
Ġspo ons
Ġex isting
av es
Ġdetail s
ĠN ina
Ġ196 9
ĠKore an
Ġgr ant
Ġb acked
Ġwa ist
Ġproject s
ĠH it
ĠF am
Ġvol ume
ar ted
Ġ196 4
Ġvol unt
Ġbare ly
ĠLew is
i ences
Ġwond ers
Ġact s
ĠEx p
ĠOff ice
ĠL incoln
Ġloc ations
Ġh ired
ĠB road
em ies
Ġlearn s
Ġstri pes
Ġ7 4
Ġa wards
Ġresc ued
Ġcurrent ly
ĠL ady
Ġapolog ize
ĠCom mon
Ġmount ed
Ġfab ric
Ġnight m
Ġse lection
Ġtr uly
ĠMill er
Ġpr une
ĠDis ney
ĠP ot
Ġ5 8
Ġcomf y
in ity
ĠWar s
Ġdes ert
ĠR abbit
ĠPlay Station
Ġ197 1
ĠT en
Åĵ We
Ġrain ed
ĠSh ort
Ġbur row
Ġcon ve
Ġlast ed
Ġcons ists
Ġpad d
ĠGr ant
ĠSing apore
J ill
Ġp ets
ĠF orm
ard s
Ġcre pt
Ġper ched
Ġ198 2
ĠS R
ĠCare y
ĠB ell
Ġ191 4
Ġble eding
Ġindust rial
Ġg all
Ġr ated
Ġcon stant
Ġdec re
Ġ196 6
Ġ #
Ġel imin
Ġsnow ball
T o
Ġstren gthen
ick ets
Ġ191 8
Ġcritic ism
se c
Ġr is
Ġfasc inated
ĠV ol
Ġ197 2
ĠL iverpool
z ant
ter day
Ġcom ic
Ġthem es
ĠRog er
Ġ197 9
et ic
ag an
ĠLind a
Ġunl ocked
Ġrapid ly
Ġpun ished
Ġscul pt
Ġ ut
Ġsub mar
ĠOlymp ic
Ġreg ions
ĠOr igin
ĠR el
Ġinvol ve
ĠRail way
Ġoppos ite
Ġso ared
Re ally
ĠAt t
ĠCon ference
ĠN HL
Ġnot able
Ġâ Ī
ĠB alt
ĠBy zant
ĠB al
Ġgrad ually
Ġvel vet
ĠWal ter
B illy
Ġshould ers
b ec
h ol
ĠJ r
Ġbr ushed
Ġ197 5
b ar
Ġw rest
r ons
Ġmer ch
Ġview ed
ĠR et
E x
Ġswim s
Ġcor respond
Ġeng aged
Ġview s
Ġemer ged
Ġany time
Ġdelay ed
Ġr ubb
Ġvis ual
am in
Ġcl er
Ġcon ference
ĠSt op
Ġinsect s
Ġfac ilities
Ġsp iders
ow nt
Ġfa ith
ĠGerman s
ĠEm peror
ĠHe ad
Ġran g
nes day
Ġriver s
er ies
ĠB ern
Ġhigh light
burg h
Ġ196 5
Ġin hab
Ġen emies
Ġspec t
Ġnail s
Ġcuri osity
Ġtown s
st anding
Ġwait s
Ġdef ined
Ġ197 4
ĠG ulf
ind y
ĠP ress
il ton
man n
ĠSy d
ĠHolly wood
igg y
Ġcomf orted
Ġrespons ibility
ĠW r
ĠCh art
ag n
ĠW el
Ġzig zag
ĠR a
ĠOr der
Ġli ber
Ġ9 9
h ire
ĠAnd erson
Ġsad ness
Ġinter section
ĠD ream
op her
Ġ5 9
ĠF ed
Ġdig ital
Ġst ing
the less
Ġc inem
Ġact ress
Ġmouth s
Åĵ Can
or ough
ĠDemoc ratic
Ġaff ect
ĠWed nesday
Ġch anging
ĠAl so
Ġre asons
ĠDav is
Ġinte gr
ĠR ome
ĠK elly
Ġ197 3
Ġequ al
am s
Ġr ising
onc Ã©
F L
Ġh yp
Ġdoll ars
u a
Ġy awn
ĠT iny
ult ural
ĠRad io
ony m
w hat
Ġuns uccess
Ġ197 6
ĠUp on
Ġcasual ties
Ġsit es
Ġdevelop ing
ĠIm per
ĠS ix
ce ived
Ġper haps
et ts
Ġrough ly
Ġm ice
Ġloss es
Ġeat s
Ġappro ved
Ġ6 2
Ġneighbour hood
Ġanaly sis
Ġre vers
Ġfree ze
Ġ6 3
Ġcudd le
ĠS uz
Ġsil ence
Ġchart s
Ġprin ts
Ġaccompl ish
Ġm ut
Ġsignificant ly
Ġun icorn
Ġc ore
Ġhead ing
Ġreg ister
ist an
Dad dy
L e
Ġsub stant
ĠLar ry
Ġsqu ad
Ġinstr uments
ĠNut ty
Ġon line
ĠB all
Ġtechn ology
Ġlo ving
ĠH MS
ĠEm my
st ing
Ġv on
itc hes
Ġ7 7
ĠLie utenant
Ġen l
Ġeconom y
Ġo ats
Ġwork er
Ġsecond ary
Ġr ides
Ġso aring
ol en
Ġ7 3
Ġpublic ation
Ġh i
od e
Ġgu ys
Ġsouth west
Ġol ives
Ġb ab
Ġli es
Ġse mi
ĠG reg
ĠAfter wards
Ġencou rag
ĠP oint
o ard
ĠC oco
Ġindepend ence
Ġhorn s
rop ri
Ġconvin ced
hen s
Ġmy th
Ġresist ance
ues day
ĠDa ily
Ġgame play
ĠP ublic
ĠJen na
Ġpopular ity
A r
Ġn ick
ĠP am
Ġ25 0
Ġstory line
ĠCon n
Ġg reet
ĠSpec ial
Ġthreat ened
Ġmove ments
ĠRo ss
ul es
Ġr ipped
se e
Ġjoin ing
ĠSer b
ĠB ase
Ġur ban
Ġliter ature
Ġcap e
L ittle
Ġfranch ise
Ġextrem ely
ĠB re
ĠComm and
Ġdiscover ing
Ġf etch
ĠAdd ition
Ġl b
ĠH on
Ġtouch ing
Ġag ent
olog ist
Ġdecl ined
b ound
Ġall ows
Ġres our
Ġhor iz
ĠB as
Ġst ern
ĠB eck
Ġlady b
Ġd ent
ĠFlo ppy
Ġad ap
Ġwonder ing
Ġret ire
Ġlim it
ĠSup reme
ĠG ord
Ġed itor
ĠT uesday
Ġrul ed
Ġstretch ing
Ġliqu id
ach us
Ġsight s
Ġso ak
Ġemploy ed
aw a
Ġincreasing ly
ĠN az
Ġsqu e
Ġ9 1
Ġchar ged
Ġre un
Ġencou rage
Ġs ire
st ate
Ġtal ent
ic ts
ild ing
Ġrep utation
ĠU N
ĠBey oncÃ©
Ġoff ers
ĠSt ation
ĠAl an
ĠR ight
Ġr aces
Ġcat ches
Ġdri ves
ak y
Ġaltern ative
Ġher bs
ert o
Ġveget able
Ġscient ific
Ã ¤
ing er
ĠJ our
Ġmus cles
Ġt anks
Ġ6 7
i i
lo ad
ĠI V
Ġis ol
ĠJess ie
Ġassist ant
Ġc ash
ograph ic
Ġdown stairs
ĠB ro
ĠK ir
Ġcal c
m outh
Ġold est
Ġren amed
Ġt iss
ĠE p
ĠKent ucky
ĠE le
Ġunder t
Ġconver ted
Ġru in
Ġag ric
ĠO ffic
Ġconcer ned
Ġwaff les
Ġoutdo ors
Ġb unch
Ġ198 1
ĠOlymp ics
ĠF all
Ġest ate
ĠNor way
Ġregard ing
Ġtre mble
Ġdist ingu
Ġst ages
ĠM ah
ĠMar ie
Ġind eed
ĠS ol
v y
Ġappl ied
Ġflag s
Ġ194 6
e or
Ġkn elt
Ġour selves
an o
ĠAl f
ĠSyd ney
ĠK night
ĠWith out
ĠAir port
r ant
ĠK ey
Ġ191 7
Ġarrest ed
Ġsol id
ĠD own
Åĵ Don
l as
ĠMay a
Ġsch olar
Ġc ited
Ġ6 8
A ccording
Ġsk ill
ĠC ir
Ġlux ury
Ġblueber ry
Ġintroduc tion
ĠS el
Ġpil es
Ġneighb ors
os es
Ġ7 2
achus etts
on ia
ĠP u
ĠInd ust
ĠâĪ Ĵ
ĠR ick
ĠIt Ã¢
Ġse ag
Ġfam iliar
he im
Ġjog ged
Ġv irt
Ġcol le
Ġmil it
ĠColon el
ĠBr uce
Ġtreat ed
ĠGold en
ear ch
Ġmat ched
ĠInd epend
Ġstir ring
ĠMass achusetts
ĠM oon
Ġlem ons
Ġoper ating
Ġlab or
ĠR al
Ġcon stitution
Ġexist ence
ĠP roduc
ak ers
s ed
ĠA p
ign ment
Ġ9 6
l i
Ġintellig ence
Ġag rees
Ġ16 0
ĠSimps ons
Ġab oard
Ġsust ained
ĠT illy
Ġk icking
Ġsto le
Ġdep artment
Ġstamp s
ĠD ays
Ġ194 8
ĠB and
un icip
av ig
Ġweak ened
Ġpe el
os l
ĠStan ley
Ġperson nel
Ġcred ited
ĠMar c
at re
Ġdes ire
ĠG ree
m itted
Ġcomb ination
ĠPl an
Ġcelebr ation
Ġsurv ived
Ġviol ence
Ġguess ed
Ġ197 8
Ġadm itted
ĠB ank
our ed
Ġent ering
ĠAm ong
Ġ7 00
Ġ8 7
ĠPhil ipp
ĠTe le
Ġun ivers
Ġinst all
ĠA ri
Ġproduc ing
ac her
Ġland fall
at ched
ownt own
ĠW atch
ĠIn c
Ġ Yes
ig ers
Ġbo nd
Ġar c
ific ations
ĠAb by
d on
Ġac res
Ġp ec
Ġb aked
Ġtest ing
Ġdou b
ivers ary
Ġnic er
Ġca ut
Ġprogram s
Ġte asing
Ġ6 9
Ġcost s
Ġearl iest
Ġfree way
Ġpr ote
Ġstay ing
ĠViet nam
act or
Ġstate ment
Ġsettle ment
ĠOtt oman
p ut
ad er
ĠC ape
Ġmix ture
Ġim pl
Ġjoin t
Ġfro zen
ĠH art
S ome
Ġse lect
Ġpock ets
Ġ7 8
Ġprison ers
Ġatmosp here
Ġsect ions
ĠB ubbles
Ġret ained
Ġprinc ipal
ĠJo an
Ġ197 7
Ġgen re
ĠImper ial
Ġseag ull
Ġ191 5
Ġshiver ing
ĠC oo
Ġcap able
Ġpurch ase
em ents
ĠSt ew
ĠA unt
Ġfood s
ĠPol and
Ġcoast al
Ġyell ing
Ġpanc akes
er ted
ins ula
Ġmaint ain
Ġst olen
ĠW omen
G ra
Ġvisit ors
unn ies
Ġwa gging
ĠD ec
Ġsh ots
Ġsy n
ĠO b
ug u
Ġfire men
Ġdom estic
ĠSong s
ĠL ulu
Ġne ut
Ġcandid ate
ĠM TV
Ġo pt
Ġexc lus
Ġzoom ing
iss ance
Ġp ound
Ġass ault
c ope
Ġt act
Ġs ank
Ġpar l
ĠB ang
Ġch ampion
Ġsl apped
ĠP ear
Ġb unnies
Ġcompl ained
ĠChir py
ĠAg ain
Ġdut y
Ġr ings
Y um
ĠD ue
ur ation
ĠP rem
Ġpray er
Ġcamp us
ĠCo ll
ship s
b reak
Ġ196 3
it ors
Ġdark ness
Ġ191 6
Ġt ugged
ri ff
Ġconn ection
Ġplay off
ĠL ab
ĠJ ason
ĠP ass
ĠMary land
osaur us
Ġencount ered
Ġreluct antly
Ġdirect ions
Ġind icated
ot ton
Ġpart ners
ĠV ide
ĠN aval
Ġexha usted
Ġlong est
Ġ9 4
el a
Ġdra gged
ĠA D
ĠMoo re
ĠGord on
Ġch at
Ġpe aches
Ġtwirl ing
Ġprevent ed
ĠAr ts
ar io
ĠMe g
ĠD u
Ġz one
Ġtheat re
is ms
Ġground s
Ġcous in
Ġprom otion
Ġdark er
G N
ell ow
Ġdolph ins
Ġres erve
Ġmat ters
Ġent itled
Ġcamp ing
Ġapplaud ed
Ġsupp l
e enth
v is
Ġcon es
ival ent
Ġm ig
Ġfl u
ĠP ur
ĠMc G
Ġ196 2
Ġout er
Ġh itting
Ġa imed
Ġcomp osition
Ġ9 8
ot ic
Ġdec ade
Ġcra ft
ĠR ud
Ġrem ote
ik i
ĠBow l
ĠM ain
i ens
Ġdiffe rences
Ġor chest
r us
Ġinvestig ation
k o
ĠP ut
Ġpolit ics
Ġclub s
Ġcover ing
b ows
ĠR un
Ġregular ly
Ġphot os
Ġent ry
Ġcolor ed
Ġev il
Ġdisplay ed
Ġexperi ences
Ġgu y
Ġd ates
Ġclass es
ie ge
Ġreg iment
Ġbatter ies
Ġca uses
Ġnovel s
Ġpropos al
ino is
ĠSt adium
Ġ8 1
Ġ191 9
Ġlangu ages
Ġre ma
Ġv oted
ĠG ro
Ġ7 1
j a
Ġwor st
Ġprotect ing
ĠRhod es
ord an
ĠT a
Ġrec on
Ġrec alled
Ġm ales
Ġcountry side
Ġint ention
Ġant icip
iz ations
Ã ¸
os is
ĠMu lder
Ġred uce
Ġdeath s
Ġbud ge
Ġbab ies
Ġproduc ts
ĠG arden
Ġother wise
ĠTod d
Ġfa ult
Ġbeg un
Ġspecific ally
ri or
o or
Ġto night
ist en
Ġe cho
cri pt
por ation
Ġcr ime
ph oon
ĠAl b
Ġrout es
n o
ĠPat rick
ie val
Ġ193 8
ans as
Ġsp ons
ĠF ound
ĠConf eder
ad or
Ġsc ales
enc ies
Ġinst alled
Ġportray ed
end s
ak a
Ã¡ n
Ġbe ard
m ate
rop ol
Ġ8 9
Ġrev olution
h ar
Ġpast el
Ġhunt ing
i as
Ġrest ing
ĠJess ica
ĠComm un
erv ative
Ġl ane
Ġimp lement
cept ion
Ġw ides
Ġrelig ion
ĠU nt
Ġbre ed
Ġarm or
aur a
Ġth irty
iqu es
ct ions
ĠO re
Ġdr am
Ġpin ched
Ġman ner
ĠThe atre
al ty
ic ate
Ġmuff ins
Ġbre eding
Ġ8 2
Ġst itch
Ġple asure
Ġpl enty
ĠU t
Ġcons um
. '
it age
Ġact ual
Ġtrans p
Ġtri ps
Ġcr is
Ġsne aked
Ġdut ies
ĠFore st
re al
ĠA C
Ġ17 5
Ġbur st
bour ne
Ġfeed ing
Ġrema inder
Ġpass age
Ġcontrovers y
ol ars
els on
Ġs oul
Ġconcern s
Ġnom ination
Ġinter nal
pp ers
Ġ8 8
Ġbar s
J ust
Ġs ending
ĠSt aff
Ġlet Ã¢
Ġmatch ing
Ġsuff icient
Ġnightm are
ĠBe ach
ĠEx c
ac le
ĠO ur
Ġfl ap
Ġun ited
Ġso aked
ĠC rit
Ġbro om
Ġ13 0
Ġthousand s
ar ter
Ġ195 6
Ġdestr uction
ĠHist ory
Ġv ir
Ġgigg ling
Ġso le
ĠU TC
Ġdri vers
ĠK ong
Ġmet ers
ĠAnt h
Ġmusic ians
Ġforest s
Ġsn ail
ĠA ge
Ġthr one
Ġprov in
f ather
Ġfo ss
Ġp ears
Ġrel ations
Ġto ss
Ġpre ced
Ġreal ity
uit s
Ġpar ked
Ġpo king
rane an
Ġw ider
e ah
or gan
Ġv owed
ĠBar b
Ġpost ed
Ġequ ipped
v ard
Ġacc ur
ĠAb out
Ġfem ales
p read
Ġbr ushes
Ġladyb ug
Ġm ort
Ġch ips
Ġcompos er
Ġrecover ed
Ġph ase
ang led
al i
Ġpers u
ĠJust ice
ĠJul ia
Ġcontin uing
Ġl ighter
Ġ193 6
Ġal t
v i
Ġscream ing
el er
Ġdistrib ution
Ġsc oop
Ġperman ent
Ġ7 9
Ġtest s
ĠWh it
ow led
ĠSatur day
aw are
ĠMem orial
n ce
ott e
Ġrece ption
Ġinj uries
Ġfund s
Ġpassen ger
at i
im y
ĠTh ose
Åĵ Hello
Ġsw ept
Ġval ued
Ġcoll aps
ĠRal ph
A ll
il ation
Ġwar nings
Ġpra ise
ic ian
ent ially
Ġprom ote
ĠCon stant
Good bye
B S
Ġs ib
Ġsurv ive
Ġcons isting
Ġeight h
Ġconsider able
Ġevery body
Ġboun cy
Ġch oo
Ġext ension
A T
B N
ĠH ug
Åĵ Look
Ġqu ack
Ġtyp ical
ned y
Ġob l
ĠSt ra
Ġbr igade
Ġdri ven
ĠMatt hew
H appy
Ġ196 1
ri p
Ġha l
ĠAdam s
ĠSp ace
bo at
Ġfro sting
Ġs ons
ill er
ĠP ower
het ic
on i
Ġsp it
Ġreplace ment
ĠB ir
Ġdec ades
Ġhe el
ĠL en
Ġreturn s
iven ess
Ġident ity
Ġscur ried
Ġpay ing
Ġr ural
it ched
ĠNet her
es ome
Ġin vent
ĠV ill
Ġ195 3
Ġoccur s
ĠNot hing
ust er
ĠV II
T od
vel and
Ġbas ic
Ġth roat
ĠMom o
Ġacc used
Ġorgan izing
Ġser ves
âĤ¬âĢ Ŀ
Ġl ick
ĠBr other
Ġpat ience
a fter
Ġnot ing
Ġfig ured
Ġchew ing
velop ment
Ġd ated
Ġm es
ĠN BA
ĠNor we
uri ous
ĠV ar
Ġrem ix
Ġaspect s
ĠS ab
ĠSt and
Ġstrong ly
ĠIndian a
ĠG ill
Ġdescri bing
Ġprett iest
ĠInd ones
Ġinvol ving
c ious
Ġl ined
Ġpr unes
b ird
ĠMc K
Ġdrag ons
Ġdepart ure
p ir
Ġev olution
Ġcom pr
Ġcl aps
ĠHow ard
ĠEng ine
Ġcolour ed
Ġpl ain
ĠJ ordan
Ġconsequ ences
i ber
r ont
ĠShe l
ĠI GN
Ġsw all
ens us
Ġsupp orters
ĠF rog
ps on
Ġsort ing
Ġk ings
Ġdeb ate
Ġcr imin
ĠCh ap
Ġstrong est
ĠZ oom
Ġhundred s
Ġbuck ets
Ġpear l
Ġpre y
Ġ194 7
ong e
Ġele ven
Ġbehav i
Åĵ This
Ġarg ument
Ġparl iament
m un
ic it
Ġpro ve
ic ide
Ġbra very
ĠHam ilton
ĠKen nedy
ĠMag azine
b ro
Ġ9 3
Ġexcept ion
Ġvess els
Ġdet ect
ĠMar g
ĠN ap
Ġ195 8
Ġparalle l
Ġatt racted
Ġ8 4
D es
Ġass umed
Ġs igning
Ġgood night
ens es
Ġsaf er
Ġs essions
ret e
gg y
Ġdec line
Ġac kn
Ġcross es
Ġcert ified
Ġbat s
Ġform al
Ġ191 0
Ġribb ons
ĠB os
Ġden ied
Ġ11 0
Ġf olk
ot o
Ġrem ark
Ġwides pread
Ġinc ome
Ġobt ained
Ġcomm itted
Ġpart ner
yn asty
Ġ Î
ĠB ry
ĠHit ler
Ġ195 7
ĠTur k
Ġsequ el
ĠDire ctor
iv als
ag ues
ĠTr ust
Ġmod e
Ġmelt ing
Ġran k
ie re
Ġsur vey
ĠSc ully
ĠD olly
orn ey
Ġchar ges
Ġd owntown
ĠRoll ing
os ure
Ġequ ivalent
Ġpup il
a ver
ot ing
Ġr ay
ĠCon stitution
Ġassist ance
ĠT ara
Ġbal ancing
Ġd y
ĠD ri
Ġme ets
Ġsty les
Ġder ived
ĠT reat
ĠGr am
Ġcoo per
Ġchor us
ĠC indy
ĠP rog
Ġro cking
ĠPh ill
a ved
c ol
Ġhost ed
ĠW rest
Ġac id
Ġgener ation
ur n
Ġ193 7
ĠW he
Ġcompet e
he llo
ing ton
ĠLe on
la im
agon ist
Ġpop ulations
sen al
Ġmem orial
ĠPhil ip
ĠAr gent
Ġsh if
Ġrep ly
Ġch ases
Ġcurt ains
ĠIll inois
ĠBeat les
ĠB ess
Ġin ner
Ġseg ment
ĠOre gon
ĠH ou
ĠL aura
Ġtermin us
ĠL izzy
ĠSc ience
Ġsup erv
Ġde leg
Ġtal ks
w estern
Ġpour ing
Ġliter ary
Ġg al
Ġgaz ed
ĠG en
omm od
Ġrecogn ition
cher s
el d
Ġposs ibility
w orth
ĠI ra
t a
Ġ195 9
Ġcirc um
iter ranean
ĠSl ow
ĠAs sembly
ĠâĢ Ŀ
Ġw ickets
Ġr um
Ġclos ing
ĠAl i
se x
Ġaff ord
ĠG ab
let e
Ġtwink ling
ĠWeek ly
Ġf acing
em ed
ress ive
Ġwor n
Ġanim ated
ĠMed iterranean
Ġpol ar
ĠPic ture
ĠDoug las
ĠNorwe gian
A h
Ġmiss ions
Ġtrans ition
ĠCon c
Ġst ock
Ġcirc ulation
hed ral
Ġreg ional
Ġsweet ies
ĠVide o
Ġgu ide
Ġaw esome
Ġ8 6
Ġdeterm ination
Ġoccasion ally
ĠW y
Ġbel ly
ÅĵDon Ã¢
ert ies
Ġthr own
n old
Ġshel ves
Ġtiss ue
Ġfor ming
Ġbo om
Ġcr umb
ĠKay la
Ġh ip
ĠCle veland
j i
ĠW alk
Ġstar ing
Ġdiffic ulty
th ank
Ġtext ure
Ġp ure
ĠH appy
Ġ195 5
Ġadap ted
Ġt ested
Ġca val
Ġfiction al
ĠC art
ĠV i
Ġprepar ing
ĠL oc
Ġrese mb
Ġs orted
Ġfl ames
atin um
Ġran king
Ġmark ers
min ist
ĠM other
Tod ay
ĠCh annel
Ġtheir s
ĠHo ppy
ĠD or
Ġ195 4
op hy
ate gy
ak i
ĠRe view
Ġfill ing
eez ing
he me
ĠF A
ĠAl ways
ĠCol or
ĠJ azz
Åĵ Why
ĠSing les
ĠL ast
Ġsc re
Ġcommand ed
Ġoff ering
Ġsqu eal
ĠÃ Ĺ
Ġm ittens
Ġdec isions
Ġpur red
ĠDe an
Ġav o
ĠE ver
ĠMex ican
Ġflav or
Ġch oices
arth a
Ġpolice man
Å Ĥ
ord in
Ġdem ol
ĠL anc
ĠV e
Ġbal anced
ĠO k
Ġbo il
ĠPro ject
Ġpeb bles
Ġrubb ing
b orne
Ġalle ged
Ġli ed
Ġclass ic
Ġbelie ving
rog en
ĠWW E
er a
ĠFred er
Ġlibr arian
Ġstr ateg
Ġc os
ĠB an
Ġdiss ip
Ġro cked
ig i
ĠB ishop
ĠF ame
Ġdi pl
Ġmass ive
ĠMcC art
ur rent
Ġtick le
Ġattrib uted
ĠMic key
ĠK eep
ĠIS BN
Ġann iversary
Ġread s
Ġincorpor ated
ĠTh ird
Ġstorm s
ont o
az ines
Ġcaval ry
Ġas ide
Ġt asks
Ġtravel s
ut ing
ĠC ab
S omet
Ġs way
ĠKore a
Ġa im
ĠF ive
st orm
ĠMor gan
Ġinsp iration
Ġemph as
ĠFed eral
Ġill ust
Ġcomple tion
ĠL ow
Ġnewsp apers
Ġinterest s
Ġf al
ĠIn it
Ġexpl ains
am i
Ġmethod s
ĠHaw ai
Ġte en
Ġart work
Ġl at
Ġbott les
ĠWin ter
Ġv ary
Ġinv iting
ĠSh ar
Ġanc est
ĠHer o
Ġdanc ers
we ight
Ġprov ince
Ġeffect ively
al f
Ġfe ars
Ġpo ly
Ġgu ests
Ġpre mi
ir o
Ġ195 2
Ġso b
Ġd ared
ĠS av
Ġsurrender ed
ĠNorm an
Ġresour ces
el ia
R A
ire s
Ġsurv iving
ĠT al
ĠR aj
Ġm ent
Ġknight s
w o
ĠBet ween
Ġv o
p ower
Ġsp ill
g us
Ġpack ing
ĠâĢ ľ
U h
ĠB ee
Ġ17 6
w ick
Ġsp ike
ĠP ipp
Ġestablish ment
Ġregret ted
Ġgreat ly
ĠB ush
ĠR ow
Ġappear ing
Ġwire s
Ġ193 3
osl av
Ġacc ommod
Ġbat ting
Ġp ounds
az a
Ġmar sh
Ġcheer ing
Ġrepair ed
ĠAll en
Ġclass ified
ĠMar s
ri ers
Ġhug ging
ĠFriend s
Ġattack ing
Ġtechn ical
Ġ8 3
Ġroar ing
ĠLi br
b l
Å ¡
I A
Ġhel m
ĠMil itary
h or
ĠI ron
ĠM erc
Ġdiv isions
Ġauth ors
Ġ193 5
iv a
Ġprop erties
Ġassoci ation
Ġf ighter
ol ph
ĠMor ris
n els
ĠUS A
Ġpred ecess
ĠSwed en
R emember
Ġr amp
Ġmag azines
Ġmin er
Ġrat ings
Ġsn akes
Ġ ille
Ġimp er
Ġch o
Ġobs erv
ĠF ro
Ġtall est
Ġcur ly
ĠTem ple
ĠF a
Ġvot es
ĠN ations
ĠB or
Ġcol umn
Ġpil ots
ab led
Ġengine er
Ġheav ier
Ġrein force
Ġqu ant
ĠRes earch
ĠM i
ĠC E
ĠRob inson
w ich
Ġ195 1
Ġ9 2
ot es
Ġ194 9
ĠB ah
Ġfe ver
ĠAr senal
Ġcup c
Ġglob al
Ġwe alth
ĠN elson
id i
ĠSuz ie
Ġvis ible
ĠSc ient
Ġpen alty
ĠWel sh
ĠI mp
Ġrel ative
Ġcommun ities
ĠPro f
Ġet hn
ĠByzant ine
ut y
Ġr ushing
ĠU s
Ġprin ting
Ġprem iere
Ġhome work
Ġens ure
Ġabs or
F rom
Ġshiver ed
ĠNether lands
Ġpol ished
ĠJew s
ĠT ar
Ġstr ategy
Ġdev ice
e ers
ĠE s
Ġmeasure s
ou ch
ĠTor onto
em eter
Ġperm itted
it ely
Ġst icking
Ġgrow s
Ex c
el ine
Ġbl ocked
Ġinterp ret
Ġphot ograph
Ġcru iser
own ed
Ġsl imy
ĠAd vent
.. .
Ġbattleship s
Ġb on
Ġclaim ing
ĠC ry
Ġwear s
ĠF ord
Ġhistor ians
Ġprogram me
Ġfl ed
nam ents
Ġd ens
ic i
ĠR uth
Ġpretend s
Ġg ap
Ġsil ent
Ġren ew
Åĵ Oh
Ġf itted
ĠM artha
iv ia
in ton
ich ol
Ġlog s
Ġsh irts
ĠBe ing
Ġcol ony
Ġsaus ages
Ġsub ur
Ġbelie ves
Ġsome body
Ġdif f
Ġtechn iques
Ġaccount s
Ġbl ast
ĠPrem ier
ĠG ray
Ġtra ined
Ġsh ined
Ġsl ower
Ġapp ropri
Ġdocument ary
ĠAddition ally
Ġm ate
ĠSoph ia
ĠTrans port
ĠIra q
m ers
ĠA z
Ġsweet s
Ġclear ly
Ġfund ing
ĠT ake
Ġfar ther
on aut
ĠCh ron
Ġvar i
Ġre ass
uth or
Ġtow els
ĠU r
ĠS ax
ĠShe r
Ġwor ries
ap se
Ġ19 00
Ġclim ate
go ing
ĠO ak
Ġsome what
er ves
Ġtem porary
Ġdismiss ed
ĠJour nal
Ġbase ment
ĠR over
Ġgr ade
Ġdeterm ine
C A
b ra
ol ine
ĠP inky
ĠAr men
Ġsl ed
og y
Ġear n
Ġrem n
ĠBr istol
ĠSt ill
Ġspray ing
Ġc ategory
Ġmur d
Ġarchit ecture
Ġwas ted
Ġdesign er
o z
Ġexp ert
Ġsib lings
Ġcan Ã¢
Ġannoun ce
b oy
Ġchild hood
Ġclass ification
Ġrad ishes
Ġinter sect
Ġjob s
ĠUnt il
Ġann oy
Ġl amb
Ġchair man
ĠCent re
Ġmed ieval
ĠQu ack
ĠRuss ell
ĠSil ver
Ġto ne
ch ild
Ġstar red
ĠJes us
Ġinvolve ment
ĠI nn
Ġwait er
Ġd iving
ĠB ol
Ġnin th
Ġco de
Ġrest ric
ĠL ena
Ġsubmar ine
Ġzoo keeper
Ġcred it
ĠN FL
Ġhand ful
Ġsp an
ĠD E
Ġrefe rences
Ġoutf it
Ġdoll ar
ĠPol ice
Ġpresident ial
Ġprincess es
1 9
Ġto t
Ġsec ured
Ġimmedi ate
ĠH old
Ġsurv iv
Ġtemperature s
ĠShort ly
l an
Ġsc heme
ut her
Ġtal ented
Ġsail ors
Ġo ri
ĠP A
Ġyoung est
Ġsigh s
ĠL ion
Ġyou Ã¢
Ġfold ing
ac ter
Ġst or
Ġbuy ing
ĠT enn
ĠD er
ĠL enn
Ġclass ical
Ġne are
Ġch annel
Ġun w
Ġabs ence
Ġcon vent
ĠMar ine
ĠR em
Ġcomm em
ĠJ os
Ġgood s
Ġt ies
Ġrain bows
Ġvent ured
Ġs ed
Ġit em
Ġ ic
id o
ĠP itt
Ġsl ap
Ġbl ink
ĠPu erto
ĠC her
Ġfore head
com ing
Ġdust y
ch ar
ĠW right
Ġmar gin
Ġc ul
ac les
Ġpremi ered
Ġpat ted
Ġstart led
Ġreview er
Ġpo ster
Ġoper ate
izz ie
ĠR i
ĠCar ter
Ġabs ol
Ġadapt ation
we alth
Ġconc lusion
ĠHo ly
ĠGl ob
Ġgrow ling
ĠIs lam
ĠCroat ian
Ġcolon ial
ump h
Ġdro pping
w hel
st ic
ĠK aren
ĠN iel
Ġinter ior
ĠFr ont
Ġunsuccess ful
Ġcra bs
Ġacade mic
Ġoccas ions
Ġex isted
us ic
Ġcar bon
Ġcar rier
Ġent ers
Ġde emed
Ġsong wr
Ġtub es
Ġconve ction
on ze
oun ced
Ġg lee
Ġvisit s
ĠThom pson
et ime
Ġrom antic
il st
Ġelect ions
Ġbloom ing
Ġprefer red
Ġd ating
Ġsuper ior
act ive
Ġquestion ed
Ġteac hes
Ġattempt ing
ĠPal ace
ĠTele vision
it zer
J en
ĠMed ia
Ġmon arch
ĠHar ris
Ġfac ility
Ġpadd led
ĠA ut
Ġm unicip
Ġbomb ard
if er
ĠLibr ary
ĠH ope
ac ent
ĠInd ians
Ġcons ist
ĠS in
ĠD ur
ĠHor se
v elt
ix on
u ations
Ġlegisl ation
it able
ĠHe nd
Ġcontrovers ial
Ġretire ment
ĠN C
p an
Ġdis aster
Ġmushroom s
Ġrec r
e ks
ĠM aster
Ġ192 6
y es
ĠI d
ĠE ls
Ġran ger
Ġdistrib uted
Ġp ots
ĠHung arian
Ġ191 3
ĠI ce
Ġimm ig
Ġhe aled
ĠBar ry
Ġstandard s
Ġexc ell
Ġarrang ement
Ġ192 1
Ġtim er
Ġbl ows
Ġmod ified
ĠBer lin
ĠT echn
Ġu nn
Ġcub es
ĠHe art
Ġme re
Ġch uck
Ġposs ession
h ib
ont in
Ġgrow l
Ġdomin ated
Ġnick n
ĠD omin
ort ing
ĠLuc as
Ġ0 6
Ġrail road
Ġn avig
ĠU lt
Ġ193 4
Ġinform ed
Ġgraph ics
ĠTh anks
Ġun ion
Ġrare ly
Ġcr acked
Ġdep icted
ĠP a
o en
Ġackn owled
el es
Des pite
Exc use
Ġcon stit
ĠM ot
ĠA cc
Ġdef ended
ĠWe b
Ġval ues
ur ches
Ġth irt
ĠP in
ĠH and
ĠHou ston
ĠL izzie
ĠPark er
ĠCommon wealth
y ou
Ġno on
Ġ191 2
ĠBat man
ult ane
at tle
se a
z ing
ĠA ud
l ines
Ġsuppl ied
ĠAnth ony
at us
Ġsee king
Ġtremb ling
Ġo dd
Ġkneel ed
Ġ192 7
Ġcle ared
ĠAr ound
ect ar
ĠEvery body
Ġhelm ets
d in
ro ying
ĠG ary
Ġrepresent ing
ĠH ospital
ĠD NA
Ġint ense
Ġ9 00
Ġcomple ting
Ġnorm ally
om y
Ġclos es
ĠD ig
iel ded
Ġroll s
Ġreve als
Ġbehavi our
om ot
ĠFam ily
B I
ĠBy e
ĠUS S
on n
ĠP ak
Ġshop s
Ġsh orter
Ġfair ies
Ġra ising
Ġout break
Ġfl own
ig e
rup ted
Ġs an
ĠS ar
ĠS upp
ow a
el le
Ġexp ression
ten ance
l ie
Ġformer ly
Ġwander ing
ĠPro v
ĠA ny
Ġcanc er
Ġn ations
Ġcompl aining
ĠBel g
Ġcon vention
Ġbelie f
Ġmay or
ild a
Ġstore s
ro it
Ġnar rative
ly n
Ġal co
Ġem otional
Ġsynt hes
iv ated
ĠSwed ish
Ġstay s
ĠTh us
Ġdep os
ash a
Ġcy cle
ĠA th
Ġbloom ed
Ġdeploy ed
ĠY an
Ġ193 2
Ġsire n
Ġb ishop
ĠA I
á »
Ġrele ases
j amin
ĠN a
Ġappro val
f are
Ġp ace
Ġcompl iment
Ġm ood
Ġer u
Ġtun nels
Ġpencil s
Ġp aj
ĠSam uel
Ġcomm it
ĠN BC
Ġpre gn
ĠFo llow
Ġinflu ential
in ations
Ġdest roying
Ġmoder ate
e z
Ġn ectar
ĠE ve
ĠK ar
Ġgener ated
ĠM ort
ĠComm ander
Ġgar rison
Ġrelationship s
Ġwar n
Ġhistor ic
Ġmus cle
ĠL abor
Ġover whel
Ġexc ess
ĠPr inc
Ġpengu ins
ĠA k
Ġpro c
Ġrock ets
Ġsuccess or
ĠSimps on
ug oslav
Ġmat hem
Q u
ĠN ichol
ĠCor poration
ĠN ar
Ġswe ep
ĠBra nd
Y eah
ĠE c
Ġa irl
Ġda is
Ġapparent ly
ĠLe ave
Ġoffic es
Ġpaj amas
Ġste ady
f ied
ĠS ay
Ġvict ims
ĠRA AF
ĠSp orts
Ġscient ists
Ġtrav elling
st ep
Ġk ites
ĠWith in
Ġ vert
Ġvan ish
f ound
Ġcour ts
Ġamong st
ĠC op
Ġp y
ro se
og en
Ġshark s
ĠLa ure
ĠOp en
Ġs iege
ot ype
Ġ192 9
Ġbad ge
Ġass ass
Ġmed ium
Ġwr ist
ĠNet work
emeter y
im ore
Ġtri als
Ġjournal ist
ĠSlow ly
Ġcollaps ed
Ġdipl om
b ook
as ant
ĠE duc
Ġexec uted
ĠT ower
Ã³ n
o ch
ĠD ick
ĠRe al
Ġswe at
Ġpol ishing
Ġmiss es
t an
Ġparticip ate
Ġdais ies
Ġtr actor
Ġto ll
ĠWar ner
ĠX box
P A
ĠRober ts
Ġ14 0
ĠBr un
Ġrain s
Ġ0 8
st ances
ĠAs ian
Ġl inked
Ġunc ertain
ĠT erry
Ġopp onents
ĠY ugoslav
Ġlow est
ĠR AF
Ġ193 1
r ations
ĠB ure
Ġre nder
ĠC ategory
ĠSp ears
ath y
Ġfact ors
ĠC as
Ġprom ises
ĠGu y
ara way
Ġf ighters
Ġr idge
Ġchap ter
Ġg ay
Ġ191 1
Ġres igned
sp ec
Ġvis ion
Ġunl ike
Ġthere after
Ġsign al
Ġd ipped
Ġform at
re cted
Ġd iet
Ġab ilities
Ġrecord ings
ĠDe ath
Ġ192 2
Ġd iver
Ġperson ality
han na
ĠF el
Ġstore keeper
Ġtrad ed
Ġdetail ed
ĠNiel sen
Ġfoot age
Ġinhab it
Ġless ons
Ġc rops
ic ting
Ġsl am
Ġenvironment al
ĠDet roit
ĠG aga
Ġr ipe
ĠB udd
Ġexp osed
Ġgrand father
Ġaccomp any
ĠCroat ia
Somet imes
ĠG un
Ġreported ly
bur n
Ġkn ees
Ġanim ation
Ġph ra
ĠExp ress
Ġdent ist
ag u
ĠMel bourne
Ġ0 9
Ġdial ogue
ĠP C
Ġint rig
Ġform ally
ob i
ĠEv ans
om ic
Ġen h
ĠMur ray
Ġinflu ences
ĠF if
Ġglass es
Ġjo king
id ay
ĠMus lim
us al
Ġnot ably
Ġatt itude
Ġhero es
b age
Ġcon st
iv an
ĠSp eed
Ġg est
ĠN ic
ĠCh amber
Ġpers pect
ĠS omers
ĠCoo per
ĠBen jamin
roll ed
ĠC ook
Ġres umed
w an
ĠH ell
ĠL ate
Ġcommem or
ĠL ane
Ġemploy ees
Ġcaut iously
be an
r un
Ġm ac
Ġdep arted
ĠMar io
struc ture
ic ity
ant a
so le
r ace
Ġdescri be
Ġf iring
Ġpoet ry
Ġcelebr ating
Ġresident ial
Ġborrow ed
ĠStew art
ĠE st
ĠTurk ish
Ġsubject s
ip es
Ġf ant
Ġsy mp
yl an
Ġover come
ĠBalt imore
Ġbe ads
Ġext ent
D S
L ike
m ission
Ġl ink
Ġg aze
Ġserious ly
og an
m ad
Ġbe am
ĠV ice
Ġreward ed
Ġsubstant ial
Ġ17 0
Ġperiod s
net t
ĠQue ens
Ġgroc eries
ĠD al
Ġsees aw
p on
ĠT rib
ĠSt ory
ĠFr an
ĠS weet
Ġbl ocking
Ġsim pl
al o
ĠBr ook
Ġdifficult ies
ĠR ey
ropol itan
Ã ±
end ment
ĠColor ado
Ġas semb
ĠAust ria
ĠNever theless
Ġm asks
Ġcoll apse
Ġsqueal ed
Ġinst ance
ĠSim ilar
ĠGree ce
Ġup d
Ġaud io
Ġh ull
Ġvill ages
Ġconv oy
Ġwid ened
Ġc otton
Ġv ul
Ġsat ell
Ġpit ched
Ġhor ror
ĠAlbum s
Ġarri ving
Ġreb ell
Ġvess el
Ġc oc
Ġro ses
r in
ĠF ight
ĠCar ib
ĠLenn on
Ġreview ers
Ġapp ointment
Ġenthusi asm
Ġs unk
itc her
Ġaccompl ished
ĠR aw
iam i
Ġare n
Ġqu acked
Ġarch ae
Ġcrimin al
Ġimp rison
or ious
Ġag ed
ĠCl inton
Ġterrit ories
Ġpubl isher
ĠP ope
ĠO bs
Ġlollipop s
ĠEnt er
Ġrep airs
Ġtwink le
Ġo ption
Ġconf idence
Ġwasn Ã¢
Ġdiam eter
ĠSoc ial
ic ians
Ġfe ud
Ġjun ior
Ġover se
Ġtem por
Ġsw irl
Ġut il
C l
Ġcrumb s
Ġb ases
ĠMil o
or ous
Ġdi agn
ĠDog gy
Ġc ough
ĠC R
ĠN ancy
Ġfin ale
Ġag ents
Ġf araway
Ġcorn ers
Ġnegoti ations
ĠMarg aret
Ġtechn ique
Ġisol ated
ĠR ap
Ġconcer ts
E S
Ġbe ating
Ġ192 8
Ġlist ens
Ġupgr aded
ĠA uthor
ra ph
Ġm art
Ġround s
ĠCont in
ĠJack ie
Ġtent h
ĠW olf
Ġ0 5
ger y
Ġsim ultane
ĠAlf red
R un
ĠGi ants
Ġfound er
ĠJon athan
ic ies
ĠC all
Ġpart ly
p orts
ames e
Ġyes terday
Ġprot est
Ġfrequ ent
Ġminer als
Ġdri fted
Ġmark er
Ġcru isers
b el
ĠG re
ĠFound ation
Ġspec imens
Ġfact or
h al
Ġin her
Ġthought s
ĠMal ays
ĠOl iver
Ġwithd rew
Ġcris is
Ġp ause
Ġsch olars
Ġcom ments
ĠAr k
cri ption
Ġmole c
Ġv ice
ĠAng lo
ĠMir a
ol is
Ġrese ar
i kes
ĠM iami
ĠV in
Ġref ug
Ġpro ced
Ġpee king
ĠSomers et
Ġref lection
Ġwhere as
o is
Ġmain tenance
ĠAnt on
Ġk icks
Ġcar ries
Ġbenef it
ĠProf ess
ĠT ess
Ġtravel ing
Ġfif ty
ĠB urt
Ġrepl acing
Ġconvers ation
Ġb id
ĠHe avy
Ġb aker
Ġpl atinum
ĠE ight
Ġstri king
Ġ192 5
m ith
ĠUn ivers
ĠS orry
ĠJ u
ĠN ear
Ġpast ries
ĠP andy
Ġ verse
Ġgo b
Ġback wards
Ġdiv or
ĠCharl otte
ab ama
Ġtur rets
ĠW ing
Ġf uzzy
at ically
ĠBl ood
ar ling
Ġtarget s
ĠH ans
ut t
Ġengine ering
Ġsuggest ion
Ġ192 4
Ġorgan izations
ĠMic hel
ig en
Ġaw ake
ĠR oc
ĠUn like
Ġcreat or
ĠFreder ick
b oo
Ġban ks
Ġcritic ised
ĠD ance
Ġ189 0
bor ough
T hen
Ġm amm
ay a
ĠE xt
Ġfin als
Ġfor ty
ĠGuard ian
ĠH orn
Ġelse where
Ġmain stream
Ġadv is
um m
Ġloc omot
ur ance
Ġpart ially
r idge
arent s
ĠRec ording
ĠTreat y
us cript
Ġsurround ings
ĠTre k
Ġfire s
u v
Ġpow ered
Ġv ic
ĠG a
Ġsym pt
Ġdes per
Ġspread ing
Ġshe ar
ĠW end
ĠPlay er
ĠR emember
ĠSe attle
Ġcompet ed
Ġfro ze
um in
ĠSpark y
Ġext reme
Ġfif teen
Ġpol icies
Ġchuck led
Ġpro port
Ġmon ument
Ġref ers
Ġexam ples
ĠB ed
Ġsuit able
m o
ĠS on
Ġfor cing
ĠC ow
ĠG igi
ĠYan ke
i pl
ĠMarsh all
ĠChild ren
Ġr ates
Ġsplas hes
ĠCr own
hib ited
ar ia
ĠSt ock
ĠC z
Ġsuit case
ĠM as
Ġover s
Ġchem ical
ather ine
Ġ192 3
ĠB ou
ol ves
Ġprom pted
Ġsub t
olog ists
ĠOr gan
b at
ĠCan al
ĠI owa
Ġdescri ption
ĠK arl
Ġcount s
Ġrub s
ĠB ros
ĠF I
Ġprom pt
ĠDra gon
ĠB irth
ĠF ish
ĠCarib bean
Ġcust omers
Ġsched ule
id d
Ġst are
Ġex ceed
Ġam bit
ĠD ylan
Ġexplore rs
Ġrepresent ative
ĠH ockey
Ġcharacter istics
Ġsuggest ing
Ġj ur
ud es
Ġint ent
ĠFor ces
in ction
Ġmel ody
ĠGram my
ĠB ull
Ġill ness
Ġb umpy
ut s
rom ise
Ġv ast
ĠR en
ĠSt art
od ed
Ġhon k
Ġtre nd
ĠAl abama
Ġp hen
Ġch urches
Ġresp ected
ĠMiss iss
Ġmin imum
Ġwin ked
Ġhoriz on
3 0
ĠA y
ĠAn im
ĠF eder
Ġhon our
ĠEd ge
Ġme ow
cri bed
Ġhous ing
Ġexerc ises
ĠMod ern
ĠSt ella
Ġrevers ed
Ġfe ast
Ġcrack ers
Ġd ynasty
ib ilities
ĠL im
ces ter
h og
Ġtrib ute
ĠUS D
Ġprot agonist
ĠMiss ou
Ġhabit at
ĠMin nes
ĠAb bie
ĠTy ler
Ġre nt
Ġun less
Ġleg end
Ġadj acent
ĠDie go
Ġr ip
Ġca ps
Ġsw ooped
Ġin aug
Ġe ase
Ġst all
Ġvict ories
ĠTown ship
ÅĵWhat Ã¢
el ing
Ġdestroy ers
M A
ull ivan
Åĵ Mommy
Ġtur b
ĠCount ry
Ġan ger
ĠEd die
Ġflood ed
Ġped als
ĠI an
ĠW ork
Ġter ror
Ġpunish ment
ĠNaz i
g as
Ġpast els
ĠM L
Ġgarden s
Ġnap s
Ġst ored
ĠA le
Ġrecogn ised
Ġlo an
ĠChampionship s
ĠA h
Ġres ign
ĠDe ad
ĠMin istry
Ġflutter ed
ĠT s
Ġcertain ly
Ġtreat y
ĠSen ator
Ġ0 7
br ush
ĠApp le
Ġexpl o
f ly
Ġt ables
Ġm and
B ad
y e
ĠAustral ians
n amese
Ġpartners hip
ĠD od
ĠLou ise
Ġdown load
Ġbowl s
Ġappreci ated
Ġbom bers
ĠLaw rence
Ġinstrument al
ĠBelg ium
Ġal leg
ĠCo le
Ġtrad ing
Ġwigg led
ĠNap ole
ĠS que
Ġre ven
Ġsurpr ising
Ġviol ent
ĠRob bie
Ġpurp oses
r ats
ĠViet namese
Ġsnowball s
Ġd ies
ur g
Ġdeg rees
Ġar ts
Ġmin imal
Ġdanc es
Ġenc l
ĠThrough out
Ġelimin ated
ud a
Ġcash ier
Ġitch y
Ġindic ate
z ed
Ġelectric ity
Ġtr icked
Ġtip to
onna issance
Ġsu icide
Ġexplos ion
Ġprec ip
Ġinn ov
Ġp iggy
Ġdisp ute
Ġshare s
ĠL ad
Ġwe aken
Ġche eks
Ġload ing
ĠR ing
Ġorgan ised
ra p
ĠY or
Ġrad ar
tal ions
Ġchallen ged
Ġsymbol s
Ġgreet ed
Ġpoor ly
in als
Ġb ay
Ġhid es
ĠChrist opher
Ġcan al
ct ic
oose velt
Ġopp onent
Ġdes erve
ĠDe velopment
Ġpad dle
ĠHung ary
Ġexcell ent
in ts
Ġdiscuss ing
Ġarrow s
Ġdri ft
Ġrid ers
Ġto mb
or al
ĠH ills
Ġman uscript
Ġlay ing
Ġ190 8
ĠM ach
hat tan
ĠM P
Ġastr onaut
Ġcar go
Ġp itcher
Ġclot hing
Ġkey board
Ġcl in
ĠSh akes
ik a
ĠH amp
Ġprofess or
Ġencourag ing
od ies
Ġoccup ation
Ġn ib
Ġpro spect
Ġdesign ation
ĠZ ero
Ġed ges
Ġdefe ating
Ġ190 9
ĠTh or
v ant
ors hip
ĠSm all
Ġ190 5
ac on
Ġdeliver ing
or i
ak ery
ĠT an
oun ce
Ġover l
Ġt angled
Ġback ing
Ġpres erved
Ġc ateg
Ġsneak y
Ġsurviv ors
Ġw ow
ĠHo ll
Ġmes mer
Ġstr uct
Ġlay er
l ife
re p
Ġsa cri
Ġconc rete
Ġlist s
Ġcreat ivity
Ġref lected
ĠPen insula
Ġintens ified
Ġtrick y
for ced
ĠH ud
ĠNob ody
Ġaccomplish ment
ĠMinnes ota
F C
ick y
ĠK han
Ġstr ict
ĠJud y
Ġpublic ly
Ġ10 5
Ġfiref ighters
on ies
Ġpl us
ov al
aff es
ĠC amer
Ġem peror
ĠD C
ad os
ĠC old
Ġelect ronic
ĠFrank lin
Ġcandid ates
Ġunder w
Ġlo b
ĠR oosevelt
Ġass ists
Ġ190 7
Ġcust om
Ġre pr
ĠA BC
ĠP ier
qu es
Ġfound ation
ĠLe x
Ġastr onom
d ale
ĠC ob
ĠRep resent
er r
ĠR h
Ã© e
Ġth orn
ĠHot el
ograph ical
Ġmanufact ure
ĠGil bert
ĠEduc ation
ĠF al
Ġadv oc
Ġv oy
ĠRock y
ĠExc ited
h l
im eter
Ġch ip
ĠR and
Ġel abor
ig ins
ro ph
ĠF ly
ĠFl ight
ig ger
as hes
if fe
Ġap artment
Ġshall ow
Ġal ignment
ĠK ansas
Ġ12 5
ul ating
ant e
Ġagric ultural
ĠL in
hel m
Ġprepar ation
Ġass isted
Ġperspect ive
b re
ĠC ro
Ġmin es
Ġneut ral
ĠP ed
ĠHel en
ĠA mb
Ġby pass
Ġcred its
e ing
Ë ľ
ĠK urt
Ġser ial
ĠB anks
ĠMississ ipp
âĤ¬ Ëľ
Ġcand ies
Ġpar ish
Ġbusiness es
Ġt ack
ĠB uzzy
Ġsur ge
ĠW es
Ġbel oved
ĠOl ive
S ince
m ph
ĠT ag
Ġgrand p
ĠBu ilding
Ġc iting
Ġcont ext
Ġche f
Ġbeh alf
mun ition
ĠN at
Ġb akery
Ġc ott
ĠMed al
ri ver
Ġamount s
Ġsandcast les
ĠAlex and
Ġspirit ual
b ishop
Ġsub mitted
ĠPort land
Ġpercent age
ĠO sc
Ġsit uated
ĠMike y
ĠIndust ry
m ont
Ġres olution
Ġ16 4
ĠAre a
Ġscient ist
Ġcanc elled
in ted
ĠA R
res ents
pe are
Ġdoc uments
ĠM uch
Ġ16 5
Ġscar ing
Ġpeaceful ly
Ġflight s
ĠAd v
Ġfirm ly
Ġport ra
ĠÃ Ĩ
ĠM ov
?" ,
Ġfun eral
ens ions
itc hell
Ġhesit ated
Ġethn ic
Ġdeli ber
ĠB ert
Ġwh ilst
Ġob vious
Ġneighb ours
Ġgir affes
ĠEn joy
ĠGood bye
Ġd ots
ĠMin t
ĠWalk er
ĠBl ues
ĠA st
Ġpr on
Ġsur gery
Ġvo iced
Ġread ers
Ġent ertainment
onym ous
Ġmeet ings
Ġun e
Ġsusp ended
Ġcollabor ation
ĠH ong
Ġ188 0
Ġdefin itely
Ġt igers
Ġrep resents
Ġgrand son
ine a
umb ling
ĠCamp bell
Ġdemonstr ated
Ġexpl aining
Ġattend ance
ĠInter state
ĠPear l
ĠCl ar
ĠOl ivia
Ġme als
Ġjun ction
Ġexpl an
ĠHind u
Ġcal med
Ġsm arter
Ġfil ed
Ġdiscuss ion
Ġsa v
ugg les
tern al
ĠL ith
Ġteacher s
Ġfarm ers
Ġbump s
ĠF re
ĠV el
Ġtick led
v ity
x ual
ĠH u
ĠH uman
Ġrebu ilt
Ġcomp ilation
Ġpupp et
ĠY ears
ĠRob by
Ġaud iences
ĠM un
Ġam munition
Ġte ased
Ġsquare s
ĠBel le
Ġimper ial
Ġjud ges
Ġcan s
Ġ0 4
Ġmark ing
ĠSp e
l ah
Ġcontro ls
Ġcirc uit
Ġmagn ets
z es
ĠT hing
ĠD iv
Ġkn ocks
al og
ĠG rey
Ġdev ast
Ġ36 0
ĠTenn es
v o
ĠB ab
ĠA ff
Ġseas hell
iss a
t uce
Ġab ol
Ġhyp ot
ĠK al
ĠK ings
ĠAb i
Ġlie utenant
id el
Ġfun ctions
ord ers
Ġfavor able
ĠJust in
Ġcor por
Ġalco hol
is p
un ction
ĠEgypt ian
Ġhesit ant
pl ed
Ġoper ational
Ġaff air
ĠV I
Ġass ess
i at
ĠN ash
ĠO ri
ĠShakes peare
Ġdep ending
Ġweep ing
Ġrec ipe
ĠMississipp i
re r
re ted
Ġf ulf
Ġc ro
Ġg ems
et he
ant ha
Ġregister ed
Ġpark s
ĠConn ect
Ġhis sed
ĠN ative
od ore
Ġrec ur
ĠHall ow
Gra ndma
W h
ĠP ad
ĠR at
ĠMont real
ec raft
Ġ190 6
Ġstro ke
Ġaff airs
he e
Ġover t
Ġcompet ing
Ġaff ili
Ġtempor arily
it ated
uc y
Ġrest oration
ĠMan hattan
ĠLouis iana
Ġobl ig
Ġfal se
Ġpro l
Ġsympt oms
ĠM ack
Ġd arling
Ġfl apping
Th ose
ĠSc out
ĠGr anny
Ġcere mon
Ġdemand s
Ġres idence
ĠL am
ĠAd minist
? '
ĠF ried
Ġhall way
ri x
f ace
ĠP ink
ĠSp ir
Ġsequ ences
Ġopport un
Ġsect or
F ine
T wo
Ġbeh aved
Ġmerch ant
Ġsign ature
Ġ0 1
ĠPal est
ĠHal o
Ġtri bes
Ġwra pping
er ts
Ġsob bed
ĠTennes see
Ġ *
Ġg ang
ĠPe ace
Ġr it
ĠGra ham
Ġfore cast
Ġcy l
Ġbow ling
Ġres isted
ĠMissou ri
Ġdeep ly
Ġjo ins
ĠBe h
Ġart istic
Ġ187 0
Ġtail s
Ġpract ices
Ġ190 4
ol ve
Ġall iance
ĠWrest ling
Ġpr ime
Ġle ap
Ġfat al
ter ed
ĠG ate
ĠJen n
Ġgraceful ly
Ġw ink
ĠD est
Ġbus es
Ġcommun ication
ĠMet ro
ĠD w
oth y
ĠFil es
r acy
Ġcre ations
i ac
r ants
ĠW ard
r um
te enth
l ay
r im
ĠJ uan
Ġto uring
Ġpl acing
Ġsun g
Ġclown s
Ġjack ets
Ġconv ince
Ġlet tuce
Åĵ Come
ĠHistor ic
Ġdram atic
Ġrout ine
ĠLab our
ĠM es
Ġsw itched
ict ions
o f
a ft
Ġear ning
Ġwar mer
Ġl acked
ĠM itchell
ĠGu ide
ĠM abel
Ġcon sole
Ġret ail
Ġpat rol
ĠW ol
z ona
S P
ĠHe alth
Ġsword s
Ġst ab
and al
Ġsmall est
Ġeng agement
ĠG w
Ġcompar ison
ĠH oney
a way
Ġscar ves
Ã §
Ġd imens
Ġcolon ies
Ġw icket
Ġinhabit ants
Ġappreci ation
Ġconcent rated
l ock
Ġtal e
Ġsal ty
Ġlim its
y on
ĠR ico
ick ly
Ġfr ig
Ġrob ber
an ium
T A
in et
ĠIndepend ent
enc ing
Ġecho ed
Ġsa c
el lect
Ġpred omin
N ext
ĠCub a
ĠTur n
Ġowners hip
ĠTam il
Ġsevere ly
Ġremn ants
h u
ĠS ony
atter ed
Ġdirect ors
Ġdoub t
Ġsto pping
Ġbr onze
Ġtouc hes
ĠPh oen
ĠPhilipp ines
Ġsp at
Ġflo ors
Ġarg ues
ĠAri zona
ĠFar mer
U n
h ard
Ġm ental
ul ous
ĠP ret
ch oo
ĠM icro
Ġcry st
ĠInd ies
ĠTr acy
Ġcast ing
ĠCz ech
is d
Ġexc lud
iss ions
augh ters
t hel
Ġyour selves
ĠFro st
Ġstor age
ĠH aving
Ġjust ice
Ġseek er
Ġcover age
ĠPers ian
ĠHar vey
Ġdistinct ive
Ġbound ary
ĠMag ic
ĠHallow een
ks hire
anc ell
Ġadminist rative
Ġbom bs
Ġcamp s
ĠSn uggles
ĠEr n
r ome
ĠM ess
Ġru ining
Ġc am
ust y
ĠZ ip
spec ies
ĠP erry
ĠWar ren
ĠAth let
Ġ eth
ast ers
Ġpred icted
Ġcontrib utions
ag en
Ġha w
Ġrem arked
Ġgrand child
ate ur
Ġcharacter ized
is le
Ġclos est
Ġflutter ing
i ate
Ġpatient s
Ġvul ner
r ator
Ġlegisl ature
Ġran ks
Ġrestric ted
Ġt eles
Ġran ging
og a
ĠInit ially
Ġin land
Ġsatell ite
ĠSe ven
ĠT un
Ġide al
Ġcond em
ĠDep ression
Ġreun ited
Ġdy nam
Ġsn uck
Ġl un
sh ore
Ġacc eler
Ġuns ure
ĠS pl
Ġneed les
Ġcrew s
Ġw ishing
Ġ0 3
Ġsl aves
Ġvi br
Ġscore s
Ġinstit utions
Ġcream y
ĠTo ky
ĠCir c
ĠProg ram
itzer land
s k
Ġab und
Ġto nn
Ġfl ank
ĠBure au
c ru
Ġrepeated ly
r ating
or ph
Ġgen etic
Ġmane u
Ġspo ken
Ġencount er
Ġlung s
C C
Ġcons ervative
ru ption
Ġcupc akes
Ġexhibit ion
lah oma
Ġt apped
ĠFr iday
Ġev olved
ĠAb bey
Ġelect ron
p it
Ġsn atched
Ġ17 4
Ġappl ication
Ġhousehold s
Ġsy nd
Ġnorth ward
Ġ11 5
Ġpri est
Ġshr inking
Ġmilit ia
Ġf ra
Ġpe aking
Ġpupp ies
ĠMur phy
Ġdistingu ished
g ate
Ġstro ked
ĠR av
Ġsit uations
Ġp airs
Ġlight ing
Ġra ind
Ġcoin c
ĠBroad way
Ġre app
os a
iet ies
Ġdisc ipl
Ġflag ship
Ġneare st
ĠK yle
Ġbed time
Ġgrass y
Ġille gal
ĠL ia
erp iece
Ġchallen ges
ĠKn ow
ĠOrigin al
Ġannounce ment
er g
id ency
Ġarri ves
Ġrain co
Ġcinem a
Ġimag ining
Ġarm ored
Ġdomin ant
Ġorchest ra
act s
Ġsub species
Ġd ip
Ġopin ions
Sh h
Ġrecr uit
ĠB i
ĠE P
Ġatt ained
Ġfew er
Ġpen n
ĠSw itzerland
Ġrust y
at ics
Ġarm ament
ĠPri or
ĠLes lie
Ġd aring
Ġout l
ĠN on
ect s
Ġwip es
ĠS at
ĠSt ri
h r
Ġaut obi
sequ ently
ĠLith uan
is en
Ġthunder storm
f olk
Ġappro aching
Ġcircum stances
b ut
ĠDig ital
Ġart icles
Ġobt ain
Ġag ency
Ġ190 1
Ġplayoff s
Ġpredecess or
H is
Ġchar ity
Ġbow s
Ġslow ed
ÅĵYou Ã¢
h ous
Ġcar riers
Ġc ock
ad ers
Ġconf usion
Ġ15 5
Ġw ounds
Ġall ies
ĠP ast
ĠR ace
Ġpath s
ic ut
Ġsmil ey
Ġexc av
ĠAust rian
Ġbul k
Ġphilos ophy
Ġvert ical
Ġyell s
ĠAr nold
G reat
ĠK enn
Åĵ Do
Ġwest ward
ĠB inky
Ġor naments
Ġhid er
Ġstrengthen ed
ĠN ik
Ġg onna
Ġint ellect
Ġrest rict
Ġ190 2
r ist
Ġt ying
et on
Ġy ielded
Ġscrat ches
Ġpr ices
Ġincre ases
Ġphen omen
n ered
Ġ Ä
ion a
over ed
Ġag es
Ġdrug s
ĠW o
Ġrep roduc
Ġrul ing
Ġv s
ang le
Ġper ceived
Ġmin i
ĠOr ange
Ġpup ils
ĠP ow
Ġarm our
ĠOk lahoma
b i
ĠWor ks
Ġscr ubbed
ĠOsc ar
ut ers
ĠY ellow
Ġ10 1
ĠC ur
Ġsp ikes
Ġadd s
Ġbreat hing
Ġproceed ed
Ġmed als
Ġ190 3
c oon
ĠS i
ĠR idge
m ath
Ġ Å
ĠS ullivan
Ġdo ck
ĠM aur
Ġconcent ration
Ġp orts
Ġgo ver
ĠKir k
we ed
Ġbi ographer
Ġre ject
ĠA ra
ĠO nt
ĠS uch
Ġaud ition
b al
Ġgra ve
Ġconf ron
ĠDen mark
ar ant
ar row
Ġr ays
Ġaltern ate
Ġsculpt ure
Ġh ind
Ġgrab bing
ĠFeder ation
Ġposs ess
Ġlean ing
Ġsimultane ously
ry ing
ap olis
Ġcompan ion
Ġfant astic
T ime
ot ted
est yle
asc ar
ig s
Ġguitar ist
ĠCh and
Ġcre st
Ġcivil ian
Ġin qu
Ġpan el
ĠT ree
Ġl anes
Ġp ul
Ġwh ales
ĠN ag
Ġaut umn
Ġhands ome
ĠZ o
ĠWil helm
Ġcons cious
Ġmob ile
A R
j an
ĠSt u
Ġtri ple
Ġcong rat
ĠConfeder ate
ĠU E
Ġport ions
Ġsusp ic
Ġty phoon
ĠM aj
ĠF em
Ġdefin ition
Ġsimilar ly
ĠBirth day
m all
im en
ĠB aker
Åĵ Hi
ĠTer rit
Ġris ks
ĠDel aware
Ġr umble
ĠF ather
Ġret ain
Ġhand led
og ram
Ġarm ies
ch y
el and
ĠC hel
Ġinc omp
es h
um a
Ġcann on
ĠKe ith
ber ry
Ġbl ind
c ott
Ġrec onnaissance
Ġsing ers
ĠPer form
ĠToky o
ot ions
immer ing
Ġst ress
up iter
Ġbat talions
Ġdiscover s
Ġinstit ution
Ġsh ipping
Ġgrandp arents
est y
Ġext end
Ġ16 8
ĠRail road
Ġess ential
A C
Ġre venue
ĠD S
Ġsol ar
Ġexpl oration
ĠPri ze
u ki
ĠA na
ĠP il
ĠSam antha
Ġtree house
Ġheal ing
Ġathlet es
ĠWend y
E w
L ucy
st ick
ard o
est one
Åĵ Wow
Ġmill imet
ĠBase ball
Ġon ward
ph a
Ġperson ally
Ġpurs ue
Ġe ld
ĠL ost
Ġwr ink
Ġenl isted
op sy
Ġcudd ly
ĠBus iness
b ot
Ġwouldn Ã¢
Ġd ump
ĠH ad
Ġang le
Ġbon us
er m
Ġsacri f
Ġdoll house
ĠJan ie
Ġp ion
ming ham
Ġmain land
Ġbomb ing
Ġappropri ate
ter y
Ġmess ages
Ġcorrect ly
Ġpass ion
Ġon ions
ĠG or
Ġdem oc
Ġfr ust
ĠF lying
Ġmin ing
T W
ĠF at
ĠAtl anta
Ġconnect ing
Ġdemol ished
s a
ĠW ag
Ġcolor ing
Ġem pire
Ġnest s
r ors
st and
ĠN ad
uck er
ĠJack y
ĠPitt s
ĠYanke es
Ġr if
Ġst ool
Ġacc laim
Ä ģ
Ġwon Ã¢
ĠSad ie
ar ation
ĠMe gan
Ġprop ag
Ġimprove ments
ĠMad ag
Ġp ans
ĠK iki
ord inary
Ġche fs
ĠIntern et
ri ors
Ġmarket ing
Ġcanc el
Ġsprink led
Ġch op
h ist
Ġrun ner
Ġdecor ating
ĠD in
ĠE va
Ġstar ring
ĠN ature
Ġto dd
qu et
ĠEd wards
Ġdef ending
Ġtour s
ĠJ ere
ĠP erson
Ġcomp ens
Ġcount ies
ĠB ark
ĠCon struction
Ġtr amp
Ġart ific
ĠAm elia
Ġprote in
Ġcontin u
Ġrequire s
ĠWay ne
ĠN ixon
ĠHud son
Ġm aps
Ġbl ues
Ġp unk
ĠJ upiter
ĠM ason
od ox
Ġexper iments
Ġcras hing
c er
Ġob st
Ġbell s
h and
Ġs inking
ac re
Ġdu o
it als
Ġhedge hog
Ġcler k
ĠRi hanna
Ġmet er
Ġ16 6
ĠA maz
Ġcl ip
Ġ10 9
Ġagg reg
Ġ0 2
N e
L C
Ġre ly
ĠK ra
ĠV is
Ġlift ing
Ġren ov
Ġf est
ĠP le
Ġacc um
Ġintrig ued
Ġch a
ĠTh under
Ġs q
Ġdissip ated
ist a
Ġdon ated
Ġbe ats
ĠPhoen ix
ĠS ty
st an
Ġoverse as
Ġconf ront
ult an
Ġconsider ing
ĠB ooks
Ġsk i
E C
ĠSe an
Ġalter ed
ĠEnter prise
v ous
ter bury
Ġorgan isation
ĠC ass
ĠOb ama
ĠSpir it
ĠOnt ario
t ions
ĠM ake
ĠRec ord
Ġrefres hing
ĠWr iting
ĠK u
Ġac ou
Ġprof ile
Ġobserv ations
ĠL ang
Ġk W
Ġdo d
Ġsur pass
Ġgrad uated
Ġagg ressive
ĠRight s
Ġacknowled ged
Ġr opes
Ġobject ive
p ent
Ġhigh ways
h aw
re ation
Ġdeter ior
Ġindic ating
Ġremember ing
Ġdef ences
Ġst ung
Ġcl ick
l on
Ġeng age
ĠM ust
ens ively
ĠMadag ascar
Ġconvers ion
Ġvoy age
Ġne ur
Ġsc en
Ġnight s
Ġopportun ities
ĠS em
Ġsp onge
ĠCh uck
Ġfair ly
Ġchap el
ĠR iley
ĠBo x
Ġsett lers
Ġven ue
t es
Ġf aded
ĠIr an
Ġtransform ed
ĠMcCart ney
ĠS id
Ġfin s
rat ropical
Ġhost s
Ġelev ation
im m
ĠC urt
Ġsecret ary
Ġquarter back
m n
Ġf antasy
ren cy
Ġeduc ational
ĠG oth
ĠG ina
Ġpe ppers
b ly
Ġto pped
ou ver
ĠCh a
ĠConnect icut
ĠAll ies
Ġpray ing
ĠB uc
Ġqu e
ĠPr uss
Ġaer ial
Ġident ify
Ġscrew d
Ġtipto ed
ĠSque aky
Ġe rected
Ġhelp ers
ĠBr ig
Ġcor al
Ġnumber ed
Ġprof it
Ġlo ses
ĠC hen
ĠFurther more
Ġslam med
Ġpat ron
ĠOut standing
Ġtr ough
ĠCan terbury
Ġcons pir
Ġant h
ĠUnivers al
Ġraid s
pl aced
Ġo h
Ġpubl ishing
Ġcolle agues
Ġcomp ound
ĠGirl s
Ġraind rops
Ġcott age
ĠH ugh
Ġste ad
ĠBos n
ĠMc M
ĠT ro
Ġorigin ated
Ġguard s
Ġcampaign s
Ġpe as
Ġtur ret
Ġexplore r
Ġlab els
Ġrem oval
Ġexec ution
1 0
ig hing
ĠL ess
Ġjur isd
Ġfor ks
Ġgu arant
Ġext ratropical
ĠMountain s
Ġarrang ements
he ars
Ġsh ift
Ġcom ed
Ġevac uated
Ġgl ac
ĠSp art
ĠBoy s
Ġstom ped
Ġthirt een
ci ples
ĠDri ve
anc ouver
Ġequ ally
ugu ese
Ġor igins
Ġwip ing
Ġmere ly
H ave
Ġfound ing
Ġstation ed
ĠDef ence
Ġiniti ated
ĠM am
Ġbath s
Ġunp acked
ĠM ans
ĠC aval
Ġch ampions
Ġphra se
ĠP ir
ĠMor rison
R o
ar ry
as ked
Ġweek ly
Ġb ubb
ĠL em
Ġwind y
Ġwaters hed
Ġno ses
ĠIs a
ĠComm unity
ĠBern ard
ĠBir mingham
ĠM ouse
ĠDe ep
Ġdream t
Ġl es
Ġhope ful
Ġqual ified
Ġdeb t
ĠPort uguese
ĠM ond
ipp y
Ġmark ets
Ġble nd
Ġtw e
Ġestabl ishing
m und
ĠC elt
ĠEd in
ĠRob in
Ġ âĤ
Ġrebell ion
Åĵ My
Ġvan illa
Ġtheat rical
Ġac he
ĠPol it
Ġlif etime
Ġd read
Ġon going
Ġre ct
ĠD iam
ĠP y
so ft
Ġatt ending
Ġsail boat
Ġ17 3
Ġ15 2
ĠSy mph
S everal
Ġr otten
ĠB ath
Ġed ited
a a
ĠT rophy
Ġg ates
se ason
Ġal iens
ĠD all
Ġgarden er
Ġpige ons
ĠM ik
ĠSo f
Ġwater fall
ĠG ib
ĠMad die
enn ium
ĠWind ows
Ġstrateg ic
Ġf its
Ġtrail er
ĠV ancouver
s ki
Ġd aughters
ĠAsh ley
Ġvir us
Ġscrewd river
O T
ĠT iger
Ġl imes
ag ger
Ġimprove ment
M ost
Ġj ury
ant on
Ġreal izes
Ġbas in
Ġinn oc
Ġsl ices
act ions
Ġmat ure
Ġpoin ty
Ġtrou bles
Ġr ig
Ġunder water
Ġbattle cru
ĠAf g
Ġlow ered
ĠPak istan
od s
Ġret rie
ĠMar ge
ĠSc ar
Ġt il
vent h
Ġreveal ing
Ġhypot hes
ug s
ĠCh ick
Ġnin et
ĠN ine
Ġpublic ations
Ġvol umes
or ia
Ġ186 0
Ġse ized
Ġsuperhero es
loy d
M any
Ġto x
Ġphotograph s
Ġpart ial
Ġloyal ty
Ġscrew s
Ġrust ling
all ing
Ġcomp ounds
Ġsqu ish
Ġpot ion
Ġmagic ian
Ġtramp oline
Ġd ubbed
ĠD ou
Ġmembers hip
ĠOffic er
r ine
it ively
ĠCh ampion
ĠBlue y
Ġlift s
Ġfort ress
ĠTri ple
Ġbear ing
Ġ10 4
Ġ189 3
ĠBess ie
w a
Ġwa dd
Ġbl amed
Ġter rain
s ky
Ġexp osure
Ġadv ised
Ġdisplay s
Ġspec imen
ĠPe pper
Ġdens ity
ĠB uff
Ġsnow men
Ġpar ody
Ġfoss il
ĠNapole on
Ġpers ons
ĠMos c
Ġwithdraw al
Y ummy
Ġp outed
Ġdrum mer
Ġinterpret ation
Ġmunicip al
Ġm al
Ġfour teen
Ġgob bled
Ġl ent
ĠB ubb
Ġas sembly
Ġ189 6
ĠEdin burgh
ĠN ation
Ġgrow ls
Ġam id
me al
Ġann ually
Ġadvert ising
Ġbl own
Don ald
ĠRes erve
ĠA irl
Ġfe ared
ĠNC AA
ist oc
Ġran ges
Ġsnow fl
ĠOw en
Ġwob bled
M ary
Ġprov ision
Ġflav ors
Ġavo ided
ĠBrad man
Ġbit ing
ĠT on
ĠAl ask
Ġcor ps
ĠHawai i
ĠDw ight
ĠAnd re
be at
ĠS ig
Ġspark s
ĠC ost
Ġjud g
ĠCamp aign
s he
ĠT NA
un ning
ĠG riff
ĠCh ampions
Me ow
Ġconvent ional
S ur
Ġp uff
Ġso fter
Ġoff ense
Ġprom otional
Ġex ter
Ġcr uc
Sam my
ĠVill age
Ġg aining
ĠD om
Ġemph asis
c ient
ie ve
Ġcurious ly
Ġb acter
Ġan ime
Ġassemb led
B l
se mble
ĠK o
ĠCr icket
igen ous
ĠAfg han
Ġextra ordinary
g i
h op
Ġreg ime
Ġforget ting
Ġo ptions
Ġball ad
Ġste ering
Ġgar bage
Ġwa kes
ĠW igg
Ġmag nit
Ġrob ots
Ġshif ted
Ġ35 0
Ä į
Ġimpro ving
ĠOut side
Ġconduct or
Ġfail ing
ĠP ubl
ĠN AS
Ġsoft ware
Ġhum or
Ġsix teen
ot yp
ĠP ars
ĠBo at
ĠPot ter
S A
Ġne p
ĠR ic
ad ier
ĠDemoc rats
Ġsl ave
Ġident ical
Ġch ore
Ġexperiment al
bro ken
Ġm ic
at ra
ham mad
Ġportray al
id ae
Ġbr u
Ġce ased
ã ĥ
ĠL as
ric anes
Ġprovin cial
Ġ189 8
ĠCon vention
play er
Ġc ad
ĠBrother s
Ġout put
if ies
Ġ17 2
ĠHo ot
ĠCra ig
ot al
ĠMar vel
Ġindic ates
ĠHamp shire
Ġunderw ent
Ġhaw k
f ect
ell i
Ġrepresent atives
Ġprison er
ĠYor kshire
Ġdemand ing
elt a
ĠKat y
ĠZo ey
it is
Ġleg it
Ġgrand d
ĠMil es
ĠChron icle
ut ely
ĠHar old
Ġev al
Ġsent ence
Ġuncle ar
Ġbeat en
Ġsl a
ĠBl u
ĠBe aut
Ġneat ly
Ġachieve ment
ĠC hes
Ġdr owned
Ġemploy ment
Ġnomin ations
ĠVictor ian
ĠAdminist ration
gr ad
Ġimag ery
Ġhyd rogen
Ġstra nd
ĠGl en
O S
Ġp ens
ri k
ĠFred die
ĠJun ior
Ġgal ax
Ġj er
Ġ12 7
Ġbreat hed
ĠB omb
os ing
Ġsw ans
Ġwin ners
au x
Ġsuit s
reg ation
c row
ĠW ii
Ġhop s
ĠDe b
Ġex ternal
Ġafter math
ĠAb d
gu ard
Ġliber al
Ġbit s
Ġste re
Ġref use
Ġrac coon
Ġconqu ered
ma id
ĠSp ider
Ġpra ising
ĠArgent ina
Ã º
Ġd uration
Ġcomment ary
Ġc ens
Ġrepe ating
ĠFore ign
Ġpec ked
ĠFight ing
- -
t own
ĠJ ama
ĠZ ara
ĠCy cl
Ġexclus ive
J ane
ook ie
Ġten ure
Ġ189 9
an ia
ĠL loyd
O ops
Ġred es
ore t
ens ed
Ġdev ices
ĠCrit ics
hy l
Be fore
Ġaccompany ing
ĠM ission
Ġdis band
Ġcold er
Ġres olved
ĠPat ch
Ġtransp orted
Ġwor ship
c ar
ra wn
ce eds
Ġcl ues
ĠSt ay
Ġwrest ling
ĠBeh ind
g ro
ĠS ak
ers ed
Ġacou stic
ĠFin land
Ġmechan ical
Ġd im
Ġsp ac
Ġwar rior
iet h
Ġdec ay
Ġdevelop ers
ĠChristian ity
ĠT ol
Ġexclus ively
n i
ch anged
Ġproduct ions
ĠCol in
ĠQueens land
c ht
ĠF reed
Ġcontrib ution
G eor
Ġtransl ation
ĠColl ins
Ġf ate
Ġchar ter
Ġplatform s
ell ation
Ġcons ervation
ĠCl ay
Ġ16 9
ĠBel gian
Ġreduc ing
Ġmast erpiece
ass ador
Ġimpress ion
Ġp el
Ġdad s
ĠJan et
ethe less
Ġ11 1
Ġban ned
ĠM ong
Ġforget s
ĠHe y
e qu
Ġcons istent
Ġcent ers
ĠHal f
Ġreinforce ments
ĠL at
ĠC atherine
ĠG ard
Ġco d
Ġpay s
Ġang els
Ġprecip itation
el ope
h um
Ġre nd
Ġ10 8
Ġno ble
Ġdress ing
Ġmin ts
Ġunl ik
Ġsla very
ĠT it
ĠC row
ĠZ e
ĠTur ner
ĠUE FA
Ġflow s
Ġpen et
Ġ185 0
Jen ny
it udes
ĠPri x
Ġintersect s
on ium
Ġpark ing
Ġduck ling
Ġvar ied
Ġd war
Ġcomp onents
p ike
ĠS et
Ġbr ig
Ġrainco at
ĠHer itage
R ex
Ġd ived
ĠC rab
Ġdis ob
Ġgovern ments
Ġreview ed
Ġelect rical
ĠTra il
Ġst reak
Ġsl ips
ĠCommun ist
ig ible
ĠH av
Ġat op
Ġsus pect
ĠLiber al
Ġsam ples
Ġswall owed
am bers
ch a
and om
d les
Ġp ier
Ġm oo
Ġcount erp
Ġobser ving
Ġtax es
ĠR angers
ĠSw ift
Ġsunfl owers
ĠHard y
r ates
ric ts
Ġdisturb ance
ĠL t
Ġob sc
Ġrespect ive
Ġconnect ions
sec ution
Ġgr at
Ġcomp onent
ĠDave y
ĠB ald
ĠDon ald
Ġprofess ion
Ġfrequ ency
Ġdecor ation
rit ers
Ġbelt s
Ġprett ier
i ar
ĠWo nder
str ong
ĠOs lo
Ä ĥ
ut ive
Ġsuccess ion
ĠNor folk
Ġartific ial
Ġus ers
ĠPlay ers
ĠProt est
A d
ĠS alt
ĠH az
u ating
Ġcompl icated
Ġtriang les
ĠBeck y
ĠSax on
io let
Ġex ists
Ġcon ceived
Ġrad iation
Ġins ist
form ation
Ġd ict
Ġre j
Ġtext s
Ġsongwr iter
Ġspoon ful
Ġst roll
Ġman s
Ġ16 3
Al ice
Ġarchitect ural
Ġcompliment ed
Ġto ured
ang el
Ġres erv
Ġadd ressed
Ġwra ps
Ġvot ing
ĠM ix
Ġret ro
Ġhat ch
Ġrefer ring
Ġgross ing
Ġrec ip
Ġrequire ments
Ġperform ers
ĠT ype
Ġhe ir
es ter
ĠProfess or
Ġteles cope
Ġpress es
Ġ189 7
Ġexplan ation
o ving
Ġis ot
Ġsp y
ĠE ug
ĠBr ight
Ġpolit ely
st ance
ĠN atural
Ġdes igning
Ġtable t
Ġdestroy er
Ġsam ple
ĠVin cent
ĠDiam ond
Ġstri kes
ĠNichol as
E very
aut ical
Ġair field
Ġdistur bing
ĠL ock
ail s
Ġtact ics
Ġnep hew
Ġe cc
ĠBe a
Ġsurv ival
Ġreduc tion
h ow
Ġcontin uous
Ġsea weed
ĠMosc ow
Ġlast ing
m aster
Ġrec overy
Ġconstitution al
Ġl akes
Ġso ph
Ġconsid ers
ĠBurt on
Ġs ou
ĠM alt
Ġfight s
Ġhy br
Ġrel atives
Ġat omic
ĠR an
ach ute
Ġz ipping
Ġ15 4
ĠT ry
Ġpan icked
Ġboil ers
Ġatt orney
ĠB ach
Ġinvest ment
ĠSw iss
Ġadvert is
n ik
ĠA x
ĠJ TW
ĠBen nett
ĠBur n
ĠJTW C
Ġf er
Ġrain y
Ġple aded
Ġr ider
Ġqu ad
Ġam ateur
ren e
app er
Ġcons ult
Ro ar
M I
Ġfor ts
Ġhar bour
Ġcommand ing
A my
Ġd ying
ĠBut ter
ĠâĢ ¦
Ġcomp romise
ĠAnton io
f eld
it arian
en ess
ĠF ido
Ġwater ing
Ġvill ain
Ġcond uc
ĠPitts burgh
am ount
ĠHar vard
ĠSof ia
ĠM ove
Ġinf ra
Ġ10 6
medi ately
Ġmarsh mall
O ur
ĠM ina
Ġgl ued
Ġcons ul
Ġstat ues
Ġunlik ely
ĠH ob
Ġre organ
Ġspell s
e an
ĠR oom
Ġrel ocated
ĠMay or
ĠM and
Ġman ga
Ġrev ised
Ġcommun ist
Ġlegisl ative
Ġtonn es
Ġn autical
ĠF und
ĠA ar
Ġdoor way
Ġphot ography
ĠÃĨ thel
ĠG ene
uss ion
ĠHug hes
h ill
oo king
Ġsc amp
ĠO pp
Ġdisc ou
Ġprot ests
Ġ16 7
Ġsum mit
ĠN i
Ġinst antly
ĠPet ers
ĠMag n
ĠJenn ifer
Ġm erc
ĠSy ria
Ġminor ity
ĠE th
Ġdes p
ĠDav ies
Ġzebra s
ĠDar win
ĠChel sea
g om
Ġext ending
Ġhunt ers
u y
Ġgirl friend
Ġacc ord
ĠMed ical
ĠPret ty
ĠAlask a
g ra
Ġconstruc t
ĠTra ining
n ought
Ġst acked
ill es
Ġvent ure
ĠCamer on
Ġf ishes
Ġsh aft
ug al
ĠY e
Ġprogram ming
Ġcomm enced
Ġpract ical
Ġash ore
c ially
Ġw oof
Ġr ats
Ġso vere
Ġfe e
Ġexpl icit
Ġdis char
Ġem otion
ĠSte el
Ġbuzz ed
Ġl aps
ĠW is
Ġstar fish
olog ies
Ġbul ly
Ġge ese
Ġre hears
oc y
Ġvict im
ĠAng l
ro e
Ġdisapp ointment
ĠAust in
min ster
Ġtodd ler
Ġmagnit ude
ĠD enn
Ġbound aries
Ġaccur ate
Ġn it
Ġsp ices
ey er
Ġinf ection
Ġign oring
Ġsnugg le
Ġwithd rawn
Ġtransl ated
ĠA po
Ġcommand ers
ing e
ĠG ot
Ġrein forced
ĠIndones ia
l ow
Ġ id
Ġadm iration
Ġrele asing
ĠHon or
I V
ĠW oman
ĠK ane
ĠSh ak
Ġext inct
Ġanticip ation
Ġtrad itions
Ġrev olt
Jo e
ĠMicro soft
S ue
is ive
Ġab use
Ġdis placed
Ġmar ine
Ġprovin ces
ĠPicture s
ĠE sc
Ġman aging
Ġcharacter istic
Ġf ame
Ġcollect ions
ĠJeff erson
Ġco ordin
Ġhand ing
Ġinterp reted
Ġcul min
ĠF u
Ġcon ven
ĠU sing
Ġair ing
Ġrad ical
Ġrival ry
Ġl ava
ĠHow e
enes is
Ġmesmer ized
b acks
Ġc oug
ut o
Ġen force
ff ield
Ġesc ort
ades h
ĠBry an
m el
ect or
ĠIsrael i
Ġpl ucked
get ic
Ġprin ciples
Ġabs ent
Ġp onies
ic ial
ĠR P
Ġeff icient
onom y
Ġoat meal
Ġst ain
ĠD y
ort ion
oc a
ĠSt ars
Ġappro aches
ĠH ir
ong o
Ġconfl icts
Ġk it
I S
ĠA ren
ig a
Ġcon ce
Ġhor ri
in ian
ĠL isten
ach ment
ect ive
ĠSimilar ly
ĠDall as
ĠL iving
Ġcur ve
Ġrepresent ation
Ġd ense
en ger
Ġv ig
Ġmulti player
Ġm erry
am an
Ġwar fare
ĠHar bor
Ġinterview s
Ar thur
Ġgrandd aughter
Ġch ron
ĠPo or
ĠHunt er
Ġgod s
Ġchoo sing
Ġvulner able
ay er
ĠB our
Ġshe ets
uit ars
ĠStu art
ot an
Jo h
E m
W oof
Ġm aker
Ġsh orts
em ma
ĠWall ace
b id
av ia
ĠU pper
Ġpet ition
Ġ189 5
ĠHer ald
ĠQu est
Ġpred ators
v ation
Ġsupp lement
Ġparticip ation
Ġgrad uate
S ally
ri en
ĠA mber
ĠRe bec
ĠSec urity
os y
Ġcycl ones
Ġpropos als
Ġscra ped
Ġf ert
Ġcomp uters
ĠOw l
Ġto ler
ar o
Ġmar vel
gin ning
Ġadmin ister
Ġk ills
Ġtransport ation
Ġencourag ement
ĠSqu irrel
ĠFall s
Ġg ro
ast ery
Ġpersu aded
ay an
Ġent ert
Ġinter vention
Ġr ows
ra ble
ĠK el
l ain
as a
Ġsn eezing
Ġed it
ĠR est
Ġcol um
Ġsal ary
Ġmaint aining
Ġhom eless
ĠR ab
iv ation
Ġroll er
ĠJere my
Ġa st
Ġjoy ful
Ġrecur ring
Ġcl ar
ĠSt ef
Ġbre ast
ĠDan ish
Ġreform s
Ġairl ine
ĠBubb a
Ġg rip
Ġsp are
Ġpr oof
ĠJud ge
it ate
Ġval id
ĠGe off
fl ies
ĠGreat est
or mer
ond e
O ther
ĠR ena
Ġcour ses
ĠSy l
ĠMat ilda
ĠQue bec
d s
ill o
Ġestim ates
ĠFour th
is ons
ĠA S
ud i
Ġhand ling
Ġexpl oded
Ġdist ricts
sc reen
Ġi P
W hee
ĠW ant
ĠD ak
ĠG uitar
Ġrem oving
ĠOver all
Ġjurisd iction
U pon
op ed
Ġnap kins
Ġsol ving
ĠSteven s
ĠRebec ca
B oo
ut ton
ĠCat hedral
l ad
Ġd iverse
ĠE mer
ĠDes ign
ĠDef ense
Ġsp ins
Ġhon ked
ĠPr im
ĠServ ices
Ġp m
ĠShe ffield
ĠSh aw
ĠAm anda
ĠEx ec
Ġwhisp ers
Ġrac ial
ĠTransport ation
B r
ĠA M
ĠMom ma
Ġspe eds
ĠSe ga
Ġthreat s
Ġspons ored
ĠAuthor ity
en g
ĠF BI
Ġvel oc
ĠOrigin ally
ĠCy rus
ĠC ase
Ġpop s
Ġcommun ications
w orm
ĠM ine
ĠGlob e
Ġre leg
Ġsur ve
ov a
le ans
ab ilities
Ġbat ted
Ġpresent ation
Ġtoss ed
T r
on ica
ĠM ae
Ġinc lusion
Ġtri be
Ġhe m
ĠJohn ston
Ġqual ifying
ĠMalays ia
ĠNe il
Ġthat Ã¢
Ġup coming
ov iÄĩ
ĠR io
ĠAg ency
ĠBrazil ian
ĠB ears
ĠAl ban
Ġer ror
ĠGu inea
onom ic
Ġg uitars
ĠL ist
ĠM S
Ġchar ted
Ġobs ervation
ĠGreat er
ĠBa a
y ears
ĠM all
Ġdiamond s
ĠPed ro
Ġse als
Åĵ But
Ġess entially
Ġpot entially
Ġmer ged
Ġtr igger
ĠTr ade
Ġcompet itions
ĠMad dy
ĠUt ah
Ġchallen ging
Ġex em
est on
ĠSt at
Ġred e
Ġcur ved
Åĵ Mom
Ġtri umph
Ġhar mon
ĠD ub
anc he
Ġdes cent
Ġneckl aces
ĠD aw
ĠLe v
Ġrece ives
ĠClar ke
Ġs ized
ĠT ai
ĠF iona
Ġca ution
Ġcr imes
Ġmind s
ĠF arm
ap le
le vard
ĠD isc
Ġch ronic
Ġsub d
ĠClass ic
ĠProv ince
Ġth ud
ĠP ick
Ġsk unk
ĠOr leans
Ġc u
Ġdem o
cast le
Ġrat io
ĠMcK in
ĠBuff alo
r ary
ĠH D
ose xual
Ġexam ining
Ġ188 9
r Ã©
Ġp ap
ĠA P
Ġfollow ers
Ġcons olid
Ġwob bly
o ly
at ers
ation ally
Ġcar ved
Ġke en
Ġsquad rons
ĠScient ology
g ence
Ġh oo
Ġappl ications
ĠEll en
ĠPier re
H en
Ġha ven
ming ly
B un
ĠC BS
Ġpost man
Ġplant ing
Ġdev oted
ĠPer cy
Ġrenew ed
iz er
Ġflow ing
Ġdra fted
Ġscreen play
Ġdeal ing
Ġcush ions
ĠR andy
Ġtremb led
Ġcolum ns
Ġs in
al ia
aid en
ĠPan zer
Ġexpect ing
Ġa ft
ash i
Ġ15 8
ĠCo al
ĠTur key
Ġseg ments
h art
Ġto aster
ĠW ally
ĠF ighter
Ġur anium
T ube
k le
Ġher itage
Ġ186 1
Ġreb els
omet ric
ĠK y
ĠFe eling
Ġquar ters
Ġpost s
ĠArm strong
Ġgest ure
Ġproport ion
Ġthe ories
Ġ16 2
Ġ11 3
Ġalt itude
s burg
Ġt ension
Ġpar as
Ġemb arked
ĠAm endment
Ġscre ens
Ġ189 4
Ġuniform s
Ġimplement ed
ac o
Ġ10 2
Ġintroduc ing
Ġg ender
Ġsell er
b ank
v or
Ġt ipped
ĠP rop
ĠRepublic ans
Ġcivil ians
Ġcust omer
Ġpregn ant
Ġd ual
ĠP rom
Ġsomet ime
land ers
ugg ing
ĠX II
Ġaccommod ate
Ġwadd led
ĠL yn
ere r
w right
ol s
ĠCh ile
Ġwar s
Ġnervous ly
Ġ189 1
Åĵ Well
Ġinter cept
Ġrequ iring
ĠNe v
ss on
Ġwr igg
Ġ17 1
Ġfund ed
ĠU l
Ġev ident
Ġam ph
ĠPl ant
ĠMu hammad
Ġapp ly
Ġel f
ĠWell s
Ġdivor ce
ĠMc L
Ġsle e
ident s
AT O
Ġcateg ories
Geor ge
ĠA ctor
Ġinter medi
Ġsimilar ities
ĠConstant in
ort on
ĠSo x
Ġg ri
ol o
ĠLe af
Ġprocess es
Ġsoutheast ern
Ġr ivals
Ġ100 0
ĠS ac
ons in
Ġ18 00
Ġspe aker
Ġsignific ance
Ġreact ions
Ġagric ulture
am pton
ĠK id
Ġ15 6
ĠH oo
ĠB ible
Ġbur nt
Ġsmo king
ĠCarl os
d i
ĠC hester
ĠâĤ ¹
ģ Ħ
Ġha ird
ĠB ud
ĠD ale
Ġ189 2
Ġwrit ings
ĠSerb ian
Ġl ending
on ian
ĠKen ny
Ġori ented
step s
ĠSymph ony
ĠS ide
ĠC ad
Ġexam ination
ĠYou Tube
Ġwigg le
Ġvisit or
Ġoper ates
Ġsent enced
ĠReg ister
v as
ĠS oul
ag h
Ġsupp orts
Ġfox es
ĠFle ming
Ġcomment ing
oc ation
Ġfo nd
Ġass um
Ġresear chers
ĠThing s
Ġt u
ĠT aking
ĠF uzzy
Ġman ip
Ġdiscover ies
b orn
Ã «
ir y
ro x
O C
Ġcon j
here nt
c ore
ĠI van
Ġout come
ĠN athan
ink le
Ġ13 5
ĠIndones ian
Ġdiplom atic
Ġfar ms
ĠBr ooks
col m
ad i
ĠD uck
Ġdec iding
Ġen abled
Ġpray ers
Ġthreat ening
ĠFrost y
ĠM end
ĠW elcome
Ġele ctor
Ġstruct ural
M usic
Ġt ighter
Ġwe pt
Ġext ensively
Ġadv ancing
ĠRich mond
Ġhighlight ed
in is
Ġp and
ĠP ap
Ġâ ģĦ
Ġfiref ighter
ĠH om
isc onsin
rac ting
Ġpl um
Ġpro s
ĠCaval ry
ĠThat Ã¢
Ġdraw ers
Ġteam mate
Ġmyth ology
usal em
Ġinfra structure
ĠG ay
Ġinter action
Ġcirc ular
ĠRos a
Ġd ivers
ows ki
ĠBur ns
Ġprinc iple
ĠF ern
Ġman if
Ġdress er
Ġbenef its
ĠF ull
ĠOr chest
ĠGall ery
Ġclean er
ĠT una
her ic
ĠFl opsy
Ġloc ks
ĠMon ster
Ġpurs uit
ag les
Ġquarrel ing
Ġdecre ase
br is
Ġ12 1
Ġheart broken
Ġfact s
Ġr owed
ĠW alt
Ġmor ph
Ġloc ally
Ġavoc ados
Ġeduc ated
Ġabsol utely
Ġle apt
Ġinvol ves
Ġphys ics
Ġsusp ected
ĠCard iff
Ġvolunt eers
T S
ĠT oy
Ġr ib
Ġfrown ing
c at
Ġstate ments
ĠMet ropolitan
Ġconstit u
ĠAirl ines
oc al
Ġsub stitute
ĠEd ition
Ġcor rid
Ġtradition ally
ĠJer usalem
An other
ĠBarb ara
or se
ĠN ord
Ġinter ven
c on
r ous
ip h
oun sel
ĠSh ip
Ġ15 3
Ġboard s
v ised
ĠS kin
Ġin ning
Ġtr acked
Ġtem pt
Ġdecre ased
Ġtot ally
ip her
Ġsettle ments
Ġsup ern
ĠS ultan
ĠB uck
Ġgo dd
th odox
cel and
al ing
Ġplay time
ĠP S
Ġgar nered
ru ited
Ġdocument ed
ĠLoc al
ĠK am
ĠCh ad
Ġunivers al
Ġweaken ing
Ġvar iation
ĠCarol ine
he nt
ĠW oo
Åĵ Where
ĠConstant ine
g s
am ental
Ġloo ps
Ġdis order
ĠGr ade
Ġcommer cially
Ġ24 0
wor ld
Ġadop t
i h
us c
ĠSatur n
il ia
an na
ĠI z
ĠA A
Ġsail s
Ġbehav ing
ĠEv il
ĠRog ers
Ġrec ruited
Ġbelie fs
Ġfiref ly
ancell or
Ġpenn ies
Ġt asked
in ating
ide y
ab e
Ġd imin
ĠHe arts
Ġover head
ĠRe ich
ĠEl le
ĠPo ll
Ġelabor ate
Hen ry
Ġsl ipping
Ġbra vest
M E
Ġp ours
Ġ188 8
Ġconsider ably
Ġportra it
ant h
Ġpass ports
ĠAct ress
ĠOffic ial
ĠEls a
Ġn ood
ĠJ ar
ĠZ one
ĠBo eing
Ġhost ile
ĠAdvent ure
Ġlay ers
ĠIslam ic
Ġreven ge
Ġr andom
ĠB orn
Ġturt les
ment ed
Ġdisc ontin
Ġstead ily
ĠPars ons
p en
re hens
Ġf et
Ġp ins
ĠW isconsin
ĠSc ots
ĠSch um
Ġconstant ly
ĠAtt orney
Ġrej oin
o ked
Ġl inks
ac ular
ĠC raw
Ġbu rial
Ġep ic
Ġtem po
Ġ188 5
Ġconcer ning
ĠElect ric
Ġunivers ities
Ġimprison ed
Ġscamp ered
ind ing
Ã¼ r
Ġcryst als
ĠB h
ap h
ĠF isher
Ġdep icts
Ġins isting
ĠCent ury
Ġcat tle
ern ess
Ġconc urrent
Ġtwink led
ĠC O
Ġforg iving
Ġevent ual
Ġcapt uring
gom ery
Ġbo ld
ĠCr us
ĠB es
Ġrec all
ĠPl ace
Ġoccas ional
Ġcom ics
Ġbu nd
Ġpurs ued
Ġadj ust
ĠIndepend ence
ĠPe ggy
Ġsew ing
ĠKa iser
Ġm unch
Ġmail ed
Ġhous ed
ĠOt to
at ical
ĠS om
ĠS asha
ĠF itz
ire ct
ov ak
Ġparticip ants
Ġsniff s
ur b
Ġsweet est
ĠLight ning
ri et
ĠF ace
ĠSh adow
ĠK on
Ġinv aded
ĠAb u
ĠMark et
ĠChrist ians
ĠForm ation
Ġvirt ually
ĠB oo
Ġab road
ĠStud io
ĠC emetery
Ġsc ent
ĠNew ton
ĠPerform ance
Ġun ve
Ġdis li
ĠV ic
Ġpos itively
Ġpump kins
Ġch oir
ĠR ound
ling ton
Ġround ed
Ġesc orted
Ġpolit icians
Ġboy friend
Ġbl inking
Ġpat ches
Ġsurf ing
Ġf are
ĠA ld
Ġtw isting
Ġ11 2
Ġ186 5
ĠC S
Ġoppos ing
Ġref uses
z o
act ory
Ġprevent ing
ĠGi br
Ġhe aven
get t
ĠAt hens
Ġste er
Ġinter rupted
ĠCl oud
Ġrev ival
V ery
Ġa rose
Ġl ect
ĠFl ore
ĠBar nes
ĠI celand
ri um
be e
Å «
ĠC os
ĠCry stal
Ġannoy ed
ĠTrib une
Ġc ree
Ġwe ighing
ub s
Ġcur ves
ĠMon th
Ġmanufact uring
Ġanticip ated
ĠMov ie
Ġf erry
Ġc rop
ĠCom edy
Ġveter an
Ġcos y
Ã °
Ġn aming
Ġauthor ized
ĠJon ny
Ġver te
in ter
Ġc ensus
on ation
Ġsqu eezing
Ġenjoy able
enc er
ĠEx per
Ġgen u
Ã¶ n
Ġst unt
Ġ16 1
Ġstri ps
Ġcommun icate
v ar
Ġd il
ul us
ĠW as
ail ed
ĠPat ri
ĠC amb
Ġprom oting
Ġ14 5
Ġpl ug
Ġdo zen
Ġ15 9
an im
ĠM ick
ĠA gu
se ud
Ġup s
Ġmo ist
ĠAnt ar
Ġnickn ame
Ġrender ed
ĠA ber
ĠBen gal
ap ed
Ġ11 7
Ġfoot steps
Ġcompos itions
Ġcobwe bs
Ġgodd ess
en burg
Ġtr icycle
ubl in
Ã© t
ĠMin or
ĠE ner
ĠPo k
Ġchem istry
ĠDenn is
h ou
Ġwar ships
Ġed itions
ĠNo va
ĠMont gomery
m at
ur red
rit ic
ĠLeon ard
Ġpro hibit
N C
op les
Ġh ood
ĠT ab
Ġse m
aul ts
Ġoy sters
ĠBalt ic
Ġde bris
Ġju ven
Ġfill s
Ġprot otype
p lease
Ġth orough
Ġthere by
Ġspo kes
ĠMal colm
Ġque ens
Ġsp ed
ĠY outh
Ġconf irm
Ġprog ressed
Ġinher ited
Ġy el
Ġpro x
Ġreal istic
Ġcloud y
ĠSher man
f r
Ġv ines
ĠN ed
ĠN ATO
Ġfin est
Ġveloc ity
ĠG y
Ġbr ushing
Ġpartic les
Ġindepend ently
Ġcong ress
g ow
Ġm a
ĠK ap
ĠAl ly
Ġjo ked
ĠBrad ley
Ġt ips
ĠTh ames
Ġdepend ent
Ġmarshmall ows
ĠS ign
Ġsc ram
ĠRe agan
ĠPat ty
ĠC P
ĠD ot
ĠRe ading
ĠBar on
ĠLeg isl
M ar
ĠS leep
Ġv ital
Ġtr oop
Ġmet ric
Ġstream s
is an
ĠP as
Ġdr unk
let t
Ġorgan isms
ĠReg ional
Ġlat est
ĠRepresent atives
sh ad
ĠLiber ty
ĠT oo
Ġn asty
Ġt in
Ġcar n
Ġprov isions
ĠExec utive
ing ly
Ġabsor bed
ur d
Ġkn ocking
ĠBon nie
Ġparliament ary
Ġsquish y
ĠT itan
Ġk ittens
Ġnew found
ĠSe ason
ĠPort ugal
Ġaccess ible
is ition
ĠL ink
us k
Ġback st
Ġread er
ĠJoh ann
Ġpolit ician
ĠSte am
ĠOther s
Ġ45 0
ĠS lo
ĠA ges
Ġ186 4
l ist
ĠBr anch
Ġ11 8
ices ter
ĠBird y
Ġhoriz ont
ĠJo jo
ĠZ ack
ann on
ĠCh air
Ġquiet er
Ġengine ers
Ġen zy
ĠMad ison
ĠPipp in
ed ed
Ġplay room
ĠV oice
ib n
ĠGab ri
A m
oph one
rest rial
ĠIm mediately
L isten
Ġw re
Ġun re
Ġrug by
ĠS onic
Ġoff s
ĠSp idey
Ġind igenous
ĠNew castle
Ġsepar ation
ĠAff airs
Ġm aj
Ġch ains
ĠA T
Ġbom ber
ĠArmen ian
Ġrestrict ions
Ġstream ers
ĠBou levard
ĠT el
en os
ĠP ay
ĠN as
eez es
ell ers
Ġ11 4
Ġserv ant
ĠMich a
Ġnur ses
Ġkil ogram
i y
st ar
ĠE t
iel der
Ġrep orter
Ġfoss ils
M ine
ĠD raft
ĠFl ag
Ġhum ming
Ġb ou
Ġpack ages
Ġkill er
Ġdefend ers
ro id
ia h
are r
ĠMar ines
ĠHeavy weight
ĠE ff
Ġform ula
ici ency
Ġmurd ered
r one
ĠL ib
Åĵ Okay
Ġproduc es
Ġvolcan ic
Ġn ec
ĠE RA
Ġsp ies
ell ar
Ġfl ipped
ĠV ers
Ġvari ations
ĠIsa ac
H S
a is
he ld
Ġcat hedral
ner y
ĠJul ian
ÃŃ n
L isa
ĠL ooking
ĠD uch
op y
Ġsc andal
Ġdep uty
Ġleg acy
Ġbrace lets
ĠMer ced
atur ally
Ġjer sey
ĠN S
ress er
Ġremind ing
Ġcontract s
ĠM ind
ĠSte in
Ġevac uation
b oys
it ic
Ġr owing
ĠB ri
ĠJo int
ĠC and
Ġho ver
aj a
Ġoccur ring
abel le
ĠAgain st
ĠT ang
Ġn apping
Ġso aking
oll en
Ġlabor atory
ĠS ep
ĠM I
ĠP rest
Ġtr un
Ġimp osed
Ġdifferent ly
Ġeast ward
ĠGu ild
ĠS ud
ĠB asket
Ġbi ography
Ġaw oke
Ġapolog ised
? !"
Ġac re
ĠSee ing
ĠCorn wall
ĠConstantin ople
ĠOrchest ra
Ġg aug
Ġr aw
Ġlo ver
lo aded
Ġrecommend ation
Ġs ill
ĠT igers
ra v
Ġfle as
Ġbelong ings
Ġencount ers
un ge
ÅĵI f
Ġhelicop ters
Ġbombard ment
m aker
ĠD J
Ġspec ulation
ĠU C
Ġpaint brush
Ġfoc using
Ġcho pped
ĠS aw
ĠC re
Ġex ile
ĠAb b
Ġpuzz led
ĠRick y
Ġcongrat ulated
Ġtire s
Ġlaws uit
ĠFreed om
J ames
ĠM ail
un s
ĠD ublin
Ġtwist y
Ġb ills
Ġd angers
ĠM V
ĠO il
ĠFer r
Ġtouchdown s
Ġhe nce
and o
Ġpre st
Ġun o
Ġmet re
Ġcancel ed
id ia
Ġwe eds
Ġbet ray
Ġterrit orial
Ġdread nought
Ġst itches
Ġgu ided
sp e
ÃŃ a
ĠApo llo
n is
in ery
qu al
Ġdescend ed
Ġback s
Ġun fortunately
od a
ĠJos Ã©
ĠFel ix
ĠErn est
ĠW elling
ĠTh an
Ġserv ants
Ġunc on
Ġtim ber
Ġcorpor ate
ĠT ak
ĠL ower
Ġsh oo
Ġcont acted
Ġdep icting
Ġbi ological
Ġindust ries
ĠL P
ĠMy ster
ur st
ĠY am
Ġrev ol
Ġconv icted
ĠArch bishop
ĠWind s
Ġmamm als
p oint
inc inn
Ġchampionship s
Ġc ig
ĠH ood
ĠG ang
Ġbeautiful ly
Ġpres erve
Ġfre ely
Ġ186 2
Ġlack ing
Ġconnect s
ĠAlbert a
Ġrevolution ary
Ġsh ady
ĠGl as
umber ed
Ġconqu est
Ġconsum ption
ĠContin ental
Ġlob by
Ġtwe et
Ġpl a
reg ular
Ġvic inity
pp a
ip er
Ġus age
Ġfoc uses
Ġcr acks
Ġel ite
.. ."
ĠMor ning
ĠMarc us
ĠProtest ant
Ġterri fied
ĠChap el
Ġintellect ual
Joh nny
H ur
W atch
ĠP hys
Ġtri o
Ġarg uments
l ims
ract ion
ĠN ico
Ġapp oint
Ġmel od
Ġsusp ension
Ġvot ers
ĠBroad cast
ik o
Fo llow
ĠSpring field
g Ã©
Ġf aint
ra nd
Ġsp here
Ġgr ace
Ġus er
Ġboo st
ĠS ic
im b
Ġan kle
ud ed
ĠG lee
Ġ10 7
Ġa isle
ĠB apt
ĠN an
ĠX X
ĠKenn eth
N ew
e als
Ġthe ra
Ġb ask
Ġ15 7
ĠTam my
ul um
ĠG us
Ġinaug ural
ĠC incinn
ĠR u
Ġwind ing
Ġmiss iles
ĠMus lims
ĠMid night
ĠEn v
Ġundert aken
Ġthorn s
C on
Th rough
ĠLeg end
ĠAthlet ic
O ver
Ġare na
Ġstret ches
How ever
ĠLe icester
Ġhe n
ĠL ay
Ġble ed
c up
ĠC ena
Ġho llow
Ġlic king
ĠRud y
ĠA L
Ġmechan ism
Ġcollabor ated
ĠAar on
ĠH as
ĠP ul
ĠG on
unt ed
Ġhuman ity
Ġ184 0
ĠEner gy
os ion
Ġhard est
ĠY et
alt ar
it ime
oy d
Ġpri zes
ĠPipp a
H g
Ġbre eds
Ġbelong ing
ĠChamber lain
o a
ar med
ig ious
Ġcent ered
Ġdrive way
ĠRep ort
Ġmechan ics
Ġpredomin antly
ĠP ine
Ġcent imet
Ġpen insula
ov ic
Ġfac il
ĠS ey
ĠB ounce
Ġinf ect
Ġ13 1
Ġgigg les
ĠFrank ie
ĠTy phoon
Ġy um
ĠTw itter
ĠTour nament
b u
ĠC urious
ĠMa isy
ĠCont rol
ĠA ction
Ġcomp iled
Ġbright est
ĠSh iva
Ġroad way
Ġview ing
Al right
ĠLabor atory
ac c
ĠC e
ĠSe b
Ġexpand ing
ob a
ĠV ery
c ling
Ġch rom
Ġoff shore
Ġche ers
ĠCol lection
Ġ22 0
Ġtap ed
Ġshovel s
I nt
k ers
Ġst im
ab et
ĠM eth
ĠK an
Ġtal ents
ĠMon key
Ġb itten
ĠT ell
Ġg ears
ch i
Ġposition ed
ĠMarsh al
Ġswims uit
T ake
g h
uc he
Ġfun gus
ĠPo ly
ĠSl av
Ġill ustrated
Ġass erted
ĠCincinn ati
M ag
p hed
Ġg er
Ġpay ment
Ġsens itive
ĠPlan et
ĠM aine
ĠV ick
Ġsho ots
Ġsent iment
Ġgen res
ĠSerb ia
Ġrec onc
Ġpos es
Ġbe ast
ĠAll iance
Ġunderstand s
ĠVe gas
le ted
ĠC inem
ĠG host
Ġcon ced
ĠSh ield
Ġcler gy
ĠYugoslav ia
ĠÄ Ĳ
ĠTai wan
Ġhaird resser
D own
F l
i ated
u ished
y ers
Ġsl ither
ĠRe ed
Ġsol utions
Ġspeed ing
Ġwid th
ĠLu ft
h all
ĠG ates
Ġretreat ed
ĠGw en
ĠGibr altar
ent ieth
Ġreg ulations
Ġweak ness
r acks
Ġattract ion
Ġvary ing
Ġproc laimed
ĠMalt a
Ġn uzz
Ġout standing
ĠV illa
re ction
Ġel bow
Ġpat ri
Ġ188 7
Ġly rical
ĠMac Arthur
ĠOper a
ĠNorm andy
Ġwitness ed
ĠBrook lyn
Ġdesper ate
Ġcont ents
Ġpar ted
ĠWill ie
Ġment ions
by es
Ġ13 2
Ġlocomot ives
Ġun st
Ġche aper
Ġclos ure
Ġind ucted
Ġluck ily
W A
ĠS ection
ast e
Ġclass mates
ĠBrown s
umber land
Ġreport ing
Ġ97 8
Ġnood les
Ġmind ed
Ġener getic
uk a
Ġwitness es
j e
Ġb apt
ĠH ank
Ġro ars
ĠR ush
Ġde ce
Ġnever theless
Ġem otions
isc her
Ġgood byes
Ġcr ust
ĠSh ah
Ġcamp a
ĠRom ney
Ġrom ance
in stein
Ġd iversity
ĠK l
Ġwis ely
Ġreluct ant
ĠWat ers
Åĵ Please
form ula
ĠGreg ory
Ġa est
ĠM ig
ĠCom ics
Ġ12 6
ĠAn cient
Ġ186 3
Ġrefe ree
Ġconsequ ence
F r
Ġvers es
Ġcrown s
ĠCons ervative
ĠFI FA
Ġsub mer
Ġspe aks
Ġsend s
Ġmans ion
Ġh osp
ĠT ests
Ġworry ing
ĠNe b
Ġsand y
ĠVII I
ĠWag ner
Ġch ann
Ġtour ist
Ġ188 6
Ġcru ise
Ġmount s
Ġgust s
ĠEliz a
ĠBa iley
Ġscra p
ĠFa ith
Ġoutdo or
Ġb ore
ing le
Ġin Hg
im ony
ĠG h
ĠPark s
Ġcomplain ts
Ġarm oured
Ġcrow ded
rr r
Ġeld est
it ol
id en
ĠC ut
Ġhar vest
Ġrequ ests
g or
ĠS af
ook y
Ġ11 9
Ġsurf board
ĠCr u
Ġresc uing
ĠAfghan istan
ie g
ves ted
Ġprepar ations
Ġres id
Ġwarm ly
Ġfrust ration
an ed
Ġgo ats
ĠBl oom
ĠCl are
uls ion
Ġpeel ed
Ġconspir acy
ĠL iter
ĠK in
Ġper c
Ġfund amental
ĠL S
ĠW ool
ubb ard
Ġann ex
int in
Ġprogress ive
Ġir regular
ll a
âĤ¬ ,
Ġgra in
ission ed
Ġtermin al
Ġprote ins
Ġcondem ned
ĠCycl one
Ġmon it
Ġpublic ity
Ġlab our
heim er
ĠSchum acher
Ġcon vey
Ġreb ounds
Ġrit ual
m ill
Ġout s
ace y
p ine
r ina
á º
ro d
Ġch ances
Ġconcept s
ĠPrinc eton
Ġhybr id
ĠS ain
ĠM aced
ĠD ory
Åĵ Of
ĠCl iff
Ġdet ected
Ġbattle field
Ġculture s
ĠAunt ie
ĠK ill
Ġweak er
re nd
as ia
Ġfac ulty
Ġreass ured
ĠBasket ball
ĠJ ump
Ġdes erved
Ġbur ns
ĠImp act
Ġaf ar
Ġsum mon
ĠBul g
t ic
on so
ĠW ake
as ury
ĠU k
Ġachieve ments
ĠML B
Ġresign ation
n ell
ĠL od
ĠBul gar
Ġsnowfl akes
ĠD rag
Ã© s
ĠBC E
Ġcommit ment
Ġdisband ed
ĠF ear
ĠMan agement
Ġlog o
el in
Ġst ability
Ġsw ollen
Ġrot ting
ĠStr ong
Ġgrat itude
ĠC het
Ġprom ising
ĠBl ake
ĠFr ances
ĠOr ton
ĠPen elope
m usic
Ġa qu
ĠL ear
ĠJ NA
ĠIs le
Ġcan t
Ġorgan ic
ĠSm ack
Ġmer maid
ĠRevolution ary
ĠProduc tion
Ġm asc
ĠD ud
ĠLe eds
Ġcow boy
ĠPhill ies
ĠEnv ironment
ĠB reak
ĠM oney
Ġpe oples
Ġforg iveness
ĠCom mer
Ġpress ing
Ġfort ifications
Ġjud icial
Ġ188 4
Ġconsider ation
Ġoutf its
ĠCir cle
ĠPok Ã©
ar ians
ĠN ur
Ġperf ormer
Ġtarget ed
Ġrebu ild
e ff
ac ting
Ġcontain er
Ġcorrespond ing
ĠTechn ology
Ġche cks
ĠCan ucks
ĠJane y
Ġins urance
ĠSer ge
Ġscholar ship
ĠMcKin ley
n ity
Ġpre f
Ġind uc
ĠFl oyd
Ġdevelop ments
ĠMel issa
ĠR uf
Ġstud ios
Ġwob ble
ĠS ister
Ġcar riage
Ġbr ide
Ġqu oted
ĠK il
Ġpreced ing
Ġown s
Ġorder ing
Ġdirect ing
ic ular
ĠE ar
qu er
ak h
ane ous
Ġ187 7
Ġmis chie
m akers
Ġso ot
qu est
Ġgr id
Ġtw ists
Ġbury ing
Ġsole ly
ĠP ra
ust ers
Ġfl esh
Ġded ication
ou rable
at isf
ĠSh in
ĠVi king
Sur prise
Ġp ipes
ĠR ear
Ġqual ities
Ġdisob ey
Ġband ages
Ġcalm ly
ĠRon ald
Ġr oo
Ġal to
Ġcontrib ute
ĠMont ana
Ġprompt ing
ĠM ath
ĠC ort
ĠIn s
Ġopt im
ĠH ull
Ġst al
Ġdes ired
Ġfavor ed
Ġreg iments
Ġdist racted
ĠSh a
ĠBur ke
Ġcalc ulated
Ġexter ior
ĠWest minster
Ġdwar f
v ia
Ġmon astery
Ġtast ing
Ġphot ographer
Ġacc laimed
Ġhistor ically
Ġox id
Ġsm ashed
as ers
Ġro ster
ĠG ret
Ġland mark
ĠPlay ing
ĠCE O
ĠFried rich
on ed
ic ia
ĠR ita
ĠIn vest
Ġbow led
Ġparticip ating
ĠMichel le
ĠAt hen
Ġphys ically
Ġmagnet ic
ĠCons ervation
ĠT ucker
Ġbl ame
Ġsl ot
ĠDe al
Ġeight een
Ġrot ation
ĠR aven
ĠGlas gow
b ling
ĠDra ke
Ġd ot
Ġrem inis
Ġastronaut s
ĠT as
ĠThe ater
le m
ĠM ann
ul ates
Ġsp ills
ĠSp in
ens is
ott o
ats u
Ġtheat ers
ro ls
Ġthem ed
Ġemb r
Ġrecon struction
ĠGoth ic
i ors
p ow
ĠM ang
Åĵ Now
ĠAb ra
ĠDev il
Ġspac ecraft
Ġst ew
Ġj aw
ind a
av an
Ġop ined
Ġmot if
ĠEd mund
Ġaw ful
Ġelev ated
ĠStud ies
fl ow
Ġemer ging
Ġsubmar ines
Ġoverwhel med
Ġwrink led
le nd
ĠN ice
ĠO kay
na e
Ġ187 6
ien na
Ġsp arrow
ĠR ee
ĠK az
Ġconf ig
Ġconduc ting
Ġdec isive
av ian
Ġrecord er
Ġdist inction
ĠBar cel
ĠFrog gy
Ġdiscou raged
ĠS olar
ĠH at
Ġag encies
Ġel igible
Ġ10 3
Ġsmell ing
Ġkilomet ers
ĠMicha els
ĠS ri
Ġfin ishes
Ġrout ing
ĠFif th
Ġsp ite
ĠF ay
ĠAl tern
Ġposs essed
Ġaccept ance
ĠEn ix
Ã ¥
ĠN ass
Ġ13 8
Ġdam aging
ĠDen ver
ĠSpl ash
en berg
ĠSt al
Ġ183 0
Ġhabit ats
Ġtorpedo es
Ġl iner
Ġdon key
Ġcamp fire
Ġintegr ated
Ġbask ets
V room
Ġs ulf
ight s
ĠDo ll
Ġteam mates
Ġtun es
á» ĩ
ĠCelt ic
p in
Ġt ill
Ġbl ess
ĠHer bert
Ġenc omp
Ġdeliber ately
Ġmo ons
Ġco aches
ĠBr id
ĠRe f
Ġ11 6
Ġinstr ucted
Ġfrown s
ram id
Ġchann els
P eter
Ġ12 9
Ġ13 4
Ġtour ists
ho le
Ġcudd les
ĠTerrit ory
g ary
Ġf itting
Ġrem ake
Ġind irect
ĠCard inals
ĠT u
ad al
ĠA ub
ĠAlb any
ĠMerc ury
ĠMerced es
ĠT intin
ri ans
ĠR I
Ġless er
Ġdem ographic
Ġfasc inating
k h
ĠOr d
Ġiniti ative
ol ia
ĠPark way
Ġceremon ies
ed ict
om on
Ġplay able
Ġext ends
er ior
Ġn aturally
Ġchocol ates
Ġscare crow
Ġb orough
ĠE agle
Ġ23 0
ĠI l
pp ies
ĠA va
Ġas cend
em an
Ġtal es
ĠY ard
Ġrad ius
Ġrul ers
ĠFort unately
ĠOtt awa
L A
ou cester
Ġsum mar
Ġenh anced
i oc
l ass
Ã ¦
th rough
iz ers
Ġdin ing
Ġmill ions
Ġvar ies
Ġf ier
ĠS outheast
ĠJ ax
ĠF ab
op a
Ġharm ony
Ġupd ated
Ġp uck
ĠL ud
Ġins uff
Ġcamer as
ĠMet ac
Ġch illy
Ġcontin ental
Ġair borne
Ġhur ricanes
ĠL ords
ro v
ash ire
ĠSe x
Ġperman ently
ĠCo x
Ġlength s
ĠHug o
ed a
ri ages
ra ined
Ġchar m
less ly
ĠAust ro
Ġconscious ness
ĠH ubbard
ac er
ig o
gr ily
Ġtem ples
Ġ188 3
Ġ187 5
l ined
Ġcont rad
ĠFo ster
Ġveget ation
ĠHo k
Ġâ Ļ
ĠVer onica
Ġpre v
ĠUn it
Ġsign als
Ġban ged
Ġunf air
Ġremark able
Ġtrans mission
Ġcrit ically
Ġap ology
iron ments
ĠAngel a
Ġexpect ations
ĠSmack Down
b ach
Ġall ied
Ġsix ty
Ġhonest y
ĠMill ennium
ĠHan na
Ġsque aked
Ġsouth western
Ġrec re
ĠPo e
ĠMil an
ĠDun can
ĠNev ada
M c
m ies
n ut
Ġb orders
st s
ec hes
ĠHen ri
ĠDer by
in th
ĠL ed
ort hy
Ġdis abled
ĠSc iences
ĠGr ac
Ġremind s
Ġven ues
Ġsque ak
Ġorchest ral
d am
Ġa ided
Ġmet als
Ġintermedi ate
m al
op ic
Ġv amp
Ġhom osexual
Ġsa x
Ġwar time
ĠRe ady
Ġmem oir
ĠPar aly
Ġpriv ile
Ġenv ironments
ĠRay mond
ĠBulg arian
G M
ĠE C
ĠGl oucester
ĠDire ct
Ġminister s
Ġconsist ently
Ġmart ial
Ġsubt ropical
Ġautobi ography
£ o
ĠP ack
ass y
fic ial
ĠVen ice
ĠB ased
Ġcomfort ing
Ġaware ness
Ġfest ivals
ĠBarcel ona
Ġcan on
amp a
Ġ12 2
Ġnet works
ĠBra h
Ġnortheast ern
Ġdepos its
ĠExcited ly
Ġpropag anda
ĠPokÃ© mon
l ake
Ġin put
ch w
ol an
Ġkn ives
ep ler
ari us
Ġpsych iat
ĠPow ell
ĠBosn ia
Ġmischie vous
Ġrock y
Ġ188 1
Ġaccept ing
O M
ĠT H
ĠCan yon
ĠRud olph
ĠLanc ashire
B et
ĠI vy
ĠF ood
Ġfr act
arl ings
ĠChurch ill
Ġt ut
Ġman ners
ĠIs les
ĠNorth west
Ġjournal ists
ett a
ĠAren a
Ġc emetery
ĠA qu
ĠF uture
Ġun anim
Ġ12 8
Ġreb el
Ġassass ination
Ġwas ting
Ġint act
Ġpur r
Ġgor ge
Ġscram bled
Ġg am
ĠH um
Ġbird house
Ġdragon fly
ĠAngel ou
Ġphilos opher
pent er
ĠNAS A
ish n
ass ed
Ġres ur
ier ra
Ġjar s
im an
Ġpo se
ĠMar l
Ġvers us
Ġestim ate
ĠRoman ian
P aul
Ġb uddy
or f
Ġsp its
ĠBr is
ĠMon ica
Ġ186 6
Ġwindows ill
Ġcompr ising
it ations
Ġd arlings
am ine
Ġst aged
ank a
Åĵ Hey
ĠBl air
Ã© n
Ġmeasure ments
ĠH ab
ĠD elta
ĠSqu ad
Ġsniff ing
Ġdoct rine
ver ty
Ġan arch
Ġpo verty
Ġbu ff
Ġcomp aring
Ġru ins
Ġ186 9
Ġexecut ives
ĠFer din
Ġenl ar
Ġic on
Ġy d
Ġtr otted
Ġform ations
ĠMan uel
Ġfrig ate
id ance
ĠC andy
Ġstrugg les
Ġdisp atched
Ġsust ain
Ġunsuccess fully
ĠD ian
Ġsw ap
ang ered
act ic
Ġdep iction
Ġrestaur ants
Ġprior ity
ĠQuack ers
Ġeru ption
B rien
M ark
Ġt apping
ĠS A
ĠN umber
Ġdis gu
Ġact ively
os cope
ĠWe ather
Ġnod ding
ĠComp uter
Ġdevast ated
Ġphenomen on
ĠParaly mp
s ay
Ġman ages
Ġvar iable
ĠPaul a
Ġdisp uted
Ġped aled
Ġgross ed
Ġproced ure
Ġtil ted
at ar
ĠQu ick
ĠGl ass
Ġvalley s
ĠMond ay
Ġp ant
Ġm bar
ap es
ĠRichard son
ij ing
Ġdistingu ish
ĠRuf us
ist ical
Ġde ed
Ġsurpass ed
Ġun rel
ener y
ator ial
Sara h
ĠEl ly
ĠX I
Ġaut hent
ĠReg ion
Ġcontrib uting
Ġincident s
Ġep it
ĠMed ic
Ġdeleg ates
ĠThe odore
ch ing
Ġwho ever
ĠK ids
Ġrel ied
Ġpo ppies
Ġcor ruption
ĠBer m
ĠM ills
Ġswim mer
Ġline ar
Ġhypothes is
Ġun aware
Ġpres idency
Ġfree zing
ĠCal gary
Ġspir its
ĠSpr ings
Ġcooper ation
ĠJama ica
en stein
Ġin hibit
ight y
ĠSt ore
ĠAr c
ĠFlor a
Ġult imate
Ġdiss olved
Ġtrib ut
ĠCa es
ĠGro ve
Ġcruc ial
Ã ´
Ġp seud
Ġre op
ĠD iana
ĠV oy
Ġinter net
ĠMid dles
ĠSpeed y
ĠHoll and
ĠVel vet
T unes
ĠA er
uzz le
Ġintern ationally
Ġghost s
ĠOrgan ization
Ġsubmer ged
p acks
ig ation
Ġv it
Ġcr ushed
Ġbat hing
ring ton
os ph
ĠNor a
Ġr ises
Ġadv ocated
Ġrob in
Ġshr unk
Ġabund ant
e ered
Ġsecret ly
B O
m our
Ġfin ance
Ġcomple ment
ĠCons erv
ĠPalest ine
Ġamph ib
Ġabsol ute
ĠT ir
en z
Ġg ene
ĠTe leg
Ġmem orable
ĠShel ley
ĠMach ine
Ġde als
ific ent
Ġunc overed
Ġ75 0
Ġgaz ing
Ġcraft s
oo s
Ġsc enery
Ġco aching
Ġcame o
Ġ187 1
Ġ187 3
Ġsu ited
Ġcl an
Ġ12 4
ĠEls ie
ĠL amb
Ġtra ps
oin ting
Ġinv ites
ĠMar qu
Ġobject ives
Ġ186 7
ĠHend erson
ar us
ĠR us
Ġco ord
Ġbra ver
Ġacc us
ĠBe ijing
Ġhalf way
Ġaver aged
Ġrese mble
Ġassoci ate
Ġinvent ed
Ġback packs
Ġ188 2
Ġrequire ment
Ġsh ipped
Ġbother ing
ĠHe aven
Ġbo b
Ġcon vert
ĠGr ound
Ġposs essions
ĠComm ons
Ġimmig rants
Ġdimens ional
hous es
H C
Ġfl aps
Ġspec ulated
Ġprocess ing
or igin
Ġre ver
ĠN ell
ĠJo el
ĠMe ga
ĠSe as
ĠSnow man
ĠFair y
ĠTess a
Ġdisli ked
Ġgaug e
w ind
Ġc ounsel
us ive
oc ese
Ġres on
Ġ12 3
Ġest ates
Ġblock ade
Ġfrag ments
ĠTeleg raph
Ġar ray
ount ed
Ġfr ames
app a
ĠFl ames
ĠE isen
Ġposs ibilities
Ġcub ic
Ġnavig ation
D I
ĠM s
ĠD ere
Ġtr im
Ġpred ict
Ġappl ause
Ġundert ook
ĠE sp
ĠP unk
ĠN am
Ġad equ
aw ning
Ġsepar ately
Ġstamp ed
ĠWood s
Ġhonor ary
os hi
ĠSo ft
Ġsk etch
isp here
m ons
ĠT rent
Ġrep et
Ġcompos ers
Ġseashell s
ĠDud ley
ĠHe in
ĠC hat
Ġ20 2
Ġtrail s
Ġ ion
at on
ĠBo dy
ĠCr ane
Ġ187 8
Ġcomp rehens
Ġrep ublic
ĠMon a
ĠBer g
Ġheight s
ĠEle ph
Ġsp ooky
Ġregard less
ĠSnow ball
Ġconcent rate
p at
ĠBr itt
Ġgener a
ĠNo v
Ġfact ion
Ġpros per
Ġpost hum
Ġmanufact ured
w affe
ĠL ogan
ĠC ond
ab ad
Ġgr an
Ġcare s
Ġrun ners
Ġmet all
Ġlength y
Ġsatisf action
ĠK em
Ġcons ensus
ĠBird s
ĠL iam
Ġwar riors
Ġdel ays
ĠDes ert
Ġcoast line
Ġpsych ological
Ġperc ussion
T eddy
Ġsee mingly
Ġgen es
Ġaw a
Ġens uing
Ġfe min
ipp ers
Ġhorse power
ogra phed
Ġrecon struc
Ġdetect ive
ĠMetac ritic
om ys
il ogy
ir k
ard ed
um i
Ġrun way
Ġneighbour ing
Ġi Tunes
Ġturb ines
Ġunve iled
D av
M r
Ġant hem
Ġ13 7
ĠBur g
Ġfra ud
Ġles b
z ig
is ations
ĠMart y
Ġmolec ular
Ġthan king
av il
ĠDa wn
ĠNew man
Ġass ets
ĠUr ban
ĠF landers
Ġen velop
les i
Ġfil es
ĠThere fore
Ġoper ator
ĠTr uman
Ġten nis
Ġtool box
Ġliter ally
Ġspect ators
t aker
il era
ĠC ool
Ġres erves
ĠEx ped
ĠDep uty
Ġt umbled
Th ree
Ġfur n
ĠAd ela
Be ep
ĠMal ay
Ġyel ped
ĠH og
ĠR if
ĠSt ories
Ġweigh s
ĠSel ena
Ġbacter ia
ĠRP G
Ġs ic
or ic
em ploy
ĠSp encer
Ġgener ations
Ġem ig
Ġsurf aces
ĠÃ ī
ĠLuft waffe
Ġfind ings
ĠMont e
ĠHead quarters
Ġar istoc
Ġcreat es
Ġcontem por
Ġcompr ised
Ġarchae ological
Ġrif le
Ġend ors
Ġachie ving
Ġscratch ing
ĠMcCart hy
ĠDak ota
ĠN ana
Ġenthusi ast
Ġsym ph
Ġgall ery
Ġsacrif ice
ĠHe b
mon ton
Ġ187 2
ĠStart led
ĠBerm uda
Ġsh in
ass ic
Ġreg ained
Ġroof s
Ġess ay
ĠBrun o
w ing
Ġl apt
ĠL uther
end a
Ġle agues
ue z
Ġexp ense
Ġvar iant
Ġflood s
et e
ĠW a
Ġbr ut
ak u
Ġde alt
Ġdef enses
Ġeng aging
Ġsew ed
ĠRod rig
ĠSeb ast
D A
ball s
Ġpos ed
ĠEx pl
ĠNor se
ĠStand ard
Ġbats man
A ny
j u
Ġr ally
Ġbo l
Ġblack s
ĠGu er
Ġur ging
amb oo
Ġdise ases
ĠWol ver
ra ine
Ġlaw yers
ĠInt ellig
Ġ186 8
ĠRet urn
ĠMV P
S oon
am iliar
Ġback up
Ġsun screen
ĠCh oice
Ġow ing
ĠMc N
Ġappeal ed
Ġa ston
Ġpe ac
ĠAng le
ĠTh r
Ġpolit ically
Ġdig it
Ġvocal ist
Ġbattlecru isers
Ġpand as
p ing
Ġen rolled
Ġref using
cri ptions
Ġinstrument ation
ĠCab inet
ĠBapt ist
ĠAbra ham
im ity
Ġsa ves
ir s
st own
ĠF av
Ġgra vity
ĠAl t
Ġsil k
Ġrefug ees
R S
ĠSc he
Ġrev ived
Ġimag inary
Ġmathem atics
ĠFlore nce
ĠP el
pr ing
Ġpat rols
Ġ15 1
ĠSm o
ĠJeff rey
ĠWelling ton
Ġtw entieth
Ġfar ming
ĠAl am
ĠFl ash
ĠGib son
Ġinsuff icient
ot on
ĠSoviet s
Ġchap ters
Ġgraph ic
ĠWat son
Ġexplos ive
Ġpound er
Ġstab il
ĠCurt is
Ġbe er
Ġgr oo
ĠCh ase
Ġsqu aw
Ġgu idance
Ġet c
Ġhorizont al
P a
ĠH ass
un ci
ĠTr inity
ĠR ug
orm al
Ġcrown ed
Ġguess ing
Ġglitter ing
Ġreminis cent
on ing
ĠI b
ĠP ly
Ġrel ating
Ġinf ected
Ġsince re
Ġwhisper ing
Ġlocomot ive
Ġsp ores
Ġworld s
Ġadm it
M andy
Ġdiscipl ine
ĠFerdin and
in qu
ul k
ĠW ings
ĠF ischer
Ġescap es
Ġunf amiliar
Ġconvin cing
Ġsongwr iting
ĠM obile
as ian
ĠF un
ĠV ern
Ġsupp orter
ĠHar per
Ġamb assador
Ġbe aver
Ġsh attered
Ġli ver
Ġint r
Ġunt ied
Ġgener osity
ĠKr ist
Ġsculpt ures
ĠRena issance
Ġt ensions
ĠAd rian
ĠEast er
Ġnickn amed
Ġambit ious
Ġalleg ations
S o
ĠMem bers
Ġassess ment
Ġsynd rome
ĠAgu ilera
ĠT otal
am ation
Ġst iff
ab a
ĠV lad
Ġpers ist
Ġcorrid or
d ium
at hetic
or us
ĠA very
Ġsm elt
op ol
Ġcontin ent
Ġpan els
Ġdemonstr ate
Ġathlet ic
otyp es
b us
Ġm our
ĠM eyer
Ġca ves
ĠR ah
Ġdecl aration
Ġg room
Ġex hibited
ab ella
ĠCar r
Jo ey
s er
Ġpro ceeds
ett es
ĠRom ans
Ġg aming
as aki
Ġinst inct
Ġsub stance
Ġtrans it
Ġgen ie
Ġwid ow
Ġbank rupt
ĠOper ations
ĠExped ition
ĠS H
ĠM asters
our se
Åĵ The
Ġflu id
ĠAdvent ures
ĠBeaut iful
ĠB erry
Ġinter ference
Ġsy rup
R C
Ġt ended
Ġmom ma
ĠTim ber
Ġland ings
ov sky
Ġspeak ers
Ġtact ical
Ġannoy ing
Ġthe oret
ic he
ĠM ull
Ġpe ep
Ġfle e
ĠNew port
Ġrail s
Ġunus ually
Ġvolunt eer
Ġpron ounced
Ġh oops
ĠT all
ĠL is
ĠMax well
Ġter med
Ġmaneu ver
ĠAdela ide
ĠB ott
ĠSp it
ffic ial
ĠLy nn
ed ar
ĠH ello
ĠN ept
Ġpic n
Ġcust ody
ell s
Ġch ord
Ġart if
Ġnom ine
ĠPhill ips
v room
ĠL ina
Ġpro ven
Ġinterview ed
Ġmig ration
ĠBut ler
Ġche cking
ĠMad rid
Ġda wn
Ġexha ust
Ġnib bled
Ġt ab
Ġh ier
Ġj ets
Ġsc rib
ĠWor cester
ĠAg ric
kins on
G B
im ir
ud ged
Ġimp orted
Ġlight ly
Ġprotect ive
Ġcomment ators
Ġacqu ire
Ġlem urs
ĠEs sex
G et
Ġst ump
ĠB ass
ĠSh ir
ĠFer gus
Ġcig aret
c ock
oo ke
ent ric
ĠR ange
Ġprox imity
ist le
ĠN L
elf th
anc ock
Ġdiscuss ions
ĠMon roe
Ġot ters
ĠRain bow
et a
Ġre wards
ĠC ou
ĠC ode
Ġass ert
ĠGer ald
ĠGu adal
Ġthick er
Ġreflect ing
ĠKnight s
ĠS ugar
Ġup side
ĠAl pha
Ġcur rency
Ġinvestig ated
Ġl am
Ġex changed
Ġrel ay
ĠLe igh
Ġthick ness
Ġtear ing
Ġcitiz en
Ġquant ities
Ġsweat y
Ġo st
ĠP ent
Ġpr ickly
Ġpop ulated
Ġcal iber
ĠNe ither
Ġthera py
Ġsh ines
ĠC A
Ġtop ic
Ġav iation
ras er
ĠL oy
ĠMar x
ĠEll is
Ġinstr uction
Ġscur rying
h ot
Ġmo ld
ĠO cc
Åĵ Sure
i ary
Ġsc out
Ġbl ade
Ġelect ro
ĠAss ist
ĠTas man
ĠH il
ĠG enesis
Ġin vention
ĠH ond
Ġscr ub
ĠJes se
Ġcyl inder
u ity
Ġbe aming
ĠâĢ ²
Ġdri pping
Ġdam ages
Good night
Ġlip stick
ĠMot or
ĠMeth od
Ġm im
ain ted
Ġz ones
Ġobey ed
ĠDere k
Ġr av
Ġsuccess es
ĠWor king
ĠPl at
Ġsport ing
R ob
S e
Ġf ir
ĠB ongo
ail ing
ĠV ienna
Ġt ender
ut onium
ĠM C
ĠLe ban
ĠCom b
Ġhon ors
Me anwhile
D ear
Ġhe ct
Ġg ains
Ġpers isted
Ġadv ances
ou ched
ot illa
Ġpre lim
Ġbl ades
Ġnorth western
Ġexper ts
Ġmass acre
ĠFil ms
ĠGame Spot
ĠAv iation
Gra nd
ĠArk ansas
Ġdynam ic
Ġincomp lete
ĠMove ment
Ġprelim inary
m atic
Ġall ocated
Ġpa ved
Ġcaut ious
D ave
Ġh ike
im id
al id
Ġop ted
ition al
Ġsuccess ive
gg ies
Ġce ase
Ġbal let
ĠEngine ering
ĠS ans
Ġr ic
ol ith
Ġmo at
Ġscreen ing
Ġscra pped
ĠId ol
E n
Ġco aster
Ġunder go
ĠSp y
ĠGr an
Ġtrack ing
Ġcop ied
Ġattach ment
ĠWW F
Ġdiscontin ued
Ġpicn ics
ĠB rew
Ġsure ly
ĠDaniel s
Ġcompar able
k ind
re z
Ġreal izing
Ġreg ist
Ġed iting
Ġmach inery
found land
ĠBald win
Ġal ly
ĠP sych
ĠAr ctic
Ġbee h
Ġ187 9
ĠHistor ical
Ġninet eenth
w ig
ĠSt itch
Ġrob bers
Ġincred ibly
ĠMet al
Ġswall ow
Qu ick
ĠChand ler
ĠC reat
Ġpro jected
ĠFin ny
Ġtour ism
Ġsett ling
Ġinstall ation
ĠUs her
Ġinnoc ent
Ġa ster
Ġhe ated
st op
Ġst umble
Ġj ugg
ol and
get s
Ġpriv ately
ĠFem ale
z ac
ĠHe m
ĠM ult
Ġse ated
ĠD ee
Ġch lor
ĠG iant
ĠRoman ia
Ġcyl ind
ed e
ĠHe ath
Ġopen ly
Ġpubl ish
ĠBar rett
ĠJul iet
P S
ĠM otion
Ġan grily
ast on
Ġun rest
ĠOr thodox
Ġdisplay ing
Ġvibr ant
Ġedit orial
a ic
Ġsa cks
Ġfun n
Ġfl ip
Ġtop s
ĠBe ginning
Ġlic ensed
Ġnorthwest ward
ĠSkin ner
Ġlect ures
f ront
Ġ ibn
ĠTur ks
ĠSur v
Ġhal ted
a ire
er ia
Ġr apper
Ġfl ashing
ĠCirc uit
ĠLt d
ĠC M
ark s
em porary
ĠK ur
ĠK epler
olog ically
ĠPer th
Ġnecess arily
ĠGar c
ĠGeoff rey
ĠPly mouth
r ising
ass ing
Ġtor to
ĠSur rey
ĠGrac ie
ĠL ions
ĠPr ison
Ġstat istics
Ġsubs idi
Ġobst acles
Ġdisp utes
ĠMet eor
Ġp unt
ĠS ierra
Ġcoal ition
ĠAdmiral ty
Ġfunction al
ĠCap ital
Ġlapt op
ĠM ut
Åĵ See
oin ts
Ġrest oring
ĠNew foundland
Ġsty l
ĠSw an
Ġglob e
ĠPrest on
F irst
ound ed
Ġper pet
Ġflo ats
Ġcoll ision
Ġdu et
ĠPubl ishing
Ġwa x
Ġcont racted
Ġlif estyle
Ġdisagree ment
Ġl acks
Ġup rising
Ġtr igg
ĠDon na
Ġmass es
ĠDr um
Ġdepth s
Ġsubur b
ĠMaur ice
r h
Ġb icy
Ġn aked
Ġfor bid
ill as
ĠG as
ik h
Ġdecl aring
Ġatmosp heric
Ġentert aining
Ġno b
ĠSt rat
Ġgener als
ĠGr ad
par able
ĠSen ators
roll ing
ĠElect ronic
ĠBudd hist
Ġadminister ed
Ġto n
and s
Ġgu ilt
Ġdet ached
Ġdiv ine
ĠJoy ce
ĠMount ed
Ġdeploy ment
m itt
Ġre hab
ged y
io x
Ġfort une
Ġdescend ants
ĠPir ates
A nn
G u
Ġse aled
Ġbar rier
Ġdevelop er
Ġmid night
Ġcompet itors
Ġmut ual
Ġstern ly
ĠJoan na
Ġto pp
an z
pt ic
ĠCar n
ĠSn ake
ĠGon z
Ġr iot
ĠO d
Ġcont ested
Ġlist ing
ĠMc Donald
Ġl ump
le w
ĠRob o
ĠA ur
ĠSc reen
achel or
Ġsym met
Ġseagull s
b ul
ĠJ G
Ġdec omp
Ġstr um
Ġcont ing
ĠCal vin
ha i
Ġdeleg ation
ip el
ĠEd monton
Ġsway ing
Ġpregn ancy
Ġn am
Ġst ained
Ġbl onde
Ġwood land
ĠGener ation
Ġrid ic
ĠPan ther
Ġfatal ities
at ters
op ular
Ġch in
Ġun employ
ĠU B
Ġpres um
Ġass ured
Ġ27 0
Ġinch worm
Ġaeropl anes
ĠShel ly
Ġunn ecess
p ress
ĠH ancock
ĠG az
Ġsw ift
ĠFl ood
Ġesc al
fl owers
Ġexcess ive
Ġsac red
is ans
Ġre iss
ĠC ec
Ġsk ies
Ġvict orious
Ġguard ian
ĠLen ny
nold s
ã Ĥ
ĠP orts
ant o
Ġste pping
Ġpract ised
ĠCap itol
ke ley
ma il
Ġcrowd s
ĠTri p
ĠH un
em ic
ĠVal ent
ĠHawai ian
im er
Ġcl ips
Ġfl ock
Ġgr ants
oth s
ĠPal mer
ros se
ĠEp isod
Ġpl ed
ĠK iss
ĠLanc aster
grad uate
end ers
Ġcan vas
fe rences
ĠSo ld
Ġunt ie
Ġsub tle
uct ive
ĠAir borne
ĠCarl a
ĠSun shine
ĠCommission er
ĠT ales
est ion
Ġpro hibited
Ġfil ter
Ġhon ored
Ġwhist les
ĠMin ogue
Ġcopy right
g ic
Ġstri pped
Ġaggreg ate
v ae
ĠC hem
Ġcon cess
let cher
it i
ĠB ent
ĠP ix
ĠK ens
Ġstory lines
Ġrece pt
ĠIs abella
Ġ14 6
ĠNash ville
m ie
Ġbl og
ĠCh i
ĠSuper man
Ġple asant
Ġsens ation
Ġpersu ade
Ġar bit
Ġover h
Ġres erved
Ġhard ware
ĠPl aza
Ġmotor way
ĠRes ident
j ack
Ġa uction
ĠL il
ĠN ate
Ġjud ged
ĠW inc
Ġemploy ee
Ġmosquito es
Ġmerch ants
Ġredes ign
Ġr iff
Ġdis place
ĠSh awn
Ġspe eches
ĠPar achute
Ġped est
ĠMir ror
umm ies
ad d
Ġle ver
Ġgood ies
ĠK err
Ġthr ust
head s
ĠPan ama
ĠCrab by
P rior
Ġw olves
Ġp ian
ĠC rom
ĠDev on
ĠNob el
Ġori ent
Ġt a
Ġtr am
Ġmet ropolitan
Ġrece iver
Ġjourney s
Ġtrade mark
Ġscatter ing
Ġdiagn osed
Ġconfron ted
E D
N G
P lay
ĠHe at
ĠB uch
ĠE y
ĠCom ple
Ġboard ed
Ġbul let
ĠBel ieve
Ġavo iding
Ġconj unction
D ue
E R
o i
ĠB od
Ġguard ing
Ġ184 8
Ġcub s
ĠLyn ch
ĠH ait
ce ans
ill ars
Ġtop ics
Ġmet ap
Ġ14 9
Ġcapt ivity
ĠMan ning
Ġbother ed
Ġelimin ate
Ġreserv oir
Ġt um
Ġb amboo
ĠG osp
ace ous
ĠHer gÃ©
elf are
ĠÂ µ
leg iate
ĠArab ic
ĠVen us
Ġphilos oph
ĠLaure n
id y
ĠD j
Ġtr ace
ĠIn v
Ġsec ular
ĠIs n
ĠEd win
Ġprop eller
Ġreflect s
ĠProduc tions
Ġalleged ly
ĠArmen ia
ĠTun nel
Ġsh immering
Ġme owing
ĠFor mer
Ġer osion
Ġdemonstr ation
D e
ĠM ile
Ġgrass ho
Ġass ignment
ĠBow ie
Ġsway ed
S te
Ġm uzzle
ĠC C
Ġj e
ĠF M
St ay
Ġiron cl
Ġproceed ings
ĠC ara
Ġal ley
Ġtid ied
Ġbreath s
Ġhy per
wor king
Ġske let
Ġprog ression
ĠChe ss
Ġam pl
Ġspr ang
Ġveter ans
ĠFinn ish
Ġsufficient ly
Ġche ating
ĠFranc o
Ġacqu isition
ĠJac ques
Ġscen ario
ĠIz zy
2 00
Ġr h
Ġre wr
ĠN ak
Ġover th
Ġmon ks
Ġmon itor
Ġinter actions
Ġorgan s
Ġmist aken
Ġpill s
Ġzoom s
ĠDr ama
ĠBus ch
Ġtransform ation
ĠSp onge
Ġcons ent
Ġmod es
ĠGu ate
ĠSpark le
Ġnib ble
Ġmanif est
ĠChair man
ĠH i
ĠB om
ĠW and
ĠR up
art e
ĠMax im
Ġ14 1
ĠMo z
ĠT ow
st ad
ĠB ast
ath a
ĠZ oomy
Ġgen ius
Ġinhab ited
B oth
z el
ot us
Ġpro secut
Ġgener ate
Ġer rors
ĠGriff in
Ġsn ug
Ġdif fer
ĠPr ice
Ġ21 0
Ġrefe ren
ĠBrig adier
om i
im ination
ĠL ic
Ġass essed
ĠPh ant
Ġ187 4
bour g
ĠGabri el
ĠWinds or
A L
Ġs el
is ch
Ġg ig
Ġst ur
Ġre vel
Ġle aked
ĠR ice
Ġbl ur
ĠCh ancellor
Ġmin im
Ġbeep ed
Ġintent ions
Ġsn aps
og o
ĠV iew
ĠAll music
ĠGuard s
Ġst ance
ĠM ing
Ġread ily
Ġrespons ibilities
Ġcontroll ing
Ġstrengthen ing
Ġemphas ized
ĠCher ry
Ġsou ven
Through out
Ġd ors
our t
ĠRo x
Ġincorpor ates
ĠK es
Ġtre m
Ġhair s
ĠPe ppa
Ġham let
Al ways
ro b
ĠUn iverse
Ġinst ant
ĠBob bie
ĠEd gar
Ġbeet les
Ġb rew
Ġam endment
ĠAn at
Ġvac u
mark et
Ġgenu ine
Ġin ver
ĠHis pan
Ġdr own
Ġupgr ade
ĠForm ula
Ġr umbling
ĠJ ur
ĠR ory
Ġen able
Ġinc ons
Ġcent res
Ġconf ined
Ġbuck led
ĠHol mes
ie ves
Ġfl ick
Ġsec uring
ĠFin als
ĠZ el
Ġpar am
Ġintroduc es
Ġcoc oon
ĠObs er
el ic
ĠA str
ĠW illy
Ġran ged
enn ial
Ġdou bles
ar se
ĠL af
Ġan alog
Ġnot ion
ĠJo dy
Ġdist ances
Ġloc ate
ĠCon sequently
Ġmaint ains
Ġqual ify
Ġelector al
Ġf ade
U S
ĠS uff
ĠN av
uff ed
Ġadapt ations
an an
ĠG ust
od ia
Ġhot ter
Ġcelebr ity
Ġcounter att
Ġmob il
Ã¨ re
hol m
ĠTurn pike
an tern
le af
ir i
Ġdec omm
ĠKore ans
Le ave
Ã ª
ĠM ak
Ġdis rupt
Ġche ated
Ġdoor bell
Ġpol es
Ġ14 4
isting uished
Ġgrad uating
ĠMcC ain
ĠCub an
Ġcolle ges
ĠK ub
Ġcomp at
ĠLind wall
ĠLeg ion
ĠProt ection
ĠStal in
ĠTom orrow
Ġst omp
ĠM ead
ĠYou Ã¢
iv ic
iel berg
Ġsub ordin
over s
osp here
ĠIndust rial
Ġtack le
ĠSebast ian
Ġm unched
uc king
ĠV o
Ġcons umed
Ġneighb oring
Ġhealth ier
ĠRhodes ia
Ġ Ï
ar is
Ġu mp
ĠB ret
ĠD ino
Ġpre val
ear ing
ĠPar amount
Ġsynt h
Ġin se
ĠB oom
ĠHam mer
rend um
h ower
ag i
ich i
ĠLe ader
Ġconf orm
Ġph osph
T oo
ĠSh ank
ĠCom bat
Ã¶ r
E arly
Ġr ookie
Ġun ity
Ġoper as
ĠHo ff
Ġsex ually
Ġincorpor ate
Ġwigg ly
Ġarc ade
Ġh ob
ick en
ĠSh ang
ĠTr uth
Ġprec ise
ĠAdv ance
Ġwre cked
Ġhosp itals
es c
ĠM ade
Ġele venth
gr ade
Ġdefe ats
bird s
Ġcha os
he y
Ġbad ger
ĠY ok
ĠPres ley
Ġdepend s
ĠSen ior
Ġbou quet
Ġfl ips
Ġen semble
Ġsett ings
Ġtext ures
ĠIr ving
p ost
ur o
ĠG am
Ġpur rs
ĠMan or
Ġexceed ed
Ġcompens ation
ĠT ask
ĠT ib
ĠE ss
ĠK ind
up ted
Ġsal on
Ġmonth ly
Ġunp opular
Ġnec ks
g le
p ic
s l
Ġpl utonium
Ġfix ture
la us
Ġthird s
Ġ28 0
ĠTer min
ĠSand ra
ĠI C
ĠOn line
Ġres olve
Ġass ume
Ġline up
Ġanswer ing
Ġl ord
ĠB orough
ĠG ent
oca ust
Ġp eck
ic us
Ġsp awned
ĠR NA
Ġsal v
ĠP all
Ġover d
ĠLe ah
ĠTw enty
Ġmer ger
Ġsevent een
Ġaccur acy
Ġmonarch y
Ġt ant
ĠC N
ĠE mb
Ġsound ing
uri e
Ġcool ed
Ġbul bs
ĠStan ford
U C
is or
ig on
ĠB atter
Ġtra its
Ġcommand s
Ġer upted
Ġc ement
Ġg oo
ĠM ighty
Ġcap abilities
Ġnorth bound
Ġboard ing
ĠSw ord
Ġident ification
Ġ185 1
ĠHop kins
Ġconsequ ently
Ġbond s
Ġlegit imate
ĠSain ts
un ate
Ġgirl Ã¢
ĠF rey
Ġins cription
Ġprof its
ĠDel hi
iffe rent
ĠBroadcast ing
Ġbeeh ive
E l
Ġsat ir
ĠAd ri
ĠBer keley
ĠSol omon
Ġf urious
ĠB og
op al
ach i
Ġmet ab
ib al
Ġfront ier
Ġcraw ls
Ġfrag ment
ux ili
Ġillust rations
Ġan al
Åĵ Who
Ġant en
Ġcor p
ĠMus ical
Ġrum ors
Ġsoph istic
Ġmot ivated
ĠIm ag
Ġconclud es
Ġreapp eared
Ġdod ged
Ġf usion
Ġwa re
Ġsp ur
ĠF letcher
Ġafter ward
ĠAll Music
Ġpitch ing
Ġnegoti ated
ĠLu is
ĠBang l
t ive
Ġha zard
Ġcl icked
Ġlay out
Ġfre ight
Ġautom atic
ĠCla us
Ġmolec ules
z ens
id al
Ġe cl
ĠE U
ĠJen nings
ĠAugust us
Ġairpl anes
Ġpadd ling
ĠBas in
Ġwild life
r ann
Ġd ome
Ġr i
Ġch ambers
ĠN OK
Ġrec ess
ere rs
ib l
Ġjudg ment
ĠTim othy
ĠP it
Th ough
Ġref it
sw orth
Ġgas p
Ġaffect ing
Ġancest ors
ĠC ave
ast ed
ĠZ oo
Ġdesign ers
Ġphys ician
Ġdrain age
Ġexhibit s
Ġlimit ations
Ġpredecess ors
Ġgalax y
uche ss
Ġm isc
ĠL akes
Ġmoment um
Ġ14 8
Ġevolution ary
ĠBulgar ia
Ġalto gether
ĠSp ielberg
for mer
Ġretro spect
B ang
Ġl ull
ĠG av
Ġover night
Ġtest imony
ĠArt ist
Ġrecommend ations
Ġexpress ing
ĠCra zy
ĠShar on
r ice
ĠS N
ĠH M
Ġse iz
ĠP age
ĠP ierce
ĠN one
Ġmet eor
row ave
ĠBrit ney
Ġteen age
Ġunn amed
P e
Ġb ust
ol ics
Ġsc utt
Ġ13 3
Ġ37 0
ĠHend rix
ĠAI DS
ĠPolit ical
ĠS ed
ch anges
and in
ĠBar ber
Ġtrib al
ĠChap man
Ġbicy cles
it ating
or o
il is
Ġso ci
Ġor al
Ġspecial ist
Ġhon king
Ġmeant ime
Ġactiv ated
Ġtw elfth
Ġmod ifications
rie ved
ĠRet ur
Ġproced ures
Ġd amp
Ġ13 6
Ġmir acle
Ġcust oms
Ġbass ist
ĠArgent ine
R T
s m
in ite
Ġst ems
ĠCol lect
ĠCont emporary
Ġrele vant
Ġmaneu vers
i ott
Ġh ooks
Ġp sy
ĠD ana
ĠPen gu
Ġincor rect
Ġpreced ed
Ġsubur ban
ĠEleph ant
ĠR are
so on
Ġgl ist
Ġload s
ĠArt icle
Ġnob ility
Ġth ump
pr ints
Åĵ Good
ĠGl enn
Ġcheck out
osy stem
H er
ĠS eth
ĠW ait
ĠV iolet
ĠCl ose
ĠSch w
Ġbes ie
ĠArch ae
Ġmagn ificent
ĠRhod e
h urst
ĠM k
ĠE SP
Ġsk ate
ĠArt illery
Ġresemb les
Ġdimens ions
u j
Ġbe ings
Ġres ort
ĠPri v
yl um
Ġrefe rendum
d ia
Ġ utter
ou x
ons cious
Ġmat urity
ĠBe ast
ĠTr ack
ĠSer bs
D anny
n ow
u ates
ĠC G
Ġle aking
ob y
ĠLe ft
ĠAnt i
Ġadvoc ate
Ġca fe
ĠZ ee
ĠGarden s
ĠLithuan ian
Ġgover ning
P C
U nder
g iving
Ġsc an
ade qu
Ġcelebr ations
Ġnegoti ate
ĠGree ks
Ġbrig ades
Bet ween
d an
ĠM aple
ĠP ont
ĠP orter
pl ing
ĠU se
Ġche at
Ġship yard
ĠMar ley
Sh ort
Ġabol ished
Ġger ms
Ġse ize
ĠF an
Ġcle ans
ĠCh op
Ġenh ance
f ree
ĠS under
Ġle ase
ĠO ber
ĠSouth ampton
ĠCr ime
Ġunf old
ĠNeb ras
Ġendors ed
H A
n or
Ġany body
Ġwater line
Ġgl immering
lud e
Ġwild flowers
Ġmunicip ality
Ġrect ang
D P
v als
Ġpl ugged
Ġenjoy s
ĠDo es
ov ich
ĠHeb rew
Ġnam ely
Ġthr iller
Ġnation ally
ĠLithuan ia
ĠEisen hower
M ich
c al
Ġw el
Ġst eth
ĠPat ton
ĠArch it
ĠColumb us
ĠH ipp
ĠJ illy
Ġfe es
Ġtent acles
Ġfort ified
ĠCath olics
Ġille g
Ġdors al
Ġ âĤ¬
Ġto ug
ĠP owers
aly sis
Ġ26 0
ĠStar r
Ġinnov ative
s i
Ġd ub
Ġg amb
Ġbe aches
ĠB ak
ĠR eds
Ġspecial ized
ĠRe form
Ġreward ing
Ġcolon el
ĠHay es
ĠMun ich
ĠSponge Bob
c ely
art z
be it
ĠSus sex
Ġtrust ing
ĠÃ ģ
ĠRey nolds
Ġenforce ment
l en
m unk
Ġa ims
et ary
Ġsk illed
Ġbra ss
vers ely
ĠCast ro
ĠWars aw
Ġcompr ises
Ġaccord ance
Ġext inction
Ġeng ra
ĠCr is
Ġinsp ect
Will iam
Ġnick el
Ġkeyboard s
Ġmillimet res
c ience
g irl
Ã £o
Ġpre view
Ġred d
arch y
Ġent ertain
in ely
ĠC ant
us el
Ġfl ashed
ble m
ĠTr ou
ĠNo ah
ĠGo eb
ĠLo is
Ġunnecess ary
is bury
Ġunder lying
ĠCh allen
ph ones
ne um
Ġtotal ed
ĠJosh ua
Ġimprison ment
Ġa ug
Ġen acted
ĠCan n
Ġret aining
Ġve ggies
Ġcou pled
ĠBo oth
mar ine
Ġheav iest
Ġconv iction
ĠW als
ĠC air
Ġfe minist
od es
Ġener g
ĠTra vel
Ġscoot ers
Ġsubstant ially
ĠYes terday
ĠPl aces
Ġaff ection
Ġnational ist
ĠStef ani
ĠRup ert
am y
ĠM ember
Ġlo d
Ġgra v
od on
Ġlim estone
ĠRuss ians
Ġchat ted
ĠBol ton
Ġdece ased
ĠNebras ka
g ins
Ġf i
Ġr ack
Ġme adows
Ġ14 2
Ġscold s
Ġrefug e
ĠEight h
Dav id
Ġb isc
Ġin ex
Ġend angered
Ġbusiness man
Ġvac c
Ġadop tion
Ġapplaud ing
ĠGlob al
g ard
Ġsc ope
Ġsk et
ĠVar iety
Ġd orm
ĠM umb
Ġch ill
Ġcool est
Ġsouth bound
Ġ185 9
Ġappl ic
Ġunpack ing
Ġmurd ers
Ġcomprehens ive
A b
Ġr am
ĠC itiz
Ġbo iling
Ġal beit
ĠG one
xt on
aul ted
Ġfresh man
Ġcommer ce
ĠTre asury
Ġb out
Ġo ceans
ĠH us
ĠH utch
Ġcl ue
agon ists
ĠFran z
Ġnuzz led
Ġw iser
is ible
ĠC er
Ġcat alog
Ġext ant
ĠBill ie
Ġscore r
Ġescap ing
Ġcong regation
Ġsire ns
Ġsubsidi ary
d ict
ĠM unicip
Ġsp arked
ĠF raser
Ġcom bed
ĠV a
Let Ã¢
ĠEr in
Ġsexual ity
Ġmic rowave
Ġnot icing
ĠJ et
ab l
Ġtox ic
ĠH ip
ĠN ab
Ġreal m
ĠTr in
roduc tion
ann ah
ĠSub sequently
Ġslee ve
ĠRug by
M ore
Ġn iece
ĠM ol
Ġexp ort
Ġoccup y
pher d
Ġsteth oscope
an ked
ĠB av
ĠR acing
Ġperform s
igg s
ĠQu arter
Ġanti qu
Ġpoison ous
Ġfaith ful
ĠAddition al
ĠCraw ford
D an
Ġ icing
Ġin adequ
am ous
ĠW er
ĠW ise
Ġca f
Ġsl opes
Ġcont rary
pr ising
Ġpres ervation
Ġdist ract
ĠHam mond
umn i
ĠD ry
ud ge
uch i
Ġkid n
Ġ12 00
Ġfact ions
Ġshel ters
Ġcous ins
Ġt ummies
ig nt
Ġan at
ĠJ a
ĠE qu
Ġper ception
Ġreal ise
Ġbreak down
ĠSing le
ĠAssoci ated
ĠSal v
Ġtend ency
ĠJun ction
ĠFergus on
ch ief
ĠR hys
gg ie
ĠDam age
Ġoverwhel ming
c ular
ĠS ite
udd les
Ġpro secution
ĠSt age
ĠSp ect
Ġ13 9
asm ine
ĠObs erv
ĠâĢ ĺ
ĠCol omb
Ġcontroll er
ie v
Ġ184 5
ĠWrest le
rim ination
Ġinqu iry
z i
im on
Ġre ck
oc ular
Ġsl ope
ĠSt a
Ġinter cepted
ĠQu ickly
Ġcupc ake
Ġo uch
ĠG ren
Ġab rupt
ĠArab ian
ic on
oo sh
ĠB amb
Ġball ot
unt on
Ġavail ability
ĠRoad s
ĠScot ia
ĠLiz a
Ġathlet e
d ers
w y
Ġat oms
ĠG ross
Ġcomp act
Ġeff iciency
ĠWoo ly
E d
Ġg ren
ĠJ ed
Ġass ign
Ġwelc oming
aur us
Ġax is
Ġhighlight s
ĠRI AA
b one
Ġha st
ac co
ĠJ in
ĠD istinguished
ĠP un
ĠV ul
Ġwarm ing
Ġeffect iveness
ĠSal isbury
Ġfashion able
ess a
Ġforg ives
Ġfail s
ĠQu inn
Ġder iv
Ġchoo ses
Ġencl osure
ĠPorts mouth
ma ha
Ġshoot er
Ġconclud ing
ĠDomin ican
Ġc er
can al
Ġcomet s
Ġcitizens hip
ĠMig uel
ĠIntellig ence
Ġinse parable
Ġr ational
Ġgo sp
Åĵ Maybe
Ġcomm ended
Ġmyster ies
Ġmel odies
ĠMort on
Ġski ing
ĠBright on
Ġtorto ise
in ers
Ġr ape
ad ic
Ġcl uster
ĠK le
ĠK ath
ens on
Ġconc ur
ĠSur vey
Ġchip munk
Ġlesb ian
N ever
f old
ot ch
ro ck
ab ling
Ġ- -
ĠSing h
ĠDemoc rat
che str
ĠHol ocaust
Ġsubur bs
ĠFerr ari
x ter
Ġd ign
ang a
Ġkiss ing
Ġtid ying
ĠLar ge
Ġmerch and
ĠUlt imate
Ġsymp athetic
H arry
V A
omet own
ish i
Ġunder m
ĠY u
Ġhom age
ĠWhit ney
Ġbishop s
run ner
spe ople
ĠH od
ĠL ov
um ar
Ġnew er
Ġconf ess
Ġfisher men
Ġrubb ish
ĠDur ham
Ġmathem atical
Ġcare ers
Ġmon uments
ope z
ĠCan ber
Ġvis uals
ĠFox y
Ġadvertis ement
ĠGuadal canal
t ra
ar ity
ab ra
Ġreg ain
Ġinvestig ations
Ġlabel ed
Ġbend s
ĠTon ight
ĠEug ene
ignt y
ĠT ank
Ġp unch
ĠL ac
ĠP aper
ĠG ert
Ġbuild er
ĠBl ock
Ġcollect ive
Ġgoal keeper
ĠBoy d
Ġsem if
Ġas hes
ĠF i
Ġopen er
Ġcour ty
Ġinfl icted
Ġvet o
ĠCla ud
Ġcolle ague
ĠPur ple
Ġpy ramid
ĠRoberts on
ĠG inger
Ġpain ful
Ġph ones
Ġdry er
Ġdepart ments
Ġacceler ated
Ġecc entric
Ġrehab il
ĠB alk
ĠMan ager
Ġb otan
ĠD rew
Ġens ured
Ġspect acular
S R
ĠR af
Ġplace ment
Ġsqu ished
Ġsub stit
ĠWill is
Ġgoal t
Ġdomin ance
Ġdemoc racy
O R
c ul
Ġsp ont
Ġal umin
Ġsad der
ff ord
Ġbar racks
Ġemb race
Ġaver aging
ĠBur ger
Ġsoc ieties
urs day
Ġdom ain
ĠSic ily
an or
ĠL ag
ĠCom ic
Ġorgan isations
Ġpost pon
ij i
ar ms
ĠH V
ĠC urrent
Ġpost ers
Ġpoison ing
agon al
Ġsan ct
ĠScout ing
l ance
Ġsa cked
Ġcl ient
ĠPeters burg
b elt
es y
ĠW izard
ĠC ly
ĠF ant
Ġgr am
Ġdown ed
ĠAnd rÃ©
ĠSh ack
ĠSc andin
Ġfavour ed
Ġnarrow ly
origin al
h orn
Ġh ol
ou fl
Ġl ingu
ĠH IV
Ġloo s
ĠD uchess
Ġcl aw
ĠE agles
ĠK os
Ġter restrial
Ġ14 7
Ġchart ing
Ġorbit s
m ary
ĠT alk
Ġn ets
Ġex agger
Ġreg ulation
Ġspray s
Ġcorrespond ence
Ġcooper ate
ĠDian e
c hen
ch ant
ĠF C
velop ed
Ġinvestig ating
Ġamb ig
Ġsuggest ions
Ġtornado es
Ġ182 0
v ik
Ġp ip
itt ees
ish ment
ĠTh ursday
Ġgl ided
br ook
Ġseason al
Ġsepar ating
ĠDay ton
Ġincorpor ating
Ġthunderstorm s
Ġjuven ile
ĠTimber lake
t z
ing ing
Ġpresent ing
ĠEll iott
Ġvar ieties
Ġ... .
Ġcompan ions
ĠBah amas
ĠUlt imately
c ases
Ġover he
Ġspl itting
Ġsucceed ing
Ġpoll en
Ġir re
Ġsuspic ious
Ġexplicit ly
ĠSunder land
t age
Ġthe or
Ġo z
Ġhis s
est e
ĠN orton
Ġor ph
Ġor chestr
ish na
Ġdou bled
Ġworth y
Ġinstall ment
Ġremark s
ĠAnim als
ĠL opez
ĠR ather
Ġtr out
Ġspec ified
ĠStra it
Ġgover ned
Ġdecomm issioned
Short ly
R ec
re b
Ġh ometown
Ġl ush
Ġsound ly
Ġbar b
Ġtor ture
Ġumbrell as
Ġpoll ution
idel ines
L ater
Ġp hyl
Ġin ev
Ġgra sp
Ġacc ent
Ġactiv ist
ĠEngine ers
unci ation
Ġhe ll
Ġhe ating
ĠS r
Ġlar vae
Ġmed ian
Ġbur ger
Ġshort ened
ĠAnn abelle
ĠTw inkle
ĠWil bur
ĠDis co
ĠTre vor
Ġinher it
ĠPruss ia
Ġd ears
ĠB M
ĠCh an
Ġmar itime
ĠPri est
Ġnortheast ward
ĠLod ge
á»ĩ m
ĠL ore
oc ene
Ġbreak through
ĠBl aine
Ġhon ours
Ġcollect or
Ġobser vers
Ġimmig ration
Ġanth rop
an ing
Ġg ul
Ġth ri
ĠH ig
ĠH umph
ĠP ray
ĠN y
ĠO maha
ubb ing
Ġlands l
ĠA zer
Ġele g
Ġtrust s
ĠGal ile
uther ford
Ġdesper ately
Ġcontinu ously
Ġstur dy
he nd
ĠK it
Ġdevelop s
Ġconc lus
ov o
ĠDon Ã¢
ĠNe ed
Ġperiod ic
Ġang les
Ġ185 7
ĠESP N
b ane
Ġl inking
Ġn a
ĠD re
Ġmor ale
ĠAr ms
Ġowl s
ĠPo le
Ġ185 4
Ġvolcano es
ĠVol unt
Ġdiagn osis
ĠMumb ai
Ġp apa
ĠE van
Ġfun k
Ġwhat Ã¢
Ġexp elled
Ġsnow y
ĠPl ate
Ġrelax ing
ÅĤ aw
ĠAx is
ĠP and
ĠN ME
enc hes
Ġref usal
1 2
ĠI X
ĠB le
ĠC ore
ĠP ain
elt on
Ġrec y
Ġhun ger
Ġdep ot
igg ie
Ġban ner
Ġboun ces
Ġdet achment
ĠSy rian
Ġcert ific
Some one
ĠD art
Ġgood ness
Ġtr ilogy
Ġover time
Ġover see
Ġdescri ptions
Ġrad i
Ġcoc on
D T
f ive
ĠL og
Ġout lets
Ġnum er
Ġportray s
ĠCaes ar
Ġt ier
Ġin eff
ĠH es
ĠC el
ĠF ra
Ġv ow
ss ss
ĠFor bes
Ġsprink le
Ġcinem at
Ġg ills
am us
ĠAll an
Ġtail ed
sw ick
Ġembarrass ing
Ġaw hile
Ġprim itive
Ġrepe ats
Ġdisappear ing
Ch oo
ĠMod el
Ġconfig uration
F red
N ice
Ġ à
in us
ĠC oul
if ax
ew ard
Ġpri ests
cl iffe
Ġsymbol ic
ĠHam burg
Ġlizard s
Ġretrie ve
ovak ia
A rrr
ast ical
ĠK ot
ĠCh ip
ret ion
Ġbat ch
row s
Ġcrocod iles
ĠDor othy
H ar
j ud
Ġforg iven
ugg y
Ġlaunch ing
er ina
Ġfound ations
Ġground ed
Ġlisten er
Ġret iring
ĠMo ving
Ġscript s
Ġorbit al
Ġscre ened
Ġfrig ates
ĠRav i
ĠMcM ah
ĠGard ner
Ġisot opes
Ġin ability
Ġtown speople
Ġcaterp illars
Ġarch bishop
ĠRover s
ibl ical
ro ft
ĠW ald
ĠE lder
ĠK as
Ġend orse
ĠAnd ers
Ġimp air
Ġent ries
gr im
Ġleg ally
Ġworks hop
ĠCr uz
Ġgrad uation
Ġrebu ilding
ĠBre nd
Ġflu or
ĠAlexand ria
Ġenvelop es
ĠJ asmine
ĠW ong
sh aped
ene z
Ġmoon light
Ġspell ing
ĠFore ver
Ġmanuscript s
I C
M ania
Ġbra ins
Ġer ase
ĠReg ard
ĠTra in
ĠGab by
Ġmate y
u ana
er k
ĠT ax
en h
ĠH ed
Ġhel ium
Ġch icks
Ġsome how
ĠV ince
Ġant ib
Ġbowl er
au er
keep ers
Ġec osystem
Ġsynthes is
ĠCanber ra
Ġbra kes
unt ing
Ġsuper structure
Ġevac uate
ĠWeb ber
ĠNon etheless
ĠAntar ctic
en ary
ĠS or
Ġn Ã©e
Ġst ressed
Ġplay d
ord e
ĠLi by
Ġprec urs
Ġarr ange
Ġdisp os
tr um
Ġund ers
Ġexclud ed
ĠLess er
Ġenlar ged
ĠL av
Ġgr umbled
ub a
Ġstra in
Ġtour naments
ĠBu enos
Ġattrib utes
Ġrejoin ed
Ġcentimet res
avil ion
uxili ary
Ġnot ices
ĠAr med
Ġsupport ive
ĠDod gers
Ġabol ition
Ġoblig ed
ĠBangl adesh
Ġac ute
ail and
Ġkid ney
Ġmin ers
Ġnest ing
ĠBrand on
ĠÂµ m
I T
ot er
ĠW ang
ĠR aid
ĠNew ark
net ic
ĠStep han
Ġfinanc ially
ĠSpit fire
ĠL ill
Ġor ch
Ġdis k
ĠJen nie
Ġcab les
Ġpromin ence
Ġunw illing
Ġgrassho pper
Ġs ued
ĠL on
ri pp
ĠJ ak
Ġback d
Ġclim ax
Ġste als
ĠAng els
ĠPear son
Ġreven ues
ĠBanks ia
er ving
el ong
Ġmean while
ĠTor res
Ġsuperv ision
Ġvari ants
Ġsurprising ly
Ġt uck
ve ment
ĠA ven
ĠSp ort
Ġcent s
Ġmatter ed
Ġund e
ĠCra sh
Ġisol ation
Ġsovere ignty
ĠT ill
ĠT roy
Ġdo zens
ag ara
ĠJohn s
Ġtra gedy
Ġtre as
ĠUnder ground
ĠMore over
Ġaccommod ation
Ġcontempor aries
Ġm ound
Ġg re
Ġrepair ing
Ġinstruct or
ĠSav age
or p
ĠS E
Ġpl ag
ur as
ĠF iction
Ġman agers
em ble
Ġspec trum
ĠSh ore
ĠAust en
Ġins erted
Ġrespons es
Ã ł
Ġwar rant
Ġstory t
Ġdry ing
a o
b in
ĠT urt
Ġd ing
Ġp ouch
Ġsc hem
ĠP i
ĠP oo
red ited
Ġinv isible
ĠY ang
Ġdep ri
ĠCom pton
Ġcomb ine
Ġ185 8
ĠHold en
Ġmunch ing
es ters
ĠA way
Ġfr ater
ĠV on
Ġdist ress
ik er
Ġpurs uing
ĠSpark les
Ġquant ity
ĠDest iny
Ġaccum ulated
Ġb enches
Ġp neum
ĠP itch
ĠBr ooke
Ġmed ley
ĠKing ston
Ġshort age
Ġpoll s
Ġdeterior ated
er ting
Ġth ieves
Ġsa int
Ġas c
ĠK ann
ĠIn formation
Ġtem pted
ĠMet all
ĠHal ifax
ĠCap com
ĠT ears
om as
ĠH ast
ĠW oll
ĠC ulture
Ġab dom
ens ing
Ġpass ages
Ġdep ict
Ġship ments
Ġmem or
ĠIndian apolis
ĠXII I
ou b
Ġan onymous
Ġtr aced
Ġadm its
Ġhum id
Ġdet on
ĠKnow les
Ġreleg ated
ĠNept une
Ġoverh aul
O W
Ġp its
ĠS my
ad ian
On ly
Ġj aws
ĠG aza
ĠK ai
Åĵ Ok
anc er
ric ally
ĠDo ver
Ġmill imeter
ĠRh ine
ĠTib et
C ar
Ġc ure
Ġhe els
ĠL or
Ġse min
Ġman or
ĠMar co
Ġph ases
und y
Ġtele vised
Ġtechn ologies
Ġ32 0
oe uv
And y
Ġlem ur
ĠBey ond
ĠBudd h
ĠMedic ine
Ġvacu um
ĠZel da
ĠR id
Ġste ered
Ġpet ting
Ã© l
ĠX V
ĠMon ument
ĠDi á»ĩm
ĠAv on
ĠPhilipp ine
P ut
es p
Ġal ike
ast ing
Ġbr ed
Ġmark ings
Ġ55 0
ĠFran Ã§
ĠPruss ian
ar c
il ian
ĠEx am
ki en
Ġbarrel s
Ġimm une
Ġcontact s
Ġovers aw
Ġmini ature
t t
ĠA ires
Ġbin ocular
Ġreason able
Qu ack
ĠTH E
o ids
p ur
Ġwa ded
ĠT ip
Ġd iox
unk er
oy le
Ġfav ourable
br ates
ere s
bor o
Ch arl
ĠEngine er
K ids
ay ette
ĠN um
Ġcrit eria
Ġ185 6
Bob by
K eep
g ae
Ġd at
ĠJ ets
Ġsp illing
ĠD ynasty
Ġab str
Ġcont am
Ġlook out
Ġlight house
ĠY ank
ĠFr inge
lo ads
Ġactiv ists
Ġguard ed
Ġren owned
Ġ181 2
Ġdram atically
Ġtrigg ered
r ink
Ġb ure
Ġf ib
ĠT een
Ġbe friend
ĠF ellow
ĠR S
Ġsub jected
Ġcur l
Ġconv oys
ĠRet rieved
ĠDream s
Ġhorri ble
it ational
ĠR ot
ĠO C
ĠO st
Ġautom atically
Ġholid ays
ĠRem ix
Ġconfront ation
ĠWinc hester
r ush
ay ed
ĠH aven
ĠE yes
ong ed
ist or
ĠAl most
Ġ33 0
Ġcompar isons
ĠAdri atic
Ġwh it
ĠY um
ĠHo llow
alt ies
Ġplat oon
ĠBah rain
Ġnit rogen
Ġrecre ational
Ġpostpon ed
il ight
ĠS AS
Ġst ake
Ġst ip
Ġsm ugg
ag s
qu in
ĠR Ã©
Åĵ Be
Ġblue bird
Ġla uded
Ġcapt ive
Ġreview ing
Ġstro kes
ĠAR IA
Ġcock pit
Ġp p
ad abra
se nd
Ġcr uel
Ġinf erior
Ġspl its
ĠZ h
ĠBet ter
Ġwrest lers
Ġstrand ed
k ward
ĠT ampa
ven ant
ered ith
gr aded
ĠSm art
Ġaver ages
ĠSchool s
Ġshield s
Ġtim ing
Ġaffili ated
e av
ĠT at
ar ious
im o
ĠC ould
Ġor n
Ġunder graduate
Ġdon ations
ĠMin ne
Ġcivil ization
ar as
ĠH undred
Ġfor wards
Ġinter rog
Ġdecl ining
Ġnur s
Ġnar rator
Ġ184 9
B oys
w oman
it ative
ĠB ec
Ġsp ears
Ġprotect or
Ġsent ences
Ġlim bs
ĠSing er
Ġsupply ing
Ġsupposed ly
ĠPop ular
Ġresour ce
Ġha lt
ĠH ers
ĠR ivers
ĠCh al
io v
ĠZ ag
ĠBe au
Ġmoder ately
ĠCath y
Ġstair case
Ġalt ar
r il
Ġw elfare
ĠR ama
ber ger
ĠV iv
oup e
ĠEven ing
ĠPresident ial
Ġrevers ing
d og
st ock
ĠTh ailand
ĠCh oo
ĠGreen e
Ġhes itation
Ġconvers ations
ĠFree way
ĠConc ert
ĠAud rey
ĠSerge ant
r ack
Ġin ject
Ġmother s
ĠDan ube
Ġmonit oring
Ġtreas ured
C he
Ġs itc
Ġaw kward
ĠStew ie
Ġsweat ers
ĠRoc hester
Ġceremon ial
Ġdisplace ment
l u
Ġo d
ĠM ale
ĠJ ag
if ier
Ġpre ference
ĠRe id
Ġneighborhood s
po le
ĠMiddles ex
ĠMcMah on
ĠS it
ĠK end
Ġam used
Ġhang s
Ġmanufacture r
ĠCost a
et ah
ist ically
and el
Ġadm ission
Ġview er
Ġcurrent s
Ġtend s
ĠPrinc ipal
ĠSaf ety
Ġtheoret ical
Ġd itch
ar in
ĠE ye
Ġgra vel
Ġapp rent
Ġper ipher
Ġexp enses
Ġsoap y
ĠPal m
C onn
Ġr ipp
ĠWill ow
Ġfre estyle
Ġimplement ation
Ġrecip ient
Ġpeep ed
ĠAssist ant
Ġb inding
Ġwa ges
ĠC ultural
ĠP ike
âĤ¬ Â
ĠTra fford
Ġkilogram s
Ġrectang ular
ĠWrestle Mania
Ġf ut
ĠW ord
ĠG in
ĠCanad iens
ĠVict ory
Ġdeg ener
ĠBro ck
ad ise
ĠW im
ĠR hy
ap ot
Ġext ract
ĠGer ry
Ġsick ness
ov ny
Ġlit ter
ĠCle ment
ĠVen et
Ġchat ting
Ġwas hes
ag ram
ĠK ara
Ġob jected
Ġ14 3
Ġsocial ist
Ġnucle us
Ġbats men
Ġcam el
shad owed
ĠC IA
Ġdisc l
Ġpure ly
k rit
ar re
ĠS aid
ir able
Ġsh ame
ĠR ip
iz able
Ġsk ating
ĠBy rd
ĠMin nie
ĠÎ ¼
er ation
Ġsh ale
Ġstar ter
Ġfl ashes
Ġsoon er
oun s
Ġsmooth ly
Ġspr ings
ĠBrun swick
ĠDuch ovny
ĠGuer re
âĤ¬Â ¦
ĠD ock
Ġall erg
Ġsk irts
ĠCo ach
ĠComm odore
Ġcow boys
Ġnation wide
Ġrid ges
Ġportray ing
ĠAp art
ĠVar ious
ĠEc onomic
ĠLim ited
Ġgosp el
M al
Ġn u
ĠA U
Ġpe ers
Ġconf using
Ġsmart est
ĠAir craft
ĠIm m
j ar
ĠN om
oy a
Ġfarm land
Ġdiv ide
ĠHaw k
Ġconced ed
olith ic
R O
Ġs ided
Ġmom Ã¢
ĠN A
Ġint imid
Ġdis rupted
ph abet
Ġaccept able
Ġeconom ics
Ġunc onscious
Ġ65 0
ĠHind i
Ġic onic
Ġwrigg led
u er
ĠW riters
op old
ave ment
uff led
Ġconf isc
ili ation
ĠH utton
Ġvill ains
Ġpin ned
Ġhall s
ĠLy dia
ĠGar field
Ġpec ul
Ġdemoc ratic
Ġst unning
ĠD anger
ĠG and
use ment
Ġdr ill
Ġsupp ress
ĠMy c
Ġcheerful ly
Ġamount ed
Ġcourty ard
ĠH app
ent e
ĠJ ava
Ġcur ric
Ġbru ises
Ġsax ophone
Ġphilosoph ical
ĠObser ver
Ġo re
ĠF ac
Ġinst ances
Ġfilm makers
Ġsharp ly
Ġhabit s
ĠDar ren
Ġris en
Ġvirt ual
ĠStaff ord
Ġdemol ition
c hester
ĠS ale
Ġback ward
Ġme ows
Ġgr ades
ĠJo ker
Ġcomp are
Ġemer ge
G S
d ock
p ath
Ġo v
Ġin vested
ic ating
ĠC omet
Ġbo oth
ĠSh ane
Ġstat ute
ĠComp an
Ġnon etheless
Ġbroad ly
Ġphys ic
wr iter
Ġencl osed
Ġexem pl
P ro
t ured
ĠB L
ĠM ater
ĠM Ã¼
ors et
ren ches
Ġrec ipes
Ġsleep s
ĠInd eed
Ġcal mer
Ġcam oufl
I m
R ober
a uc
er ie
al us
ĠB ever
ĠG ould
ĠAl ison
Ġsand stone
Ġdecl are
Ġaccept s
ĠCat al
ĠBun Bun
ĠIraq i
Ġeru pt
Ġpublisher s
ĠCe lebr
p op
Ġlisten ers
Ġinter face
Ġprot ested
Ġ185 2
ĠSund ays
Ġcomplex ity
ĠDou ble
Ġsummon ed
Ġembr aced
w ald
id ian
ĠM eredith
Ġse ating
ĠR oth
ĠV enez
Ġdisc rimination
Ġdef ender
Ġcap ability
Ġmort ality
Ġdissip ating
Ġbubb ly
W or
er man
ĠL ans
ol ving
Ġco ached
Ġspir al
ĠRichard s
Ġ184 7
ĠWin ston
Ġinduc ed
Ġadequ ate
Ġd ives
ĠD um
ie m
ĠV ed
ĠPat ric
ĠWy att
Ġredd ish
b ai
oc ate
Ġdown stream
Ġpupp ets
Ġaccount ing
Ġmotorcy cles
ĠAcc idents
Ġdivor ced
ĠShak ira
ĠYank ovic
Ġy awning
Ġcl over
ĠV olt
rew s
umb ers
Ġannoun cing
Ġstream ing
Ġbroadcast ing
ĠBas il
Ġsque aky
ropol is
Ġhal ves
Ġculmin ated
ĠBes ides
Ġsophistic ated
Ġb a
ĠL omb
Ġcl usters
Ġca w
ap or
Ġdes erves
Ġpat ent
Ġgener ic
ov ina
Ġscare s
ĠBamb i
Ġt ang
ĠF en
omet ry
Ġfl aw
Ġtest ified
ĠBar ney
cl air
ĠRec reation
Ġspr out
yl ie
Ġtherm al
ĠAndre a
t ail
Ġm ock
ĠS ib
Ġli b
ĠC hew
Ġfe eds
ĠG oo
ĠN iger
ĠSt o
Ġfeed back
Ġradio active
ĠCorn ell
Ġdischar ge
Ġdimin ished
is ure
Ġn erve
pl ain
Ġcompl aint
Ġneare r
ĠAmaz ing
ĠShir ley
f ork
Ġh ire
er red
ĠD ame
ĠK arn
ĠLe vel
Ġdev ised
Ġ183 2
Ġmort ar
Ġbund le
ĠLeban on
Ġpsy ched
ĠS C
ĠM ila
ĠE rie
Ġoper ators
Ġregard s
Ġnightm ares
Ġancest or
Ġsweep ing
Ġaest hetic
ĠA F
Ġli vest
Ġhot els
ĠAd ult
rat ors
Ġviol ation
ĠDam asc
ĠEle anor
ĠRhodes ian
al g
ĠM ul
ra pped
Ġcl o
ĠN u
ĠDe xter
ĠCo hen
Ġ185 5
Ġcanc ellation
Ġrend ition
ke e
em a
Ġco ff
Ġcr us
ĠNe ighb
ĠLouis ville
Ġ184 6
ĠA w
ĠR utherford
Ġox ide
c are
Ġre el
ĠW ade
ĠK om
ĠGl oria
Ġearthqu akes
ĠBrad ford
ĠPip er
Ġoffs pring
Ġs or
ĠW u
king ham
Ġreg ener
Ġpay ments
Ġqual ification
ĠCub s
ĠOpp en
ĠO ink
Ġper imeter
Ġmust ered
Ġlad ies
ĠNor wich
Ġsevent y
Ġparalle ls
Ġlivest ock
o ken
Å ¾
re ced
ĠL ey
ĠL az
ĠU ran
Ġrep orters
Ġprin ces
eck er
ĠBar n
fl u
Ġnut ri
Ġinsp ection
ĠMil ton
Ġrepair man
Ġdiox ide
E F
W r
b red
p erson
ĠL ance
ĠM ara
ĠC ret
ob iles
ĠMor oc
Ġinvest ors
Ġharm ful
Ġkneel ing
Grand pa
ĠLaf ayette
B orn
Ġn as
ĠG Ã¶
ĠN ig
Ġpres umed
Ġprem ise
Ġgalax ies
Ġplum age
Ġo ath
al ore
Ġsk irm
Ġdis in
ĠCh ang
Ġra ises
ĠCo ch
Ġgen et
Ġprinc ip
C rit
D a
at ri
ĠM itch
ĠW itch
Ġsl apping
Ġsub mit
Ġloc als
ĠSh o
ĠWar riors
ĠMe et
Ġuncertain ty
ĠStock holm
i ara
at ches
ĠL ana
ĠI sh
ĠN im
Ġexc ite
Ġspec ially
ha us
Ġallow ance
Ġmos que
Ġarchitect s
ĠAC C
ĠG ael
Ġwarm ed
ĠHar bour
Ġtempt ation
ĠEnvironment al
Ġd ys
Ġshe riff
Ġde leted
Ġun int
Ġcommemor ate
Ġsovere ign
ĠHumph rey
Ġwa king
Ġp antry
ĠS ever
ĠJ or
ĠP on
ven ge
Ġremn ant
Ġcateg or
Ġaccus ations
H old
T e
ou k
ĠS our
im son
et her
ch anted
ĠW id
Ġman oeuv
ĠAr cher
Ġdef ining
Ġbur gers
ĠSa udi
Ġwrest ler
ontin ental
ĠNat al
ĠS ah
ĠH ous
Ġdisc o
ĠMar ian
ĠAn imal
ĠTw in
Ġquestion ing
ĠÅ ł
Ġartif acts
ipel ago
Ġschem es
ĠDamasc us
c u
it ory
Ġd umb
ĠB uster
ĠG ear
ĠN ame
ĠHar riet
Ġpartic le
ĠNorth umb
Ġshr ank
ĠGeorg ian
Ġris ky
ĠDec l
Ġquack ing
ĠBris bane
Ġt iles
ur ally
ĠC od
Ġcl ause
ĠP ep
Ġperson a
Ġstrict ly
Ġposthum ously
W R
in ished
ong s
Ġhum our
Ġeight eenth
Ġdead line
Ġprof ound
Ġhost ing
Ġexcept ional
m ind
Ġc ages
Ġher d
Ġst er
ĠA N
Ġrelie ve
ĠPer fect
Ġexperi encing
Ġdiss atisf
Ġcontem pl
ĠBuc kingham
Ġpresum ably
r imin
an king
Ġwh ined
ĠG ail
Ġmon soon
Ġinv itations
Ġglitter ed
ĠHy d
ĠNico le
Ġunst able
ĠHispan ic
c or
Ġc it
um s
th ouse
orm an
iny l
Ġinter f
Ġgu err
Ġhero ic
ĠPer u
ĠWho ever
ĠPil ot
Mich ael
Ġinadequ ate
ĠMinne apolis
D OT
es ame
ĠA j
un ned
Ġv iral
ast ered
iv ided
land o
Ġpen alties
ĠPhil os
etch up
Ġhi atus
Ġswirl s
Ġabund ance
ĠLib by
Ġuno fficial
Ġmelod ic
Ġ Ì
Ġg le
Ġha iled
ol in
ace ae
Ġsn apping
ail able
ath on
ĠAl onso
hy d
ĠGrand e
Ġweight s
Ġgorge ous
ĠSans krit
m ics
ĠS ag
ĠC u
ĠJo die
ĠO sw
Ġmess es
Ġdisapp ears
Ġfund ra
Ġhaircut s
hold ers
ĠDog gett
ĠVol ume
Ġteen ager
Ġa rom
ĠC ros
Ġinter c
let te
Ġdisapp ro
Ġdeb ated
Ġdig s
Ġportra its
Ġto b
Ġwater mel
Ġcr ickets
Ġmug s
om orph
ĠHe ming
ĠL anka
Ġmom mies
Ġal oud
ĠE MI
Ġhand les
Ġbre ach
Ġinf ilt
Ġdef ine
Ġcor poration
rain ts
ĠThor pe
Ġfert il
Fr ank
reced ented
S us
e g
h ail
Ġh ub
Ġsp ans
ud er
th rop
Ġz inc
Ġrail ways
Ġconsum er
ĠCrit ical
if ton
Ġadd itions
Ġbroad er
Ġcher ished
ĠMo le
Ġconqu er
Ġadvertis ements
w he
ĠC otton
ĠG ri
Ġac ids
Ġed itors
Ġfact ories
Ġshore line
Ġ185 3
Ġpad s
ĠPers ians
el i
Ġpr ank
Ġres ume
Ġant agonist
Ġjoy fully
ĠHam pton
Ġgrant ing
Ġsed iment
E T
m ination
ar ck
Ġth or
Ġsp ine
art a
ma king
Ġbuild ers
any a
ĠAnn ual
Ġcolon ists
Ġfulf illed
Ġguarant ee
Ġcomed ian
ĠMam ma
Ġf ries
at ories
op ter
ump er
ĠV irt
Ġcool ing
Ġcal f
Ġcollect ively
Ġanch ored
Ġbound ed
Ġunp recedented
Ġaccur ately
ar u
at ivity
ĠF ine
Ġbr ood
Ġbal c
ĠThanks giving
rox imately
id ad
ĠF ow
ĠP red
Ġfo am
ting ham
Ġcharacter ised
Ã© r
Ġsouth ward
Ġhang ers
Ġ184 1
Ġsen ator
Ġtim id
ĠBeat ty
Ġvirt ue
ĠAzer bai
in ting
ĠC ay
Ġdep ress
Ġmill s
ĠSw im
ĠRos en
Ġmechan isms
Ġpeac ock
ĠPanther s
Ġen abling
Ġball erina
ĠOr lando
Ġmeat balls
Ġglitter y
Ġdiff ers
Ġconvent ions
Ġfare well
Ġnomine e
ĠEpisod e
Ġorient ation
Ġr outed
Ġpo pping
ĠIs abel
Ġhunt ed
Ġstuff ing
Ġhy ph
ĠMir anda
ĠSk ip
ĠNic ol
Ġ eter
Ġf res
id ium
Ġcl ad
ĠE cho
ĠAd olf
Ġkilomet re
ĠHok ies
ĠM ana
Ġfun nel
Ġab duc
pl ane
Ġun beat
Ġte apot
ĠY uc
Ġhat ched
Ġcomb ining
ĠAut o
ĠCase y
c ane
Ġy umm
Ġpres chool
Ġinter act
Ġsell s
Ġsimilar ity
Ġpromin ently
Ġconcent rations
ĠKr ishna
Ġresemb lance
ĠPalest inian
Ġguarant eed
R ad
ĠS iege
ould er
ĠP aw
ĠR az
Ġdr ought
Ġel imination
ĠY ale
Ġclin ical
Ġt ides
Ġsh immer
ĠE b
ĠN olan
ĠV room
ĠBr u
Ġsub c
ĠValent ine
Ġscutt led
ĠPriv ate
ĠVenez uel
ib les
ĠCar penter
Ġeight y
Ġrhyth ms
Ġcompos ing
Ġdies el
ĠFull er
Ġaston ished
j ust
v ie
Ġw ives
ĠT ouch
ut z
ax y
Ġhum med
Ġingred ient
Ġbinocular s
il us
Ġst re
ĠC ock
Ġancest ry
Any time
Ġt ents
ĠT ong
Ġr aking
ĠB rett
Ġwh ites
Ġover fl
Ġmat ing
bo ats
Ġwood cut
Ġinter im
Ġshr ug
ĠHor ror
ĠGi ven
ĠâĻ Ń
Ġpecul iar
Ġp ard
ĠS ou
Ġ. .
ĠK athy
Ġsqu ir
Ġmix es
Ġfront al
Ġkingdom s
ĠVer de
Ġrecover ing
Ġodd s
Ġecc lesi
ĠCec il
S c
d al
Ġt renches
el iness
Ġwh irl
as ma
Ġint ently
ĠK amp
iv ier
Ġexp ired
Ġsweet er
Ġtrans m
ĠHo pper
Mag gie
Ġhect ares
g re
Ġp ub
Ġman ned
Ġwhere by
ik k
Ġspo iling
Ġ184 4
ĠSey mour
Ġm ates
Ġsp ore
Ġch ant
Ġbl ushed
umb ent
Ġpurch asing
che v
Ġsymp ath
ĠMetro id
m ass
Ġpo ets
Ġcat aly
Ġgl ory
Ġdoor step
Ġriver bank
igg ins
ĠOr k
ĠComp lete
Ġbackground s
ĠOak land
Ġreop ened
w ak
ĠS aff
Ġwar ns
ĠSh annon
Ġart ic
ĠPe ep
Ġelect rons
ĠSupp orting
Ġpion eer
Ġpatron age
ĠPrim ary
ĠCinem a
re led
Ġl av
ot he
Ġon set
ĠB j
Ġ20 5
ĠBr ady
Ġland own
Ġteam work
Ġem bed
ĠPr adesh
Ġseat belt
ĠPro vin
ĠWin n
Ġpinch ing
Ġflav our
ĠInter ior
ĠCorn er
ĠWr itten
Ġtrem end
ĠCris is
Ġs ipped
om ans
ĠAr chie
Ġconf ir
ĠWar wick
ĠHistor ian
Ġboil er
ĠCoal ition
ĠLoy al
Ġher ald
ent in
Ġhis ses
ul ator
ĠG emma
Åĵ Yay
Ġwag ons
Ġcras hes
ĠWild life
Ġexclud ing
ĠMans field
Ġbubb ling
ĠMethod ist
l ord
Ġp end
Ġhe ter
Ġpro se
Ġinc on
Ġent ity
Ġins ists
bled on
Ġfulf ill
Ġnurs ery
N ina
am ph
os c
Ġde ity
Ġdis qual
ze g
Ġstra ined
Ġwest bound
ĠMo e
Ġge ographical
Ġexped itions
ĠSystem s
Ġcounterp art
Ġco gn
Ġimp acted
Ġche etah
Ġcome back
ming ton
Ġdisapp ointing
Ġborrow ing
Ġassoci ates
ĠLi u
ĠBer gen
Ġ179 0
Ġreform ed
ĠMi y
O L
Ġex otic
ĠP ee
Ġsn eezes
Ġsqu inted
ĠTr ad
min ent
umber ing
Ġsatisf ying
ĠTrans it
Ġelement ary
Ġ177 6
Ġprompt ly
ĠWes ley
Ġsket ches
m ala
Ġf als
Ġal k
ab ul
Ġtr aces
Ġbox ing
Ġpun ct
Ġfac ial
Ġmetap hor
ĠShack leton
C o
P er
c ard
ĠHe ather
ĠM ist
un ion
op ot
ĠAl ien
Ġsoft ened
ĠGeor get
Ġbi ology
Ġ183 6
Ġadj usted
Ġreun ion
Ġconstitu ency
Ġsupern atural
in as
ac a
Ġre acted
Ġreal ism
Ġinv as
Ġnumber ing
Ġdef icit
Ġmot ors
ĠCar ly
ĠGu est
Ġtick ling
ĠCla ude
Ġtransp orts
Ġregist ration
Ġri ots
Ġsitc om
ic ol
ly ph
Ġk etchup
Ġwarm est
Ġcreat ors
Ġel ong
Ġph arm
ĠCar roll
cl ock
Ġpred ator
ĠBel arus
imet ime
ĠAtt ack
ĠByzant ines
Ġintegr ation
ĠShar p
Ġlegend ary
ĠS uccess
el o
ag ne
res cent
ĠZ ach
Ġgas oline
ĠMaj esty
Ġcongress ional
ĠTel ugu
Charl ie
I nd
pp e
ĠG ott
ĠLe ip
ĠRe vere
arl ane
ĠAra bs
Ġfet ched
Ġcarn ival
M ike
r ill
Ġl ens
Ġp orn
Ġro be
Ġcons erv
ina e
ĠPr imetime
Ġpost ing
Ġ183 7
ĠTre asure
ĠArab ia
Ġutil ized
Ġpla que
Ġphyl ogen
O pen
ĠL iv
ĠM GM
ĠF ind
us a
Ġbet a
Ġins criptions
ĠFif i
ĠAngl ican
u h
ĠT act
at as
le z
ĠH ess
ĠShe n
ĠM atch
ĠF ast
ĠN ortheast
Ġper t
Ġaccount ed
ĠKap oor
ĠZag reb
r ust
Ġb illed
ĠL oop
ĠF ey
Ġno bles
ĠK iel
od ied
ĠV as
ĠThank fully
ĠChrist ina
atter ing
Ġsurf aced
Ġassoci ations
Ġrenov ation
Ġthorough ly
F R
M oo
in ch
ĠM its
by ter
ĠV ishn
Ġexerc ised
Ġresemb ling
Ġcho pping
ĠHait i
Ġrh ino
k ar
m us
n ant
Ġcat cher
Ġcross over
ĠGu am
Ġjoint ly
ĠPerson a
Ġcounterp arts
ĠAber d
Ġb ait
il o
ĠS tern
Ġfun gi
ab ase
ick er
ĠSt anding
Ġsweet ly
ĠGl ac
Ġdism ant
Ġconfron ts
Ġprest igious
ĠL C
Ġre pt
ĠM iz
ĠA val
op oly
ĠN in
ish a
ĠO S
ane y
Ġstri ker
Ġcor onation
Ġinform s
ĠAg ent
ĠKn ox
ĠWell es
ĠKa hn
ĠScient ific
Ġterror ist
ĠChick ie
Fl uffy
Ġl ur
ĠH its
ous y
ĠGet ty
ĠLex ington
Am ong
ĠGaz ette
ĠGuate mala
UC N
Ġm ould
ĠH ack
ĠI UCN
ell es
ss es
Ġcomp ose
Ġfire flies
Ġfavor ites
ik y
Ġmater nal
Ġunexpected ly
ĠCommun ications
ĠS itting
ĠI gn
Ġpl ots
ist on
Ġcon ning
ĠLe opold
sc otch
Ġment or
Ġdevast ating
ĠMong ol
ĠDaw son
Ġrecall s
ĠWim bledon
ĠOppen heimer
Ġt rop
it ia
is co
ĠS ask
ĠD ixon
Ġcon sec
ape ake
Ġagree ments
ĠAnt illes
Ġtap es
Ġvac ant
ĠSin atra
Ġsouven ir
Ġb anging
Ġplay house
ĠW ad
ass ium
Ġinc arn
ĠCh ambers
Ġmountain ous
Ġfold s
Ġ183 9
Ġdownload able
Ġsurve ys
Ġvamp ire
ĠHast ings
Ġf usel
Ġl ith
ill on
Ġsee ks
Ġeast bound
ĠCong o
ucle ar
Em ma
ĠiP h
' ,
and ra
ĠG ore
ber n
Ġstore y
ĠCo vent
Ġauth ored
ĠItal ians
Ġintegr al
ĠHoot ie
ĠHoff man
E ven
H oney
h rer
ĠShe riff
ht on
ĠF alk
Ġexpl ode
ĠWh ich
Ġgener ating
Ben ny
Ġrod s
ĠMo or
Ġpepper oni
Ġoccup ying
ĠSound track
ĠBor is
Ġrecruit ing
Ġt ugging
anc a
ĠAll ie
Ġimag in
hibit ion
Ġautom obiles
Ġdiss ent
ĠAlb ion
Ġrent ed
d ad
ur ai
Ġbo iled
ĠP upp
av ier
Ġsand pit
Ġbat t
Ġtrain er
Ġmill er
Ġiss uing
Ġlab elled
Ġteaching s
intend ent
ĠJos ie
is he
ĠA ce
Ġup stream
ĠF erry
us ions
ie u
Ġun pr
Ġemb assy
Ġenc ir
ĠAir ways
omb at
ĠChief s
ĠAbb as
Ġwatermel on
Ġr ips
ĠM aking
Ġal phabet
Ġpr one
ĠCol bert
Ġbur den
ĠCo pper
Ġdeb ts
Ġagree ing
ĠBel grade
Ġadvis ory
Ġcampa igned
Å Ħ
at c
Ġex ting
ĠMiss y
Ġcalc ium
Ġaim ing
ĠStart ing
Ġmarvel ed
Ġpap al
ĠHeming way
J ake
M D
Ġl umin
ul ative
ĠTom ato
ĠR ag
Ġhead ache
Ġcons ort
Ġsub pl
Ġfit ness
Ġla un
isc opal
g un
ĠS MS
Ġr ink
ĠB reed
art ing
reat h
Ġen vision
Yes terday
ah o
Ġgrandchild ren
ĠMcL aren
ĠGuerre ro
ĠGael ic
p arts
Ġo val
Ġp ater
el ius
ĠB f
ĠA bo
ion ed
ud y
ber to
Ġey ew
ĠPl ains
ĠCar rie
Ġsurv ives
Ġoverl ap
Ġconsolid ated
in ate
Ġp agan
Ġg ale
ĠJ as
ĠC edar
Ġcons oles
ĠMc D
Ġmel ons
rac use
Ġbroadcast s
ĠHard ing
Ġramp s
ĠExpress way
ĠAnim ation
ĠWis den
Ġenthusiast ically
ĠB ard
ĠM are
ĠA chie
ur ated
Ġman ual
unt a
Ġtrans mitted
Ġemb ry
Ġcher ish
Ġdisp ersed
ĠMcC l
Ġrit uals
F our
H mm
f ax
ĠD und
ĠBen edict
Ġball ads
Ġcomp elling
Don nell
ib i
Ġtreat ing
Ġtid al
Ġuncom mon
Ġens uring
Ġobt aining
Ġ46 0
ĠHy de
Ġobst acle
ĠBritt any
Ġforbid den
g il
ĠT oto
ĠL ass
un ct
ĠAr ist
Ġpress ures
Ġcapt ains
ĠÃ ħ
Ġdivision al
ĠBart on
Ġreact or
Ġthirt eenth
Ġcoug hed
ĠVishn u
ĠS ul
ĠL ara
ĠM echan
ĠSt ark
ĠSt rip
Ġlast s
Ġprof itable
ĠProfess ional
ĠSpe aker
Ġenzy me
ĠOrk ney
C O
Ġwa nna
ĠL ux
Ġab n
Ġgra ins
Ġcontin uation
Ġhum orous
Ġspr int
Ġtermin ated
vest on
Ġfusel age
A ng
Ġb ord
Ġh ips
an ie
ĠS P
Ġpl ains
Ġse am
Ġle ased
Ġab bey
Ġsw apped
Ġquick er
ĠWorld s
Ġden y
ĠStud ent
Ġ183 5
Ġremix es
Ġresid ences
Ġhyph ae
m id
Ġd ashed
Ġl antern
ĠHe ar
Ġkey hole
Ġmot ions
Ġgas es
Ġconsult ant
Ġgro aned
Ġt ing
ac ious
st age
ĠB end
Ġwh ipped
if a
ĠP ig
Ġbl oss
ĠAg ree
Ġthread s
Ġframe work
ĠChes apeake
t ical
Ġl or
ern s
rag ue
Ġfright ening
Ġdepos ited
Ġemotion ally
Ġmoist ure
emble y
Ġtob acco
Ġ ã
Ġh udd
Ġstar board
Ġmon k
Ġcomm ittees
ĠRe in
com b
Ġentire ty
isc al
ĠMel ody
Ġvir uses
Ġfunn iest
l ore
y an
an za
st a
ĠB Ã©
ĠJ ain
ĠW embley
ĠE ra
ĠE gg
ĠCr an
aren ce
Ġconcur rency
Ġgoalt ender
ĠKann ada
ĠCros by
am oto
ĠP ond
ĠN ib
ial s
pt s
Ġun ified
Ġunf av
ĠOtt omans
Ġshif ts
Ġgri nd
! '.
it us
Ġg a
ri f
ĠD ancing
Ġtr act
Ġun av
ĠBe ep
Ġcelebr ities
Ġknob s
Ġunf inished
Ġhis sing
ĠR BI
ĠK or
ĠWe e
Ġdis organ
Ġsub f
Ġpop ul
Ġgrad ual
Ġdelay ing
ĠSocial ist
Ġcoinc ided
ĠVoy ager
Ġbesie ged
F arlane
is ie
Ġha ul
ĠE ly
ab we
Ġad ul
man uel
Ġatt racting
sh am
Ġfish y
Ġind ex
ĠMar cel
Ġintens ification
Ġrum ours
Ġcro aked
ĠKra k
imb abwe
ĠTasman ia
ĠStephan ie
u ber
Ġw itches
Ġb inary
ĠL ots
Ġso da
as i
ĠD ew
ĠP ath
Ġv inyl
Ġind oor
Ġsy ll
Ġshy ly
Ġdet ection
ĠCr ist
Ġ179 9
Ġneut ron
Ġbankrupt cy
ĠPhant om
Ġloos ely
ĠP av
Ġch ords
ĠR ise
ĠG ir
Ġgra zing
Ġcr ouched
ĠV eter
ĠAl c
Ġambit ion
Ġbattlecru iser
Ġsulf ur
Ġreferen ced
Ġsad dle
Ġover looking
Ġlong time
ĠTh irty
ĠBr onze
Ġthumb s
ev o
ĠSlo ven
Ġconting ent
Ġha mp
ec a
ĠJ MA
ĠD ata
Ġbl essed
Ġcomp uls
Ġrev ision
Ġdeterm ining
Ġgas ps
isher s
Ġconstit uted
ĠWeb ster
pow der
c led
z an
Ġt rench
Ġp amph
ur ned
ra ges
ĠP P
ĠN ep
ip ed
Ġho ly
ĠSt oke
Ġimp ed
Ġrep eal
Ġcirc ulated
osaur s
ĠSy racuse
Ġir rit
ĠWy oming
ĠSurv iv
Ġmerchand ise
P o
Ġf u
ĠS olid
et ers
ĠB rent
ĠAfter ward
Ġimportant ly
ĠMo h
ĠJour ney
Ġeru ptions
Ġpersist ence
o que
Ġt ens
Ġl ing
ĠHe ights
sh irt
Ġdisc arded
Ġju ic
ĠBat tles
Ġ182 9
ĠKr usty
Ġbombard ed
ĠRepresent ative
Ġpian ist
Ġunbeat en
A choo
Ġm it
ĠH ours
ĠH ipper
ĠHe idi
ĠL angu
ug e
Ġkn it
Ġold s
Ġsub mission
Ġsol itary
Ġ30 5
ĠSouth west
Ġdiscuss es
Ġident ifying
Ġdial ect
Ġdismiss al
ĠSin clair
Ġmemoir s
ĠGent le
L L
ĠA by
Ġal igned
ĠK ylie
ves ter
Ġmagic ally
ĠSm oke
Ġcop s
Ġconstruc ting
Ġprol onged
Ġslither ed
j ord
Ġto ad
ĠH ag
Ġst ains
Ġqu ot
Ġmag ist
ĠY oga
ĠBo hem
Ġopt ical
ĠLegisl ative
g ood
ĠHe br
Ġwh imp
ĠE lement
pt ical
Ġrem atch
Ġtre ason
ib bit
na pped
ĠPaul ine
ĠJul es
ĠSty les
Ġcoug hing
Ġmetall ic
Ġplayd ate
P l
w riters
ĠD iet
oc cup
ters on
Ġshr ine
Ġchew s
Ġprogram mes
ĠRob ot
Ġpersonal ities
Ġens ued
Ġdiff ered
Ġrender ing
Ġcurric ulum
L a
Ġl ac
en ic
Ġinc umbent
Ġtra vers
Ġstri pe
Ġmuseum s
Ġ183 8
ĠNur se
ĠShang hai
Ġgamb ling
ĠiPh one
M C
Ġp out
ĠB A
ĠB ism
Ġle ans
ĠSt amp
Ġvis ibility
ĠSh are
Ġep ide
ĠFr itz
ĠJul ius
Ġmob ility
ÅĵWe Ã¢
Ġverte bra
ĠGosp el
enh agen
e ering
o ors
Ġa uxiliary
Ġw rench
ul ip
ĠF actory
Ġle vers
ĠHer zeg
Ġpain ters
Ġcra fted
Ġextra s
ĠWil f
Ġdestr uctive
ĠBern ie
Ġintention ally
Ġstrateg ies
Ġrecr uits
haw k
k ie
Ġlo ans
Ġbo lt
ag her
Ġpro ps
Ġus eless
Ġrepl ica
Ġem issions
ho e
Ġexceed ing
Ġobvious ly
Ġsoph om
Ġinstinct s
r ings
r uct
Ġp ounced
ir us
ĠR oo
Ġfo ggy
be ep
ĠEm inem
Ġtow ed
Ġexcept ions
ĠBird ie
Ġlat itude
Ġquant um
Ã± a
Ġsuspic ion
ĠDecl aration
S andy
ĠT ud
Ġe llip
ul ent
em b
Ġen roll
iv orous
Ġstr icken
ĠSt ret
air y
ann i
ĠGl ory
ĠKh rush
Ġretreat ing
Ġspan ning
Ġrig id
ĠCly de
Ġhamp ered
P r
Ġst rolled
ĠB ing
ĠM CC
ĠR ican
Ġsur n
Ġfr on
uff s
Ġpair ed
Ġanx iety
ston ecraft
ux e
ĠRon nie
Ġreproduc tive
Ġcant ata
1 1
Ġf art
ĠI g
ĠW ine
Ġint ensive
Ġatt ain
Ġcontin ually
ĠZ iggy
ĠPl us
Ġcost ly
Ġpil ed
Ġquar reled
ĠMo ff
ĠMaria h
Ġallig ators
ĠMos es
Ġliber ty
ĠBatter y
ĠHe p
Ġar ches
Ġche mic
Ġhop scotch
ĠWar rior
Ġfoot prints
Ġinfl ation
ram ent
Ġcourage ous
ĠUnder taker
ĠCamp us
ĠProv idence
ĠAbd ul
Ġamphib ious
ĠVern on
ĠWand erers
ĠKhrush chev
Ġchemic als
g io
l ot
re c
Ġg ast
ĠD olph
ĠG row
Ġkid napped
Ġbow ing
Ġbaby s
ĠZ imbabwe
ĠCo dy
ĠTw ilight
Ġ183 1
Ã³ w
Ġadvis or
chw ader
Ġunemploy ment
Ġcounteratt ack
P at
g ue
Ġal umni
Ġbus hy
Ġmin istry
Ġsat ire
ĠMer cy
Ġbene ficial
ĠNaz is
ĠCrit ic
Ah oy
F ire
Ġp acks
Ġpl aza
Ġwe Ã¢
Ġle v
ĠNe g
Ġins cribed
ĠEx change
ĠGood man
hard t
enz ie
D anger
Ġf anc
Ġr ins
Ġr att
ĠB ax
ill ance
Ġgl immer
ĠChrist ine
Ġobject ions
ĠAg nes
ĠSix th
Ġranking s
ĠAub urn
ĠHein rich
e ur
at um
Ġg aps
ĠC ory
Ġsp erm
op ing
op ods
Ġcl utch
ĠK Ã¶n
Ġend eav
Ġdis ast
ĠV ocal
ĠPe anut
ĠNot tingham
ĠWat ts
Ġtiss ues
sk irts
ĠComple x
v ol
an u
Ġsp or
Ġpo kes
Ġthr ill
Ġgl am
aw i
Ġsho el
Ġdep ictions
Ġprot esters
ĠPe ak
ĠBlack burn
Ġsequ els
Ġren umbering
ĠSpec ies
ĠCop enhagen
Ġreconstruc ted
c over
w ord
el man
ĠC ul
Ġlike wise
ĠCh amp
ph is
ĠSh ould
Ġmid st
ĠCon rad
Ġill um
Ġsle nder
Ġ184 3
ĠTor ch
ĠGal veston
ĠClark son
ĠRand olph
Ġninet een
ĠMeteor ological
f inger
in ent
Ġout line
pl in
Ġshow ers
ĠV ij
ĠAll ison
Ġmoral ity
ĠEur o
Ġmagn ifying
ĠBook er
Ġsubs id
Ġtot als
ĠAle c
ĠAlexand ra
Rober t
ĠCret aceous
am ily
ĠA ston
Ġse ab
qu el
ĠAmeric as
ĠMar ion
Ġgun fire
ounc ill
ĠOther wise
ĠDev ils
Ġsu ite
ĠPhill ip
Ġsuperv isor
ĠGust av
ĠHig her
Ġprecurs or
re sh
Ġp oo
Ġout flow
Ġout skirts
Ġab ortion
Ġdec ent
Ġdown loads
ĠJack Ã¢
Ġdis par
Ġbra ke
Ġturn pike
Ġbowl ers
ĠCar son
Ġdeb ates
ĠStud ents
Ġ184 2
Ġ180 1
Ġ181 5
Ġpoet ic
Ġut ility
ĠFed erer
roph ies
Ġfier cely
ĠChallen ge
ar r
at z
ur nal
ĠTom b
ĠP s
ĠR B
ĠR ut
Ġend emic
ĠEm press
ib ald
ĠAugust ine
Ġcirc led
Ġstat ic
Ġins ur
Ġnic est
ĠPar ish
Ġspend s
ĠNick y
Ġunw rapped
Ġadvis ories
Ġaqu atic
ĠNell ie
z ier
Ġf oul
Ġl ag
ar f
ĠS elf
Ġcl ients
ĠK erry
og ical
Ġlon eliness
Ġcann ons
Ġrob ust
ĠÂ ½
ĠWest on
Ġmarket ed
sequ ent
onom ous
ĠPres byter
Ġinform al
Ġhyd ro
ĠYuc at
Ġã Ģ
Ġint imate
ĠSt reets
ĠCh am
red it
Ġacade my
ĠLad ies
ĠH olid
Ġre igning
Ġam ino
ib an
imin al
ĠArt ists
ĠVis ual
ĠBomb ay
ĠDy nam
Ġprosper ity
Ġlull aby
Ġbackd rop
Ġabstr act
t hat
her s
ra sh
Ġrec reation
Ġgentle man
ĠUS AF
ĠSl ant
ĠTrans yl
Ġgym n
Ġchore ography
ĠH imm
Ġsh ave
Ġout n
Ġde ities
Ġte amed
ĠY o
Ġcur se
Ġprop ulsion
Ġfail ures
ĠMid way
Ġsne aks
Ġexerc ising
ĠRail ways
agu ar
ĠMonth ly
ĠUk raine
Ġsoot hing
Ġunrel ated
ĠHutch inson
ĠPitch fork
ĠLeip zig
im acy
ĠH ale
ĠB uffy
ĠM Ã¡
ul atory
ĠK un
ĠO wn
Ġam usement
Ġcons cience
ĠAm i
ĠDavid son
Ġder ives
Ġ48 0
Ġconst ellation
Ne ill
Ġhoo ves
Ġinex per
Ġm aid
Ġday light
ĠC age
ĠG iro
Ġair play
Ġgroup ed
ĠWar ning
Ġlim iting
Ġattend ant
ĠParliament ary
ĠGal axy
ĠId aho
Ġreproduc tion
Ġreleg ation
Ġsubordin ate
Ġ icky
Ġw icked
ĠT oys
ĠH im
ĠL ines
ĠN ES
Ġrel ate
uri an
Ġcream s
Ġopp ose
keep ing
ĠCzech osl
Ġexcav ated
Ġeld ers
ĠMagn us
ĠObserv atory
i ago
ĠB ates
ch ond
ĠG anes
fe ated
ĠLe ad
Ġmemb rane
field s
ĠVlad imir
k ill
ĠL un
Ġr ab
ĠC ars
Ġbo d
Ġsw itches
Ġinc ap
ĠBl ink
ĠNorth umberland
Ġoccur rence
ĠTest ament
Ġintersect ing
ogen ic
Ġallerg ic
K O
T w
Ġre r
ĠR ou
ater al
Ġind ie
Ġcoll ided
ĠSl ayer
Ġcult ivated
Ġdom est
Ġmanufacture rs
Ġreject ion
ĠAmaz on
Ġst ellar
ag ements
ap y
Ġpe er
ĠLe a
Ġinter fe
Ġsear ches
Ġexam s
Ġpra ises
Ġbas al
Ġcooper ative
Ġassum ing
Ġh Pa
ic z
Ġapp eals
ens en
Ġequ ality
ĠCo venant
au kee
ĠClass ical
ĠTrin idad
Ġn atives
ab out
ĠR ocks
ition ally
Ġind ication
Ġmind ful
ipe g
Ġaut o
ĠAndrew s
ĠCa uc
Ġcens orship
Ġgran ite
GB T
, '
ĠT uls
ĠS au
ĠB ug
ĠB aja
Ġli bert
ĠF ig
ĠIn ch
Ġper secution
Ġide ology
ĠAl leg
Ġind oors
ĠTr acks
ĠEl vis
ĠSl am
Ġmission aries
ĠBay ern
Ġshif ting
unning ham
Ġconcurrent ly
p iece
Ġin herent
ĠM A
ĠJ ab
Ġsc iences
Ġep onymous
ĠCl arence
ĠQu int
Ġcritic izing
Ġident ifies
ĠApp eals
Ġ41 0
Ġaffect s
ĠKey s
ĠWeb b
m ade
Ġg ut
ĠL uz
ĠD orset
ĠF olk
ĠP or
ĠR otten
Ġsn orted
Ġgl oss
Ġhold er
Ġsub str
ĠAd vis
Ġbloom s
ograph ies
ĠSal ford
Ġresemb led
Ġupd ate
Ġbrut al
Ġfir ms
ĠHerzeg ovina
E ach
S T
i w
m ia
Ġthe ft
is ely
ĠL Ã¼
ĠD rop
Ġco ined
Ġgra ves
ĠNo el
te gr
Ġimpact s
Ġcinem atic
Ġdoub ts
gor ith
r ots
Ġc ope
th a
Ġde eds
ĠO uch
Ġloud est
Ġatt itudes
Ġstrong hold
Ġref urb
ĠInd ivid
ĠIs la
Ġprotect s
Ġins ul
Ġhost ilities
Ġmodel ed
Ġtick les
Ġluck iest
Ġ179 4
Ġproduct ive
Ġver dict
ev iÄĩ
ĠTs ar
Ġoverth row
Ġtant rum
ĠS ug
st idia
nt on
ĠG em
Ġfl att
Ġbar ometric
ĠGerman ic
Ġtemper ate
Ġlik ened
Ġprem ier
Ġ179 8
Ġmast ered
ĠFriend ship
Ġintegr ity
Ġisot ope
5 0
Ġha re
ĠB il
ĠR OK
pl ant
Ġsl aughter
ĠJen kins
ah u
Ġpast or
ĠMad ras
ĠRock ets
Ġlumber jack
ĠBed e
ĠTol kien
h ir
Ġb io
ĠB reck
Ġal pha
ĠG olf
ĠG aming
Ġsqu eezes
Ġexp end
Ġind ef
Ġcor rupt
Ġnovel ist
Ġtooth brush
Ġappeal ing
Ġsymp athy
Ġrepet itive
A lex
h il
n ance
it he
ĠL akers
ĠA ch
ĠHer man
Ġesc orting
Ġcoin age
Ġcor rel
ĠLoc ke
Ġmargin al
Ġlun ar
ĠStri ke
Ġaudition ed
ĠFrey a
ĠAgree ment
n an
ĠA br
ĠJ ade
ĠK re
Ġun ions
ps il
Ġpract ition
ĠEd dy
ĠEl i
ĠRiver a
Ġpriv acy
ito chond
Ġ180 9
H aving
l ook
ĠC ord
ĠO z
Ġdiss olution
Ġdisappear ance
Ġbes ides
ĠMatthew s
ĠLem on
E nd
Ġf ences
ĠS ut
le en
ĠB ie
ĠB isc
ĠR ough
ĠG ibb
Ġfin anced
Ġcr ater
Åĵ How
Ġcomm ence
ĠAr row
ĠPl ain
ĠPl atinum
Ġins ight
ĠBar ack
Ġattract ions
Ġprob able
Ġrac er
rr rr
ĠBro ken
Ġsuperv ised
Ġsuperior ity
Ġmerc ury
ĠLiter ary
Ġcamoufl age
O P
ĠM ell
Ġas pir
ĠC it
ĠIn stant
Ġair ports
Ġobser ver
ding ton
ĠMem phis
ĠAI F
ĠRand all
Ġprol ific
ĠLeaf s
Ġinterven e
Ġhover ing
Ġcylind rical
c ats
ĠB rom
ous el
ĠIn qu
ĠWe Ã¢
Ġbuy s
ĠChar ter
loo ked
Ġaccess ion
Ġmulti pl
Ġaccomplish ments
ĠCair o
m ay
ĠP hel
ip se
ign e
Ġam alg
ĠAl ger
Ġdead ly
ĠEx eter
Ġcos m
Ġpeas ants
Ġcu is
Ġskelet ons
g ren
nd heim
Ġm as
Ġn apped
op er
Ġ' '
Ġow ning
Ġtrust ees
ĠLind say
ĠOff ensive
ĠRome o
Ġdigit ally
Ġmim ic
Ġpreval ent
ĠDisco very
I N
ĠB elt
ĠR ia
Ġfle eing
ĠLet ter
Ġpot assium
ĠInt erc
ĠEl se
Ġmeasure ment
ĠBo ss
Ġkay aking
ĠSil ent
ĠPre vious
ĠHero es
Ġreapp ear
ĠIb n
Ġgrav itational
ĠGeorget own
Ġwa ge
ur u
ĠD ow
ob il
Ġam end
Ġeng agements
ĠSe venth
ĠProg ress
Ġsuspect s
Ġtrun c
Ġdreadnought s
Ġcertific ate
Ġineff ective
am orph
ĠAr n
bor g
Ġkangaroo s
Ġcliff s
Ġswims uits
Ġbalc ony
Ġtremend ous
Ġf iscal
en za
Ġsh ades
ĠD im
fore st
od ing
ĠBr uss
ĠBat ista
Ġinfl amm
Ġtrust y
Ġtrad ers
gl ades
Ġaffili ate
ĠCommer ce
Ġcoord inated
ĠTurt le
ĠMetall ica
Ġst alled
ĠP ale
Ġunder going
Ġinter ception
Ġform ats
ĠÂ ±
ĠPar agu
Ġlamp s
ĠNot able
ĠCle ar
Ġdomin ate
Ġwigg ling
Ġ85 0
Wh ich
Ġfacil itate
Ġenvision ed
1 8
Ġd well
et ti
ĠShe pherd
ĠR ide
Ġim minent
Ġunder way
Ġdep ressed
Ġgovern ors
Ġtechn ically
reg or
ĠAc ross
ĠMa isie
Ġwebs ites
Ġdefend ant
ĠPop M
Ġexpress es
Ġmemorial s
ĠDiv isions
Ġdisast rous
v ana
re rs
Ġh ilar
Ġo mitted
at ile
om o
ĠS ons
Ġr all
ĠB orne
Ġend ings
Ġcatch y
ĠCl own
Ġpost season
ĠJoh ny
light s
ĠRob b
Ġbroad side
ĠMil k
Ġsteam ing
ĠField s
ĠJoan ne
Ġcod es
ĠLev ine
ĠFace book
M ay
ĠS esame
Ġbe ams
Ġout post
Åĵ A
Ġrep ro
ĠEurope ans
Ġsil ently
ĠCal iph
Ġintens ify
Ġ181 4
Ġtrun ks
Ġwhimp ered
i op
Ġwh ir
Ġch ili
Ġv ivid
Ġad oles
Ġmus k
Ġvis ually
Ġhop eless
Ġpar achute
Ġsix teenth
Ġsex es
Ġtheat res
Ġ38 0
ĠWork ers
ĠAdv anced
Ġquad rup
E P
O l
w aukee
Ġb ast
ĠL GBT
ry s
Ġtra gic
man ship
Ġrel i
uri a
me re
ĠÂ ²
Ġinsp ected
Ġtrunk line
ĠTa ft
Ġcryst all
Ġconsul ted
bu ilding
ĠNig el
Da isy
s ch
ĠT orn
an ol
ĠD ol
ĠD ina
ĠK w
ĠV amp
br al
ĠRa o
Ġanth ology
Ġobsc ure
Ġpsyched elic
v ara
Ġw ig
Ġh ij
Ġn ave
Ġsp elled
art et
ĠSt acy
Ġcomp rom
Ġcut ter
Ġass erts
Ġow ed
Ġcompl ications
Ġemer gence
Ġcontrib utor
ĠVer mont
ĠBeat rice
Ġinnov ation
ĠAlban ia
Ã° r
Ġspokes man
ĠWinn ipeg
Ġb ail
ĠS ang
Ġe rect
Ġwh ine
ĠW anna
Ġex iled
ĠE cc
Ġint ric
ĠSt anton
uss y
Ġpract ising
Ġproblem atic
ĠGo ing
Ġamb ush
ĠLen in
c ence
st atic
ll er
Ġbird y
ĠFl ow
Ġprov oked
Ġden ounced
ĠEver glades
f le
u o
ad vant
ĠK ant
Ġapp lying
lect ric
ĠMar ina
ism atic
Ġvol ley
ĠPol icy
Ġblood y
ij uana
Ġexplos ives
ĠBry ant
ĠEmer gency
Ġenzy mes
ĠHass ett
Ġb ind
ĠHe w
Ġpre jud
Ġadm iral
ĠBar row
Ġviol ated
ĠMiddle ton
ĠCard inal
Ġculmin ating
Ġchrom os
Ġdispos al
Ġh ates
Ġpl asma
Ġcent red
gr oup
Ġaut onomy
Ġlif elong
Ġpound ing
ĠFly nn
Ġdeliber ate
l ining
at l
at r
ĠH olt
ĠR anger
so lete
Ġun sc
lud ed
Ġep il
Ġsal mon
rib ution
ĠAm ster
Ġple a
Ġ179 3
Ġraid ing
Ġdump ed
ĠAchie vement
Ġd uel
Ġd azz
an ish
oo ked
um er
Ġal gorith
ag netic
Ġ20 3
ger ald
Ġinter changes
vers ion
Ġ23 5
Ġcontent ed
Ġwheel chair
ĠApp roximately
ĠAri el
ĠChap ter
Hur ry
T weet
ĠI rene
Ġover looked
ĠTh umper
Ġset up
Ġchar itable
ĠGod d
Ġrot ating
ĠBism arck
Ġm aiden
ĠD ing
Ġfl uct
ĠK er
Ġcou ples
ĠNe gro
Ġacqu iring
Ġmast ers
Ġcert ification
ĠCart man
ĠPa ige
ĠNa ples
cht ime
ĠMunicip al
n als
w ith
Ġt et
ĠL ip
ĠE ston
est ial
ĠN HC
Ġshow c
ĠV HS
In it
ĠCol ony
Ġec ological
ĠGreen land
Ġagg ression
Ġpedal ing
Ġamid ships
ĠBruss els
Ġ ~
in itely
ĠM erry
ĠA us
ĠP end
Ġrepl ay
ĠSc outs
cl amation
Ġvi able
ĠFil ming
Ġmarry ing
Ġsob bing
ĠMort al
Ġtu ber
ĠAbo ve
c ourt
w h
w elling
Ġc ivic
Ġp s
ĠS K
ĠI A
ag ogue
ĠP Ã©
Ġjust ified
Ġapp et
Ġhit ter
Ġcal ming
ĠHar ald
Ġdev otion
Ġcult iv
ĠRev ival
ĠCare fully
Ġdemonstr ations
Ġvolunt eered
ĠHab sburg
Ġecclesi astical
b ath
le igh
Ġup held
em en
Ġsty led
Ġins ign
Ġsight ed
ĠThom son
Ġham ster
ĠMac Donald
Ġcommission er
Ġ181 0
ĠRel ief
ĠPin chy
ĠAthlet ics
Ġredes igned
Ġdischar ged
Ġshin ier
Ġmetab ol
B ella
b eck
is o
ĠH itch
ri fied
Ġanim ators
ĠV ett
Ġchar ging
Ġprot agonists
cl oped
ĠSy n
Ġobser ves
ĠMont ene
Ġskull s
Ġtarget ing
Ġcong reg
ĠBon o
ĠBark er
Ġmoo ed
U P
ĠT in
ĠH our
ĠI OC
ĠJ elly
Ġar che
ĠF ul
ĠR usty
ber y
olly wood
ĠBra ves
ĠMo ss
Ġlandsc apes
ĠEr nie
Ġelimin ating
ĠBol she
Ġclin ic
Ġprofession als
ĠGene va
ĠiP ad
C ube
R I
ĠI o
Ġtr an
Ġdis advant
Ġinc ent
ost ic
ĠRe bell
ubl ished
ah l
ĠMan it
Ġcrack er
Ġupgr ades
Ġspons or
Ġcolumn ist
Ġphra ses
ĠFranÃ§ ois
ĠJ ude
ĠC ream
ĠD iss
ag asy
ant is
ĠV ent
ott a
Ġve in
Ġdam s
Ġgovernment al
Ġwheel bar
ĠCor p
Ġindivid ually
Ch ar
Ġprogress es
Ġnin ety
Ġconfident ly
ĠLam bert
Ġoxid ation
Ġtribut ary
ĠTrou ble
ĠSalv ador
ĠAmster dam
c us
v able
im ated
ĠB rest
Ġpl ank
ĠF anny
ĠE bert
Ġsl eds
ins ki
Ġright ful
Ġnight fall
Ġplanet ary
ĠGill ian
ĠWhe eler
ĠCornwall is
Ġcer am
ĠÎ¼ m
Ġp iv
ow l
ĠB uggy
ke f
Ġas p
ĠC ensus
um mer
ĠBut ton
Ġag enda
ĠK ol
ount s
Ġrep erto
Ġaddition ally
Ġdelight ful
Ġcupboard s
Ġcorrespond ent
ĠTun is
ĠFitz gerald
Ġembed ded
b ooks
ĠT able
ac adabra
ĠP ion
pr ises
rent ial
ĠDav en
ĠQu ater
Ġimpl ied
ĠTechn ical
Ġastronom ers
Ġcontinu ity
ĠWoll stonecraft
b ard
it ivity
ĠM old
Ġso dium
ĠOn o
Ġun changed
Ġexplore s
Ġflo ppy
Ġob solete
Ġgun nery
ĠEur opa
Ġstri ped
ĠNik ola
Ġcree py
ĠS ounds
ist ice
ĠO kin
ĠTh ink
ĠCh ange
ans en
ĠPl uto
Ġplant ation
ari os
Ġretrie ved
ĠHep burn
Ġthe ology
ĠS earch
Ġex its
Ġfound ers
ge on
Ġbuild s
Ġsub m
ah an
Ġ22 5
ĠDr am
Ġ181 9
Ġ177 5
ĠDet ective
Ġsurge on
ĠSid ney
ĠWals h
Ġc um
ĠB iz
ri o
ĠM ets
ĠW ow
Ġfr amed
Ġtreat ments
Ġ15 00
ĠHigh land
Ġrid den
Ġi OS
ĠRod gers
Ġcrimin als
ĠEve rett
Ġconst raints
Ġlun chtime
ĠHaz el
ĠFern ando
acc ur
ĠImag ine
Ġware house
b uck
f ielder
ut ors
ĠShe ll
Ġst acks
Ġup t
Ġdo ves
ul i
Ġpe aks
Ġrel ates
Ġwall ed
rib ly
ĠHur ry
Ġsevent eenth
Ġdefend ants
Ġalter ations
ĠFay e
ĠAberd een
Ġsophom ore
w l
Ġt icking
Ġst aging
ĠB elf
Ġrepl ies
und a
Ġdig est
Ġaunt ie
Ġ179 2
ĠDart mouth
on er
ĠL one
sh aw
ĠCan ning
Ġsus cept
ĠCongress ional
ĠOld ham
ĠI ss
Ġsc oops
Ġpo d
Ġcat ast
Ġtra iling
ĠSh oot
ĠMar vin
que z
ĠSe v
Ġport al
Ġspring ing
Ġund one
Ġrein st
ĠGib bs
ester ly
Ġrehears al
Ġbapt ism
j m
l ic
l ia
Ġp all
Ġp avement
ĠM Ã©
us an
ĠK any
app ropri
ĠNe ville
Ġstation ary
Ġang rier
ĠNot re
ĠWild e
ĠAlban ian
Ġrede velopment
ĠLegisl ature
Ġcigaret te
Ġironcl ad
Ġcorp se
r ition
Ġin accur
ut ies
st aff
ug gets
ach y
Ġmy st
Ġve ctor
Ġdem ise
iment al
Ġresist ant
Ġdess erts
ĠBu ild
Not hing
Ġdiver ted
Ġtrend s
ĠIran ian
ĠBosn ian
ĠBeaut y
" !
t op
Ä «
Ġc uc
Ġc ites
ry z
ĠC umberland
ĠIn stitution
ĠV it
amp ed
ĠWh ig
ĠHigh lands
ĠEn c
ĠGold man
Ġscri pted
Ġstrike outs
Ġ182 5
ĠAmb assador
ĠDest roy
Ġcomed ic
ĠCamb odia
ĠSurviv or
ĠPresbyter ian
Ġl uc
Ġne o
Ġsp iky
ant ically
Ġdec ree
Ġsun s
anc ial
Ġord in
Ġaddress es
Ġglac iers
Ġrehabil itation
ĠHimm ler
M ad
ĠW oof
Ġfe as
Th omas
Ġam p
Ġstory board
Ġperfect ion
ĠBl anc
Ġdem ons
Ġang ered
ĠSim ba
Ġkick off
ĠMil waukee
Ġneg lected
Ġ179 5
ĠLo ch
ĠMalays ian
ĠMarl borough
ĠTomato es
ĠTud or
ĠPopM atters
ar ag
ĠE instein
hn ess
Ġdes erted
augh an
Ġmod ification
ĠCon nie
Ġequ ation
Ġbas ically
Ġdisp ers
Ġvine gar
Ġscr ut
ĠNob le
ĠConn or
ici ary
Un like
ĠErn st
r ared
ĠT yp
Ġd unge
ĠS F
ir ie
ight ing
ĠV ik
ĠBe an
Ġpal ms
Ġ182 4
Ġdepart ing
Ġsan ction
Ġtomb s
ĠSty le
Ġconsul ting
Ġprest ige
Ġdisobey ed
Ġreck less
ĠS eal
ĠC unningham
Ġout rage
ist ani
Ġpro ving
ĠSo ap
ĠK ombat
ob e
uff in
ĠLe h
ĠPay ne
ĠEff ects
ĠAltern ative
ĠBott om
Ġoverhe ard
T ry
Ġh orm
Ġm itochond
Ġn mi
ĠH ook
ĠN em
Ġtr uce
ĠIn sp
iv ities
Ġmat s
Ġcudd ling
Ġneg atively
Re illy
Ġ180 4
ĠFre sh
Hur ricane
Ġhomosexual ity
ĠParalymp ics
G A
ut nant
ĠL anding
ĠI st
ĠR anch
ĠSara wak
Ġmat rix
ĠSh ock
ĠCon v
Ġfact o
Ġcomb inations
ĠMal agasy
ĠOl ivier
Ġrequest ing
Ġpsych ology
Ġ178 9
ĠChir p
ĠEth an
Ġsupplement ed
l iest
Ġt rophies
Ġm ol
ĠB ree
ĠB ubble
ĠK atherine
Ġdis orders
Ġgl iding
Ġ20 6
Ġext r
Ġdest inations
Ġsuper market
Ġemploy er
ĠWal ton
ĠVol can
ĠLion el
haw ks
ĠJohann es
Ġhudd led
ĠMoff at
Ġm end
id able
Ġin und
im ps
ĠShe p
Ġman tle
Ġen forced
Ġbat hed
ĠBe aver
Do es
aster ies
ĠKey nes
Ġphenomen a
ĠWis dom
Ġexagger ated
Ġcocon ut
W ar
v re
w yn
he ed
Ġto pping
ĠT ate
Ġher oin
ĠL A
ĠI TV
ĠC asc
pl an
Ġper se
ĠBl acks
gg les
ĠHo le
Ġresist ing
Ġundert ake
Ġinterpret ations
ĠSat an
Ġmunicipal ities
Ġsurve illance
ĠSaff ir
A br
ĠC F
ber ht
Ġneed ing
Ġsn ip
Ġdra ught
Ġmer it
Ġsen ators
ĠHel ena
Ġspect ral
Ġmamm al
ĠCrom well
ed o
Ġm akers
Ġre int
ĠP D
ick eter
Ġfin ed
ady s
Ġear rings
na i
Ġfeather ed
ĠWil kinson
ĠWil mington
Ġsoil s
Ġ182 1
ĠFree man
With in
ĠSupp ort
Ġtack les
ĠColomb ia
m od
Ġt roll
Ġp itches
Ġso pr
Ġas ylum
Ġle isure
Ġun se
Ġdes ks
Ġcompet itor
Ġarch ipelago
ĠAct s
Ġ183 3
ĠLeg acy
Ġathlet ics
ĠMaur it
Ġarom a
Ġreperto ire
at ops
ĠThe od
ĠH uff
ĠB ag
ĠR ings
ort al
ian c
Ġlater al
ĠMar se
its u
ĠEur asian
Ġrecogn ise
Ġhipp os
Ã¼ hrer
Ġ179 7
Ġmand atory
Ġalleg iance
Ġredesign ated
g age
Ġb aa
Ġh oses
Ġc in
ol ation
ĠHer c
Ġsl ur
Ġstr ang
Ġnight cl
Ġret ains
Ġpar an
ĠGr im
Ġdev il
Ġsup reme
Ġexcav ations
Ġbetray ed
ĠKem p
ĠWolver ines
Ġretrospect ive
F riend
o ise
il ated
Ġy e
Ġwh olly
ul ously
ĠBen son
ud ing
Ġcare free
oun ge
Ġemb ark
ĠPh ot
Ġexperiment ed
Ġ178 0
Ġwel ding
Ġinherit ance
ĠRevere nd
ĠAby ss
v ine
ĠT ul
Ġl en
ig ue
ld og
ĠA ly
Ġcl ade
ant i
ĠU P
ĠSt ones
Ġreduc es
ĠSant iago
ĠStr ange
ĠPrin z
ĠGlac ier
Ġbabys itter
ar an
ĠS T
ic als
ĠI P
ion e
ra h
Ġat om
ĠR umble
Ġqu ilt
ins ky
ĠCon st
ĠOl ga
Ġstack ing
Ġconclud e
Ġâ Ĩ
ĠRel ations
ĠDick inson
Ġcompens ate
Ġcampa igning
ĠShank ar
ĠLangu age
en o
ro ke
ĠW aff
ĠP omp
th is
ik ini
Ġmission ary
ĠFort ress
ĠSand ers
Ġdecre asing
Ġexplo it
ĠGret a
lew ine
Ġgram mar
Ġh iring
Ġg n
id as
ĠO uter
Ġrep uls
Ġmess ed
Ġlife guard
Ġtem p
Ġbell ies
Ġcommun ists
Ġrecogn izes
Ġelect rom
Ġspring time
Ġrelig ions
Ġ180 5
ĠComb ined
Ġs orrow
ĠL aws
ĠM W
ĠP rague
Ġsw at
ft ime
Ġflow ed
Ġstat istical
ĠMin aj
Ġphot ographed
Ġcomment ator
Ġbump ing
Ġprec isely
tr acks
ĠPak istani
Ġelong ated
Ġt ense
Ġc ass
ra ul
Ġdra ined
ric hes
Ġinv ade
Ġmot iv
Ġ21 5
Ġdoesn Ã¢
Ġconcept ion
Ġexpress ions
Ġsculpt or
Ġpassion ate
ĠNad u
Ġfart hest
N Y
ĠT otten
en ne
il ib
le ll
ĠH ogan
nt h
Ġup wards
Ġca vity
ĠG C
Ġcat al
Ġgu ides
ĠPer iod
Ġemploy ing
Ġpear ls
ĠMic he
Ġrac ism
ĠHan over
Ġsimpl er
ĠBark ley
ĠDrag ons
Ġgroo ve
ĠBorne o
c ell
st en
ro sc
Ġro amed
Ġcont ender
ond a
ĠAr gy
ĠCom ment
Ġra ided
Ġtun ed
Ġinvest ments
Ġtechn ological
Ġthreat en
Ġ300 0
Ġ180 6
quar tered
Ġess ays
Ġdefin itive
ĠSub sequent
don ald
ĠClay ton
Ġunanim ously
ĠAgric ulture
aston bury
Ġstoryt elling
ĠNatal ie
P ete
Ġb ri
Ġo ars
ou lt
ĠB iggie
Ġshe er
ĠR ac
ĠN uclear
ian ces
Ġter r
Ġjour nals
ĠNass er
Ġinterfe re
Ġwheelbar row
r anged
am ents
ĠC ust
Ġdec ks
iv o
Ġend ured
ĠBr on
uff le
ĠAl icia
Ġsuc c
ĠGeor ges
Ġfool ed
Ġfriendship s
ĠRes our
Ġreason ing
ĠEr lewine
ĠIll ustrated
D eal
Ġg ill
un al
ĠW enger
ĠG M
ĠG ob
Åĵ Thanks
ĠCl im
ĠCl ifton
Ġban king
Ġlibr aries
ĠComp et
ĠRos y
ĠFil ip
ĠMcC oy
Ġcong estion
ĠRat ty
Ġrehears als
Ġparas ites
Ġconfirm ation
ĠLay la
ĠChop ra
Conn or
at aka
uc es
ast s
ink er
Ġgl anced
ĠDe er
Ġleg ends
Ġbreak away
Ġshort ages
ĠTer ror
ĠHung arians
Ġver b
ĠGro ening
Ġspons orship
Ġfolk lore
Ġdiff ering
ĠCirc us
ĠMoz amb
B ird
o pped
on al
ĠB ollywood
Ġfor aging
Ġpe re
Ġmist ress
roduc ed
Ġfort unes
Ġvarious ly
ĠMil ky
Ġsex y
Ġcommercial s
Ġir rig
ĠInit ial
Ġastronom ical
Ġconven ed
ĠAT P
ĠAzerbai jan
abul ary
ĠL ars
Ġshr ugs
road s
Ġmax im
ĠTitan ic
ĠVick ers
k an
r oup
Ġp ope
ĠC H
ĠD ob
ĠEll iot
Ġwra pper
Ġske ptical
Ġaltern ating
ĠCoast al
Ġsyn ch
ĠRebell ion
D og
N S
Ġp aced
Ġch al
io ch
ocol ate
ĠCharl eston
II I
ĠMat hem
ĠCas ino
roph ic
Ġfra gr
Ġmal aria
Ġl ig
Ġp ac
Ġp izz
or an
or um
Ġg y
Ġn ude
ad en
Ġre lying
Ġgo ggles
Ġlog ic
Ġcritic isms
Ġneg lect
Ġviewers hip
Ġprem ises
Ġdu pl
ĠArm oured
Ġsurvey ed
Ġappoint ments
ĠLear ning
Ġthe sis
Ġf ist
Ġwa vel
Ġst int
ĠM orm
Ġout right
ĠR as
oc ative
unk ers
Ġfo ster
Ġhand y
Ġgl ands
Ġwar ship
Ġsweet ness
Ġbar rage
Ġref ined
Ġem ission
Ġimpro vised
ĠApp al
ĠEug en
Ġpip eline
Ġunde feated
N T
in se
er oy
ĠT z
Ġst unned
Ġdo cks
ĠW hed
oug e
ĠFin ancial
ĠLet ters
ĠGra ves
Ġgrateful ly
arl ow
Ġgrad uates
ody nam
Ġty res
ĠHond uras
ĠHem isphere
ĠHolid ay
C om
r ne
ĠS z
ĠS EC
ĠI B
ĠP R
ĠN avig
Ġsn out
Åĵ Welcome
Ġcomb ines
Ġten or
ĠLi bert
ĠKat rina
ĠInter active
Ġconvin ces
ez vous
Ġjudg ement
ĠJar rett
Ġunanim ous
or on
ĠH BO
ĠP ump
pl us
av i
Ġun in
Ġexp ans
ĠWhat Ã¢
Ġcommission ing
ĠCatholic ism
har mon
ĠAh mad
ĠGriff ith
Ġbless ing
ĠSoft ware
Ġump ire
Ġjuic iest
x es
Ġst alk
ĠB P
Ġli king
ĠW ash
Ġrel inqu
ĠFl otilla
ĠCol ts
Ġfear ing
ĠPart ners
Ġge ographic
Ġeval uation
ĠPatric ia
E nt
ug er
Ġthin ner
Ġimpro v
Ġcase mates
Ġdet ention
ĠPro s
Ġmis chief
ĠPic ard
ĠHunt ers
Ġbackst age
Ġinfect ions
ĠRodrig uez
ishe ries
Ġwavel ength
e le
ĠM ast
ĠC ell
Ġshow case
hes is
Ġgi ants
ĠCon an
Ġ29 0
Ġcult ivation
Ġcouncil s
ĠWhe at
ĠWhe el
Ġambit ions
Ġinnoc ence
ĠNi agara
Ġflatt ened
Abr acadabra
on struction
et us
ĠM az
ĠE g
Ġcar b
ĠSc ream
Ġappro ve
ĠCar m
ĠPat ches
Ġfresh water
ĠBra ve
Ġhal ftime
Ġremix ed
ĠNass au
Ġs uck
ĠL ing
Ġr ud
ĠM ud
Ġwh oosh
Ġsp her
Ġover ly
ov an
Ġmind ing
Ġang ular
Ġnomin al
Ġteen agers
Ġpul p
Ġdesp air
Ġmasc ot
ĠSche er
ĠFow ler
Ġl asers
Ġup right
ĠE ri
ĠR uff
ĠR ookie
Ġpre season
Ġexc use
Ġdel ivers
Ġz ips
ĠGo es
Ġ34 0
Ġsatisf y
ĠSteven son
ĠCart oon
ĠDeb bie
Ġchlor ide
Ġrevel ation
ĠNum erous
Ġbure auc
Ġvertebra e
w aters
is se
Ġsh h
ĠR um
ĠV il
Ġste amer
ĠFl utter
ĠCom ing
Ġdecor ative
ĠMan ny
ĠAng ie
Ġinsp iring
Ġswitch ing
Ġwilling ness
Le o
col ored
Ġeth anol
ĠSac rament
R ich
Ġb iz
ar ium
ĠB ly
ent on
ĠA side
ĠD ix
ich o
Ġapp ar
ount y
ĠTown send
ox ide
ĠCha plin
nae us
Ġhob by
Ġimagin ative
D H
om al
ap arte
Ġrem astered
Ġgrass es
Ġimag inations
Ġmot ivation
iff s
Ġaccess ories
Ġfinanc ing
Ġturb ine
ĠWes sex
he arted
ĠT ah
Ġl one
at hed
ĠP oles
ak ov
ph al
ath i
Ġmon etary
Ġsing ular
ident ified
Ġwood ed
Ġinter vals
Ġpath way
ik ovsky
Ġprop elled
Ġbul lets
ĠSan ct
Ġrid dle
ĠTa unton
Ġje ans
ĠSuff olk
Ġcompat ible
Ġglist ening
Ã ĥ
Ġt iring
it ure
ore sc
um ing
ĠF ry
ĠWe ber
ck er
Ġinf ring
af ia
ĠPr att
ĠPat terson
Ġprec ision
Ġsle igh
Ġauthent ic
ĠPhel ps
ĠVett el
ĠKany e
Ġ ions
Ġd yn
ĠS ter
al ine
ore m
Ġsp ines
Ġcar c
Ġfl anks
th on
aj i
Ġhy mn
ĠCont est
Ġ182 8
Ġbom bed
ĠHy der
ĠRun ning
Ġconsum ers
ĠTal bot
Ġunre leased
ĠYucat Ã¡n
Ġ ãĥ
ĠT oul
ct ive
ĠHer b
ĠSt re
Ġunder g
Ġcomp ares
ĠCar ne
ĠGu in
Ġtor ch
Ġ27 5
ĠMon k
ĠGold ie
Ġpa wn
Ġagg ress
ĠSol o
ĠCart e
ĠInn oc
Ġstor my
Ġprospect s
Ġinev itable
Ġdat abase
ĠOsw ald
C ol
r int
Ġhe Ã¢
Ġr het
ĠM ales
if iers
ang o
ĠAs hes
ĠRe formation
ĠGod win
Ġimm ense
Ġprem ature
Ġ61 0
Ġdescend ing
ĠAny thing
Ġairfield s
ĠBrid g
ĠL ob
Ġst a
Ġbl u
Ġkind er
Ġglad ly
ĠBo one
ĠRep orter
ĠMed ieval
onn ected
Ġpron unciation
3 8
Ġsp ice
Ġag round
Ġover run
ĠK ell
Ġdep osed
ĠMc Le
ĠPh ase
Ġdet ained
ĠCanad ians
Ġhero ine
ĠGl astonbury
ĠAnt ioch
Ġtong ues
Ġpreced ent
Ġillust ration
ĠInn er
Ġtempt ing
ĠSold ier
1 5
H istor
r ÃŃ
Ġh int
ig ma
ĠW augh
ard e
Ġar ise
ĠF ont
est a
ct ica
oy ne
Ġper ch
Ġgarden ing
ĠPh oe
ĠCal ais
Ġencou rages
Ġhost age
Ġprec aut
Ġtriang ular
po x
ĠRey es
Ġautobi ographical
ĠSyl via
Ġmaj estic
ĠPhoe be
b ars
b anks
f oot
in ridge
ĠI D
st ones
Ġpl opped
Ġman Ã¢
Ġgr ump
udd er
Ġpro ves
Ġmusic ally
Ġcons ume
Ġdep ended
Ġprop riet
Ġcloth s
Ġfif teenth
for ward
Ġfro st
Ġcomplex es
ĠExt ra
ĠNik ki
Ġdim ension
Ġmorph ology
anth rop
Ġinver te
Ġeleg ant
Ġoutn umbered
i enced
r ade
in os
an us
ĠA e
ĠP ony
ĠK een
ĠCh ak
Ġatt aching
ĠBr ill
ĠCl ap
Ġmid fielder
ĠRes erv
ĠÃ ĵ
Ġess ence
Ġdrift ing
ĠSyl vester
Ġderiv ative
is i
Ġhe x
Ġg own
ĠE state
Ġpet al
Ġpool s
Ġplate au
Ġdol ly
Ġtraffic king
ĠWood y
ĠPlan ning
ĠManit oba
Ġcatal ogue
A pp
Ġin appropri
Ġwith stand
ĠW i
Ġlo vers
ĠBen ch
Ġme g
Ġv ows
Ġgl ared
Åĵ OK
Ġhead quartered
Ġear nings
Ġbar g
Ġinf ants
Ġhon ks
Ġcollect ors
ĠPer haps
ĠHam let
ĠKen ya
Ġ183 4
ĠShel by
ĠBed ford
Ġmillimet ers
ĠPix ar
Ġcuis ine
Ġhilar ious
D er
h ra
Ġc ripp
ĠS I
ut a
Ġne ared
Ġdo zed
Ġcr ush
Ġinter mitt
ĠWh atever
af i
Ġshore s
ĠMcC lell
ĠPri vy
Ġ181 6
Ġ74 7
Ġmathem atic
Ġid ol
Ġhem isphere
Ġseiz ure
ĠâĨ Ĵ
W est
is bee
Ġg ad
ĠB acon
ound ing
ĠP eck
ĠN WA
ĠV aughan
Ġcons pic
ĠAd a
Ġshort cut
Ġtotal ing
Ġemploy s
Ġadminist rator
Ġisn Ã¢
ĠSum mit
Ġconver ting
Ġrepr inted
Ġpier cing
Ġtribut aries
Ġconfisc ated
ĠDaven port
Ġl ords
Ġm otto
Ġg rief
ĠB iden
ĠM ee
ĠWe in
ix ed
ĠJoh an
Ġsuff ers
Ġembarrass ment
Ġdi ocese
ĠMac donald
ĠOl ly
Ġphys i
ĠAv atar
Ġchor al
Ġbend ing
Ġconve x
ĠMot ors
Ġrenov ated
Ġtoler ance
Ġassum ption
ĠConserv atives
Sus ie
Ġsurn ame
ĠOkin awa
ĠH orses
ĠB ury
ur us
Ġcl ut
Ġwor s
Åĵ There
anc ip
Ġbar ons
Ġass isting
Ġpract ically
Ġexec ute
uk ov
Ġhyd raul
ĠColon ial
ĠParalymp ic
Ġo mn
Ġd ash
ĠM is
ĠF actor
ab lo
pt y
Ġhear ings
ĠMy s
ĠNick el
ĠRest oration
ĠMoroc co
ĠS ales
ot le
ĠM iff
ĠA in
ĠW igan
art ments
oun cy
ple ts
Ġfavour ites
Ġge ological
ĠLy on
Ġwoodcut ter
Ġbiz arre
h on
ĠThe me
Ġe jected
Ġnot orious
ĠC ull
ft on
ft en
Åĵ Would
ĠPr ide
Ġcur sed
Ġclear ance
ĠSa igon
Or igin
ĠLes ter
rep rene
kef eller
ĠMozamb ique
Ġpl umber
Ġex h
Ġcl ash
ĠE rik
Ġbar riers
kin en
oph on
omb ie
oul ton
ĠMa o
Ġsymph ony
Ġdisorgan ized
i ya
Ġu l
ĠL ut
ĠR KO
Ġpro sec
ĠIn str
ĠV atic
Ġmon itors
ĠDa hl
Ġmar riages
Ġdisc s
ual a
Ġgu idelines
Ġpar rots
Ġtrans f
ounc ing
ĠDog s
Ġ179 6
ĠDire ction
ba um
Ġadvert ised
ĠBuch anan
ĠKarn ataka
Ġsubpl ot
S ir
w al
ĠS ave
Ġr inse
ĠD ust
ĠP os
ĠG illy
ge ance
ĠTh ur
Ġpol ka
ĠSh op
Ġrece ip
Ġgun powder
ĠMan ila
ĠCal d
Ġfootball er
ĠHere ford
ĠÃ ĸ
Re view
Ġple as
Ġscratch y
ĠRam s
ĠEp stein
Ġorph an
R L
ĠT il
Ġp als
Ġin ception
ĠI ro
Ġpres cribed
ĠRe venge
ĠFl ower
Ġarg u
Ġnur sing
Ġsniff led
Ġfashion ed
ĠGar rett
Ġadvant ages
ĠSpart an
Ġinsist ence
ĠMyster y
Ġmotif s
ĠBuddh ism
ĠQuater mass
ĠTotten ham
b ase
m ir
m ire
Ġm g
Ġr app
ur ities
ro le
Ġman t
are z
ĠK art
ĠK oh
Ġimp ending
ĠRe ad
ĠPhil harmon
ĠOl af
ĠSal em
ĠChe ese
Ġimpl ies
Ġrend ezvous
Ġhoo ked
Ġepit het
ĠJur assic
R ep
W he
s sey
Ġt ally
st reet
ĠA id
ĠD irty
nn ie
ob ic
ĠTh ousand
Ġide als
Ġexp orted
Ġpass ive
Ġcard inal
Ġstir s
aks hi
Ġabs urd
ĠCarl isle
Ġcommission ers
Ġpoison ed
ĠSil va
Ġliber ation
Ġaug mented
ĠMaurit ius
ilib rium
J ump
l itz
Ġa irst
ĠL Ã©
ĠW S
ard i
ĠC B
if ting
ĠF ell
Ġcr ude
Ġcr icketer
Ġdeep est
ĠBe es
Ġlic enses
[...]
