{"<s>":0,"<pad>":1,"</s>":2,"<unk>":3,"!":4,"\"":5,"#":6,"$":7,"%":8,"&":9,"'":10,"(":11,")":12,"*":13,"+":14,",":15,"-":16,".":17,"/":18,"0":19,"1":20,"2":21,"3":22,"4":23,"5":24,"6":25,"7":26,"8":27,"9":28,":":29,";":30,"<":31,"=":32,">":33,"?":34,"@":35,"A":36,"B":37,"C":38,"D":39,"E":40,"F":41,"G":42,"H":43,"I":44,"J":45,"K":46,"L":47,"M":48,"N":49,"O":50,"P":51,"Q":52,"R":53,"S":54,"T":55,"U":56,"V":57,"W":58,"X":59,"Y":60,"Z":61,"[":62,"\\":63,"]":64,"^":65,"_":66,"`":67,"a":68,"b":69,"c":70,"d":71,"e":72,"f":73,"g":74,"h":75,"i":76,"j":77,"k":78,"l":79,"m":80,"n":81,"o":82,"p":83,"q":84,"r":85,"s":86,"t":87,"u":88,"v":89,"w":90,"x":91,"y":92,"z":93,"{":94,"|":95,"}":96,"~":97,"¡":98,"¢":99,"£":100,"¤":101,"¥":102,"¦":103,"§":104,"¨":105,"©":106,"ª":107,"«":108,"¬":109,"®":110,"¯":111,"°":112,"±":113,"²":114,"³":115,"´":116,"µ":117,"¶":118,"·":119,"¸":120,"¹":121,"º":122,"»":123,"¼":124,"½":125,"¾":126,"¿":127,"À":128,"Á":129,"Â":130,"Ã":131,"Ä":132,"Å":133,"Æ":134,"Ç":135,"È":136,"É":137,"Ê":138,"Ë":139,"Ì":140,"Í":141,"Î":142,"Ï":143,"Ð":144,"Ñ":145,"Ò":146,"Ó":147,"Ô":148,"Õ":149,"Ö":150,"×":151,"Ø":152,"Ù":153,"Ú":154,"Û":155,"Ü":156,"Ý":157,"Þ":158,"ß":159,"à":160,"á":161,"â":162,"ã":163,"ä":164,"å":165,"æ":166,"ç":167,"è":168,"é":169,"ê":170,"ë":171,"ì":172,"í":173,"î":174,"ï":175,"ð":176,"ñ":177,"ò":178,"ó":179,"ô":180,"õ":181,"ö":182,"÷":183,"ø":184,"ù":185,"ú":186,"û":187,"ü":188,"ý":189,"þ":190,"ÿ":191,"Ā":192,"ā":193,"Ă":194,"ă":195,"Ą":196,"ą":197,"Ć":198,"ć":199,"Ĉ":200,"ĉ":201,"Ċ":202,"ċ":203,"Č":204,"č":205,"Ď":206,"ď":207,"Đ":208,"đ":209,"Ē":210,"ē":211,"Ĕ":212,"ĕ":213,"Ė":214,"ė":215,"Ę":216,"ę":217,"Ě":218,"ě":219,"Ĝ":220,"ĝ":221,"Ğ":222,"ğ":223,"Ġ":224,"ġ":225,"Ģ":226,"ģ":227,"Ĥ":228,"ĥ":229,"Ħ":230,"ħ":231,"Ĩ":232,"ĩ":233,"Ī":234,"ī":235,"Ĭ":236,"ĭ":237,"Į":238,"į":239,"İ":240,"ı":241,"Ĳ":242,"ĳ":243,"Ĵ":244,"ĵ":245,"Ķ":246,"ķ":247,"ĸ":248,"Ĺ":249,"ĺ":250,"Ļ":251,"ļ":252,"Ľ":253,"ľ":254,"Ŀ":255,"ŀ":256,"Ł":257,"ł":258,"Ń":259,"he":260,"Ġt":261,"Ġa":262,"Ġs":263,"Ġw":264,"Ġthe":265,"nd":266,"ed":267,"in":268,"Ġand":269,"Ġb":270,"re":271,"Ġto":272,"Ġh":273,"Ġf":274,"it":275,"er":276,"Ġo":277,"Ġwa":278,"Ġc":279,"ou":280,"ĠT":281,"Ġd":282,"Ġl":283,"Ġp":284,"Ġm":285,"ar":286,"is":287,"at":288,"Ġhe":289,"om":290,"ing":291,"Ġwas":292,"on":293,"en":294,"or":295,"il":296,"an":297,"ay":298,"ĠThe":299,"Ġg":300,"ĠS":301,"id":302,"es":303,"Ġn":304,"Ġin":305,"Ġha":306,"im":307,"al":308,"Ġth":309,"Ġsa":310,"Ġ\"":311,"Ġof":312,"le":313,"ĠH":314,"ut":315,"Ġit":316,"Ġ,":317,"ot":318,"et":319,"ir":320,"ic":321,"Ġe":322,"ver":323,"ow":324,"el":325,"Ġher":326,"am":327,"ĠHe":328,"ĠShe":329,"ac":330,"Ġu":331,"ig":332,"ĠL":333,"ĠThey":334,"ĠI":335,"Ġ.":336,"st":337,"Ġr":338,"Ġbe":339,"Ġst":340,"Ġon":341,"ld":342,"ith":343,"oo":344,"ve":345,"Ġwith":346,"Ġy":347,"ĠB":348,"ly":349,"ad":350,"pp":351,"Ġsaid":352,"ent":353,"ke":354,"ily":355,"ri":356,"ked":357,"Ġthat":358,"Ġhis":359,"Ġre":360,"ĠM":361,"Ġshe":362,"nt":363,"Ġfor":364,"Ġpl":365,"On":366,"ĠA":367,"un":368,"Ġso":369,"Ġyou":370,"ĠLily":371,"very":372,"Ġday":373,"Ġwe":374,"ce":375,"Ġhad":376,"ll":377,"se":378,"Ġup":379,"her":380,"Ġplay":381,"ion":382,"Ġwh":383,"Ġas":384,"Ġthey":385,"ur":386,"ould":387,"ter":388,"Ġsh":389,"Ġis":390,"Ġmom":391,"my":392,"ec":393,"Ġan":394,"'s":395,"Ġli":396,"itt":397,"Ġnot":398,"ound":399,"ome":400,"Ġk":401,"end":402,"ht":403,"Ġhapp":404,"Ġwant":405,"ra":406,"ime":407,"ch":408,"Ġne":409,"Ġdo":410,"Ġtime":411,"Ġbut":412,"ĠJ":413,"Ġvery":414,"ack":415,"Ġthere":416,"ul":417,"ittle":418,"Ġat":419,"Ġwere":420,"ĠIt":421,"ore":422,"Ġlittle":423,"ro":424,"ry":425,"ide":426,"Ġsm":427,"ved":428,"Ġhappy":429,"Ġbig":430,"ill":431,"Ġse":432,"ĠW":433,"ug":434,"as":435,"ard":436,"riend":437,"ain":438,"Ġsaw":439,"Ġfriend":440,"all":441,"rom":442,"Ġlo":443,"ake":444,"ĠC":445,".\"":446,"ĠOn":447,"ted":448,"Ġare":449,"um":450,"ĠTim":451,"Ġ1":452,"'t":453,"Ġhim":454,"Ġloo":455,"Ġgo":456,"!\"":457,"Ġsp":458,"Ġex":459,"ĠOne":460,"Ġj":461,"Once":462,"Ġbo":463,"ind":464,"Ġtoo":465,"Ġout":466,"Ġtheir":467,"Ġal":468,"Ġ@":469,"hen":470,"Ġthem":471,"irl":472,"Ġar":473,"way":474,"if":475,"Ġhave":476,"uc":477,"ol":478,"Ġupon":479,"Ġwanted":480,"Ġgirl":481,"hed":482,"ĠD":483,"ĠF":484,"ight":485,"op":486,"Ġdid":487,"Ġcould":488,"ag":489,"ame":490,"us":491,"Ġle":492,"oug":493,"Ġall":494,"Ġsmil":495,"ood":496,"ĠTom":497,"ĠBen":498,"Ġcl":499,"ĠE":500,"ong":501,"Ġcan":502,"Ġ'":503,"Ġfrom":504,"hing":505,"ark":506,"one":507,"Ġca":508,"Ġkn":509,"Ġwent":510,"ure":511,"ell":512,"est":513,"Ġhel":514,"Ġsc":515,"amed":516,"Ġhelp":517,"ĠP":518,"Ġfriends":519,"Ġback":520,"ud":521,"-@":522,"Ġ@-@":523,"Ġno":524,"ĠBut":525,"ers":526,"?\"":527,"Ġman":528,"out":529,"Ġstar":530,"Ġme":531,"Ġby":532,"Ġfun":533,"Ġsay":534,"Ġch":535,"You":536,"Ġv":537,"ful":538,"qu":539,"Ġnamed":540,"ie":541,"ice":542,"Ġro":543,"Ġwor":544,"ab":545,"ĠTimmy":546,"Ġwould":547,"ks":548,"own":549,"Ġag":550,"ist":551,"ation":552,"ĠR":553,"elt":554,"side":555,"Ġsome":556,"ther":557,"king":558,"and":559,"ast":560,"ade":561,"ree":562,"Ġloved":563,"Ġlike":564,"Ġsmiled":565,"ess":566,"Ġfe":567,"ep":568,"ss":569,"Ġaround":570,"Ġasked":571,"Ġ2":572,"ust":573,"ird":574,"Ġfelt":575,"ally":576,"Ġsee":577,"Ġtoy":578,"omet":579,"get":580,"ings":581,"ĠG":582,"Ġlooked":583,"Ġcon":584,"ĠN":585,"Ġwho":586,"Ġboy":587,"ant":588,"Ġother":589,"ited":590,"ous":591,"Ġcom":592,"Ġab":593,"Ġcar":594,"ate":595,"ort":596,"pl":597,"Ġsomet":598,"Ġbird":599,"Ġbr":600,"os":601,"Ġpr":602,"Ġnew":603,"Ġmade":604,"Ġran":605,"Ġwhat":606,"âĤ":607,"Ã¢":608,"Ġmake":609,"âĤ¬":610,"ap":611,"ared":612,"Ġor":613,"gether":614,"Ġwhen":615,"ach":616,"Ġagain":617,"ive":618,"ĠYou":619,"Ġaway":620,"ick":621,"uch":622,"Ġstarted":623,"ace":624,"ue":625,"ĠMom":626,"Ġfl":627,"ber":628,",\"":629,"Ġdec":630,"em":631,"Ġone":632,"Ġtogether":633,"oud":634,"Ġint":635,"Ġ)":636,"Ġ(":637,"Ġbec":638,"Ġsays":639,"ies":640,"Ġpre":641,"Ġfound":642,"Ġthen":643,"Ġsomething":644,"Ġpark":645,"Ġexc":646,"art":647,"ial":648,"oc":649,"Ġsad":650,"Ġput":651,"Ġhome":652,"ried":653,"fter":654,"Ġgr":655,"ia":656,"Ġ=":657,"ought":658,"Ġgood":659,"our":660,"Ġtr":661,"Ġ19":662,"pped":663,"Ġmo":664,"hat":665,"fe":666,"ned":667,"Ġhug":668,"ge":669,"ct":670,"Ġwal":671,"Ġbl":672,"nder":673,"Ġget":674,"ew":675,"Ġthan":676,"ish":677,"th":678,"Ġplaying":679,"ided":680,"av":681,"Ġtw":682,"Ġsw":683,"Ġco":684,"ine":685,"00":686,"ak":687,"ook":688,"nn":689,"aug":690,"ax":691,"ite":692,"are":693,"ouse":694,"unk":695,"Ġmore":696,"Ġabout":697,"ear":698,"Ġthings":699,"Ġcame":700,"Ġdown":701,"Ġgot":702,"Ġevery":703,"ough":704,"Ġexcited":705,"Ġdecided":706,"Ġliked":707,"reat":708,"ave":709,"ara":710,"Ġcare":711,"ny":712,"Ġfind":713,"Ġad":714,"ip":715,"ise":716,"ub":717,"Ġen":718,"ĠSam":719,"Ġover":720,"Ġyour":721,"Ġthis":722,"Ġke":723,"ich":724,"Ġ<":725,"Ġwill":726,"pt":727,"Ġdog":728,"Ġtook":729,"Ġscared":730,"udd":731,"Ġmy":732,"ven":733,"Ġfeel":734,"Ġspec":735,"Ġpo":736,"uck":737,"ile":738,"Ġinto":739,"Ġde":740,"ways":741,"ged":742,"Ġpro":743,"Ġoff":744,"iz":745,"ĠJo":746,"ĠSo":747,"Ġop":748,"Ġdad":749,"ened":750,"Ġgra":751,"ary":752,"Ġdidn":753,"ĠMax":754,"Ġalways":755,"nna":756,"here":757,"Ġold":758,"Ġthought":759,"Ġmommy":760,"Ġoutside":761,"Ġlot":762,"Ġpe":763,"Ġball":764,"ĠWhen":765,"Ġshow":766,"use":767,"Ġany":768,"Ġlear":769,"Ġits":770,"Ġtoys":771,"Ġpic":772,"Ġtree":773,"Ġhow":774,"Ġqu":775,"ĠK":776,"ect":777,"ĠSara":778,"Ġtake":779,"Ġim":780,"Ġknow":781,"ĠHer":782,"Ġfo":783,"ob":784,"Ġcat":785,"other":786,"Ġspecial":787,"Ġrun":788,"ĠIn":789,"so":790,"oth":791,"Ġsl":792,"Ġbet":793,"ĠAnna":794,"Ġus":795,"Ġmuch":796,"Ġknew":797,"ild":798,"Ġho":799,"ated":800,"udden":801,"Ġlaug":802,"Ġtwo":803,"ire":804,"ĠO":805,"iv":806,"Ġstr":807,"irst":808,"Ġalso":809,"ity":810,"Ġhand":811,"ma":812,"ment":813,"ff":814,"ause":815,"age":816,"uddenly":817,"vent":818,"orry":819,"Ġhouse":820,"ning":821,"ĠJack":822,"Ġwater":823,"ank":824,"Ġsk":825,"Ġif":826,"als":827,"Ġeach":828,"igh":829,"ft":830,"ty":831,"Ġplayed":832,"Ġend":833,"Ġun":834,"Ġexpl":835,"Ġbecause":836,"Ġmany":837,"oy":838,"Ġgave":839,"Ġlong":840,"ĠEvery":841,"able":842,"dy":843,"Ġcareful":844,"Ġjust":845,"Ġnever":846,"Ġtold":847,"ump":848,"ĠWe":849,"Ġsorry":850,"Ġte":851,"Ġtried":852,"Ġsun":853,"Ġcont":854,"ang":855,"Ġinside":856,"Ġcall":857,"Ġlook":858,"Ġfirst":859,"elf":860,"Ġwhich":861,"Ġhas":862,"Ġunt":863,"ase":864,"ĠU":865,"ass":866,"Ġsmall":867,"ving":868,"Ġroom":869,"ely":870,"Ġcouldn":871,"Ġcol":872,"ĠHis":873,"les":874,"Ġac":875,"ĠSt":876,"Ġheard":877,"Ġuntil":878,"Ġproud":879,"ull":880,"Ġeat":881,"Ġunder":882,"Ġneed":883,"ĠAnd":884,"âĢ":885,"Ġrem":886,"Ġapp":887,"ĠFrom":888,"ian":889,"wn":890,"ĠSuddenly":891,"ink":892,"Ġsur":893,"Ġpret":894,"Ġwat":895,"Ġafter":896,"ied":897,"Ġimp":898,"ance":899,"Ġbeen":900,"ble":901,"ĠThen":902,"Ġbu":903,"Ġbox":904,"ĠâĢ":905,"Ġanim":906,"Ġdis":907,"Ġfin":908,"Ġper":909,"Ġhugged":910,"ress":911,"Ġyear":912,"ool":913,"mer":914,"fore":915,"hes":916,"pr":917,"hn":918,"ord":919,"Ġbear":920,"bed":921,"ory":922,"Ġ3":923,"ĠMia":924,"'m":925,"ount":926,"orm":927,"Ġbest":928,"Ġsn":929,"urt":930,"Ġtry":931,"Ġboth":932,"ĠAs":933,"Ġwr":934,"ĠTh":935,"ished":936,"iss":937,"Ġlet":938,"ady":939,"Ġeven":940,"Ġfam":941,"ane":942,"by":943,"gry":944,"ail":945,"Ġbetter":946,"Ġnice":947,"Ġthr":948,"Ġcle":949,"Ġkind":950,"Ġflow":951,"ious":952,"od":953,"Ġlearned":954,"air":955,"Ġcomp":956,"ix":957,"Ġway":958,"Ġdon":959,"ions":960,"Ġpart":961,"Ġinc":962,"Ġcr":963,"ople":964,"ched":965,"Ġbefore":966,"Ġche":967,"ck":968,"ors":969,"aut":970,"Ġgl":971,"Ġwhile":972,"ĠÃ¢":973,"Ġstill":974,"ised":975,"ĠCh":976,"self":977,"og":978,"ater":979,"arden":980,"ĠAfter":981,"ward":982,"Ġfast":983,"Ġcalled":984,"Ġlist":985,"Yes":986,"Ġres":987,"ical":988,"led":989,"gan":990,"Ġgarden":991,"ĠSp":992,"Ġclos":993,"Ġbeaut":994,"ered":995,"Ġpeople":996,"xt":997,"Ġfle":998,"Åĵ":999,"llow":1000,"Ġcome":1001,"Ġsky":1002,"Ġhard":1003,"Th":1004,"Ġjump":1005,"ign":1006,"aking":1007,"Ġthanked":1008,"Ġwar":1009,"Ġtur":1010,"The":1011,"Ġlaughed":1012,"anc":1013,"Ġbra":1014,"ting":1015,"iny":1016,"Ġred":1017,"Ġfamily":1018,"ren":1019,"Ġlove":1020,"Ġbeing":1021,"iful":1022,"Ġloud":1023,"Ġbeautiful":1024,"Ġanimals":1025,"up":1026,"ens":1027,"Ġstay":1028,"Ġlots":1029,"ph":1030,"ĠJohn":1031,"Ġ200":1032,"Ġfr":1033,"Ġshould":1034,"act":1035,"Ġhurt":1036,"Ġfore":1037,"Ġwhere":1038,"ose":1039,"ream":1040,"Ġthree":1041,"ture":1042,"Ġlived":1043,"Ġonly":1044,"Ġfollow":1045,"Ġnow":1046,"Ġdra":1047,"It":1048,"Ġdif":1049,"iver":1050,"be":1051,"Ġbad":1052,"ons":1053,"Ġsafe":1054,"Ġnod":1055,"ded":1056,"ĠV":1057,"Ġtra":1058,"Ġreal":1059,"ond":1060,"ĠLuc":1061,"Ġsoon":1062,"Ġwind":1063,"Ġgame":1064,"Ġrec":1065,"ember":1066,"man":1067,"Ġ20":1068,"Ġam":1069,"Ġwalked":1070,"Ġsurpr":1071,"kay":1072,"Ġhigh":1073,"ence":1074,"Ġide":1075,"Ġfly":1076,"ized":1077,"ĠLucy":1078,"Ġbecame":1079,"ath":1080,"Ġflew":1081,"Ġfar":1082,"Ġgoing":1083,"Ġwork":1084,"Ġkept":1085,"Ġnext":1086,"Ġnear":1087,"Ġkeep":1088,"Ġshare":1089,"Ġ;":1090,"Ġground":1091,"ans":1092,"Ġthrough":1093,"Ġopened":1094,"Ġangry":1095,"orn":1096,"ĠBob":1097,"Ġown":1098,"vel":1099,"Ġbrave":1100,"ĠâĢĵ":1101,"Ġatt":1102,"Ġwo":1103,"Let":1104,"Ġhead":1105,"Ġrepl":1106,"Ġgreat":1107,"rent":1108,"Ġpretty":1109,"we":1110,"Ġclean":1111,"illy":1112,"Ġadvent":1113,"Ġ:":1114,"Ġbro":1115,"amp":1116,"upp":1117,"Ġdes":1118,"Ġey":1119,"Ġmon":1120,"Ġidea":1121,"Ġcry":1122,"ummy":1123,"Ġdel":1124,"ĠMommy":1125,"Ġexplore":1126,"Ġdoll":1127,"Ġuse":1128,"ins":1129,"ĠDad":1130,"Ġdoor":1131,"Ġsto":1132,"bit":1133,"Ġnoise":1134,"ased":1135,"Ġser":1136,"ng":1137,"Ġshiny":1138,"Ġsing":1139,"ired":1140,"ves":1141,"cess":1142,"Ġtre":1143,"Ġclim":1144,"thing":1145,"sh":1146,"What":1147,"Ġ4":1148,"Ġdiffe":1149,"No":1150,"ather":1151,"Ġimport":1152,"uring":1153,"ock":1154,"Ġfeeling":1155,"ey":1156,"lease":1157,"Ġright":1158,"Ġsong":1159,"âĦ":1160,"Ġused":1161,"âĦ¢":1162,"âĤ¬âĦ¢":1163,"Ġpicked":1164,"akes":1165,"Ġfood":1166,"Ġ5":1167,"Ġbed":1168,"Ġwalking":1169,"Ġsound":1170,"Ġsec":1171,"Ġplace":1172,"Ġgive":1173,"ĠBr":1174,"iced":1175,"Ġnodded":1176,"ts":1177,"Ġadventure":1178,"Ġyears":1179,"Ġrel":1180,"Ġchild":1181,"Ġperf":1182,"joy":1183,"ange":1184,"Ġbel":1185,"Ġimportant":1186,"rew":1187,"Ġever":1188,".@":1189,"Ġ@.@":1190,"Ġ18":1191,"Ġstrong":1192,"ition":1193,"Ġpicture":1194,"imes":1195,"Ġquick":1196,"Ġdifferent":1197,"oice":1198,"oin":1199,"That":1200,"lud":1201,"Ġbegan":1202,"Ġgrab":1203,"Ġlooking":1204,"Ġsmile":1205,"Ġwait":1206,"land":1207,"Ġsqu":1208,"aybe":1209,"aw":1210,"Ġset":1211,"Ġtal":1212,"Ġeyes":1213,"Ġforest":1214,"Ġstopped":1215,"Ġenjoy":1216,"uri":1217,"iel":1218,"Ġrain":1219,"Ġhands":1220,"Ġmag":1221,",@":1222,"Ġ@,@":1223,"ached":1224,"Ġmus":1225,"Ġblue":1226,"ames":1227,"Ġlisten":1228,"Ġ201":1229,"ĠAt":1230,"ĠSpot":1231,"Ġmost":1232,"Ġmor":1233,"red":1234,"Thank":1235,"ĠSue":1236,"ued":1237,"ever":1238,"Ġshowed":1239,"Ġrock":1240,"Ġflowers":1241,"uff":1242,"Ġwatch":1243,"Ġfish":1244,"Ġremember":1245,"Ġnoticed":1246,"Ġbre":1247,"Ġfav":1248,"Ġrest":1249,"abbit":1250,"Ġreplied":1251,"ope":1252,"Ġstory":1253,"Ġquickly":1254,"ĠCan":1255,"Ġwonder":1256,"ĠThis":1257,"maz":1258,"Ġear":1259,"Ġprom":1260,"Ġexp":1261,"Ġbus":1262,"ross":1263,"Ġdoes":1264,"Ġnight":1265,"Ġbook":1266,"ee":1267,"Ġvoice":1268,"Ġworld":1269,"Ġinclud":1270,"Ġour":1271,"Ġamaz":1272,"ates":1273,"reen":1274,"Ġboat":1275,"Ġcontin":1276,"Ġwatched":1277,"ations":1278,"Ġrabbit":1279,"Ġslide":1280,"Ġopen":1281,"ĠSarah":1282,"outh":1283,"oup":1284,"ient":1285,"Ġair":1286,"Ġokay":1287,"Ġface":1288,"Ġeveryone":1289,"bye":1290,"Ġfire":1291,"Ġact":1292,"ster":1293,"Ġswe":1294,"Ġpain":1295,"Ġstore":1296,"Ġyell":1297,"Ġtell":1298,"ident":1299,"ĠAl":1300,"Ġbit":1301,"oon":1302,"Ġtruck":1303,"Ġbeh":1304,"Lily":1305,"Ġmat":1306,"Ġhaving":1307,"der":1308,"kes":1309,"Ġsure":1310,"Ġz":1311,"Ġfell":1312,"Ġsuch":1313,"Ġfil":1314,"Ġwalk":1315,"Ġname":1316,"Ġcount":1317,"Ġdress":1318,"We":1319,"ĠJane":1320,"Ġele":1321,"Ġanother":1322,"uit":1323,"Ġmean":1324,"mb":1325,"ield":1326,"day":1327,"ĠUn":1328,"Ġcuri":1329,"ner":1330,"Ġcloser":1331,"Ġdro":1332,"Ġrep":1333,"Ġwarm":1334,"ained":1335,"Ġless":1336,"unny":1337,"Ġtop":1338,"Ġgoodbye":1339,"ower":1340,"more":1341,"Ġret":1342,"Ġmet":1343,"Ġreached":1344,"leep":1345,"ric":1346,"itc":1347,"Ġforg":1348,"me":1349,"Ġprin":1350,"Ġbright":1351,"bo":1352,"Ġhere":1353,"med":1354,"olly":1355,"ms":1356,"Ġacc":1357,"Ġcook":1358,"arent":1359,"Ġhelped":1360,"Look":1361,"illed":1362,"Ġhimself":1363,"Ġcurious":1364,"ier":1365,"Ġbrother":1366,"hy":1367,"ila":1368,"Ġlater":1369,"Ġpull":1370,"Ġste":1371,"ĠThat":1372,"ries":1373,"br":1374,"ret":1375,"Ġmaking":1376,"ndma":1377,"Ġdr":1378,"Ġleft":1379,"Ġpol":1380,"Ġbutter":1381,"Ġkid":1382,"Ġflo":1383,"Ġanymore":1384,"Ġstop":1385,"Ġcake":1386,"wards":1387,"Ġbirds":1388,"Ġ6":1389,"Ġfavor":1390,"duc":1391,"Ġbuild":1392,"ĠFin":1393,"Ġsweet":1394,"iet":1395,"Ġsand":1396,"Ġcut":1397,"One":1398,"ult":1399,"Ġcomm":1400,"Ġnum":1401,"ton":1402,"isy":1403,"Ġpoin":1404,"Can":1405,"ike":1406,"Ġheld":1407,"Ġhear":1408,"Ġdraw":1409,"arch":1410,"Ġgrabbed":1411,"Ġseen":1412,"ĠEm":1413,"az":1414,"itchen":1415,"Ġlight":1416,"Ġjumped":1417,"ĠLet":1418,"Ġkitchen":1419,"ĠEveryone":1420,"Ġdri":1421,"reed":1422,"ĠJoe":1423,"Ġmusic":1424,"Ġparent":1425,"Ġglad":1426,"Ġreally":1427,"Mom":1428,"Ġhappened":1429,"aper":1430,"Ġgrass":1431,"app":1432,"Ġunderst":1433,"outed":1434,"Ġturn":1435,"Ġsees":1436,"Ġmin":1437,"oney":1438,"Ġmess":1439,"Ġcreat":1440,"ually":1441,"Ġlost":1442,"Ġrealized":1443,"Ġmove":1444,"Ġhold":1445,"ere":1446,"Ġdone":1447,"Ġbunny":1448,"Ġread":1449,"ular":1450,"Ġfavorite":1451,"Ġfull":1452,"ott":1453,"Ġvis":1454,"Ġ7":1455,"Ġsoft":1456,"where":1457,"ale":1458,"Ġchar":1459,"Ġlearn":1460,"Ġyummy":1461,"Ġworked":1462,"Ġshouted":1463,"ined":1464,"Ġthing":1465,"Ġarri":1466,"Ġlady":1467,"Ġfur":1468,"rog":1469,"Ġbehind":1470,"Ġcoming":1471,"ger":1472,"Ġland":1473,"Ġwell":1474,"eter":1475,"Ġready":1476,"ĠDo":1477,"Ġate":1478,"Ġmum":1479,"Ġel":1480,"'re":1481,"Ġstick":1482,"Ġfix":1483,"Ġleav":1484,"ash":1485,"Ġcast":1486,"Ġcontinued":1487,"rel":1488,"Ġent":1489,"ont":1490,"Ġtouch":1491,"Ġcra":1492,"ason":1493,"Ġwhy":1494,"Ġplan":1495,"ocks":1496,"Ġsho":1497,"ert":1498,"Ġbutterf":1499,"Ġinv":1500,"Ġwood":1501,"Ġduring":1502,"ĠY":1503,"chool":1504,"ween":1505,"ister":1506,"Ġhat":1507,"Ġparents":1508,"ĠLila":1509,"Ġlooks":1510,"Ġpretend":1511,"Ġchildren":1512,"Ġpass":1513,"Ġrunning":1514,"Ġfollowed":1515,"ĠAll":1516,"Ġcatch":1517,"ener":1518,"Ġsat":1519,"Ġreg":1520,"Ġcars":1521,"Ġhop":1522,"Ġdark":1523,"ĠThere":1524,"Ġcool":1525,"Ġdoing":1526,"Ġtired":1527,"Ġkids":1528,"ove":1529,"Ġpond":1530,"Ġworry":1531,"Ġthink":1532,"Ġbat":1533,"Ġmouse":1534,"Ġflower":1535,"Ġ-":1536,"ost":1537,"Ġbow":1538,"Ġpus":1539,"Ġinst":1540,"Ġ8":1541,"iew":1542,"Ġgreen":1543,"Ġhair":1544,"ĠDa":1545,"Ġsupp":1546,"Ġdelic":1547,"ooks":1548,"Ġwaved":1549,"ĠTommy":1550,"Ġwin":1551,"Ġtast":1552,"ĠLe":1553,"ĠAr":1554,"Ġspot":1555,"Ġpat":1556,"Ġfunny":1557,"Ġfew":1558,"Ġlar":1559,"Ġwear":1560,"Ġpres":1561,"res":1562,"Ġdin":1563,"ĠRe":1564,"Ġwon":1565,"Ġbetween":1566,"Ġtrees":1567,"aby":1568,"Ġjoin":1569,"tion":1570,"enc":1571,"ling":1572,"Ġfinished":1573,"ĠSally":1574,"Wow":1575,"Ġneeded":1576,"Ġsurprise":1577,"Ġwindow":1578,"Ġfloor":1579,"Don":1580,"Ġslow":1581,"Ġsame":1582,"Ġable":1583,"cc":1584,"Ġclimb":1585,"Ġclose":1586,"ama":1587,"Ġblocks":1588,"Ġpaper":1589,"ugg":1590,"ating":1591,"mber":1592,"Ġrecord":1593,"Ġhopped":1594,"oun":1595,"Ġ9":1596,"Ġtow":1597,"Ġmar":1598,"Ġcolor":1599,"ubl":1600,"Ġyellow":1601,"Ġdisc":1602,"Ġthin":1603,"Ġcried":1604,"key":1605,"Ġcons":1606,"Ġpick":1607,"Ġmiss":1608,"Ġbar":1609,"Ġdist":1610,"ken":1611,"used":1612,"Ġcent":1613,"Ġ199":1614,"Ġswim":1615,"Ġice":1616,"Ġfilm":1617,"Ġlaugh":1618,"\".":1619,"Ġalong":1620,"Ġfour":1621,"Ġind":1622,"anger":1623,"row":1624,"avy":1625,"Ġsleep":1626,"ets":1627,"Ġcold":1628,"zy":1629,"Tom":1630,"Ġinter":1631,"ĠBenny":1632,"ĠWh":1633,"Ġbuy":1634,"ual":1635,"eddy":1636,"Ġwished":1637,"Ġarrived":1638,"Ġbag":1639,"Ġhappily":1640,"Ġpers":1641,"ible":1642,"Ġremembered":1643,"Ġlesson":1644,"Ġsecond":1645,"Ġbooks":1646,"Ġhot":1647,"orth":1648,"ello":1649,"Ġgu":1650,"Ġpur":1651,"Ġmight":1652,"Ġbutterfly":1653,"Ġfrog":1654,"Ġsurprised":1655,"Ġteam":1656,"Ġsuc":1657,"iting":1658,"Ġtri":1659,"Ġbelie":1660,"let":1661,"ored":1662,"Ġresp":1663,"ĠNew":1664,"ĠJim":1665,"Ġcarefully":1666,"asure":1667,"Ġlikes":1668,"Ġanything":1669,"Ġswing":1670,"Ġtall":1671,"Ġfair":1672,"Ġenjoyed":1673,"Ġretur":1674,"ĠDaisy":1675,"ational":1676,"Ġhole":1677,"Ġsub":1678,"Ġherself":1679,"ision":1680,"Ġfight":1681,"ps":1682,"Ġwrong":1683,"ĠFl":1684,"ĠGra":1685,"aces":1686,"Ġside":1687,"ask":1688,"Ġloc":1689,"Ġsign":1690,"ĠNow":1691,"Ġagreed":1692,"Ġenough":1693,"Hello":1694,"io":1695,"Ġothers":1696,"Ġref":1697,"per":1698,"Ġ00":1699,"Ġhill":1700,"lf":1701,"Ġunderstand":1702,"Ġnumber":1703,"Ġpop":1704,"Ġfall":1705,"ĠFinally":1706,"Ġschool":1707,"Ġtable":1708,"Ġmil":1709,"Ġcand":1710,"ĠBilly":1711,"Ġelse":1712,"Ġsnow":1713,"Ġword":1714,"Ġhun":1715,"Ġmother":1716,"ters":1717,"Ġfriendly":1718,"ĠDe":1719,"gr":1720,"Ġhid":1721,"ib":1722,"Ġwhite":1723,"Ġevent":1724,"over":1725,"Ġthank":1726,"Ġturned":1727,"Ġsit":1728,"Ġbroken":1729,"meric":1730,"Ġlead":1731,"Ġdir":1732,"Ġagainst":1733,"room":1734,"Ġsometimes":1735,"Ġdelicious":1736,"In":1737,"Ġproduc":1738,"ĠAmeric":1739,"oring":1740,"Ġsy":1741,"ĠAmy":1742,"Ġgrow":1743,"Ġcour":1744,"Ġfinally":1745,"Ġbaby":1746,"ĠHow":1747,"Ġbrought":1748,"Ġgent":1749,"Ġmoment":1750,"Ġplease":1751,"Ġstud":1752,"Ġgone":1753,"ury":1754,"Ġtreat":1755,"Ġfilled":1756,"Ġfield":1757,"Ġtight":1758,"Ġwonderful":1759,"Ġseason":1760,"gon":1761,"Ġleaves":1762,"ork":1763,"Ġmorning":1764,"Ġbug":1765,"ĠJen":1766,"icy":1767,"Ġsomeone":1768,"Ġwall":1769,"Ġdep":1770,"ants":1771,"Ġcolors":1772,"Ġship":1773,"Ġleg":1774,"leased":1775,"Ġconf":1776,"ple":1777,"aced":1778,"ĠSh":1779,"ature":1780,"ese":1781,"ape":1782,"Ġyes":1783,"irrel":1784,"ote":1785,"Ġgames":1786,"ral":1787,"Ġperform":1788,"bum":1789,"Ġtown":1790,"Ġtrain":1791,"ories":1792,"Ġdeep":1793,"Ġgetting":1794,"lect":1795,"Ġtowards":1796,"Ġmakes":1797,"less":1798,"ince":1799,"Ġep":1800,"Ġcla":1801,"ĠMar":1802,"vers":1803,"ming":1804,"ots":1805,"Ġ000":1806,"Ġstand":1807,"Ġpink":1808,"Ġass":1809,"Ġsquirrel":1810,"Ġcastle":1811,"ney":1812,"Ġinf":1813,"Ġob":1814,"Ġband":1815,"'ll":1816,"Ġtrying":1817,"Ġph":1818,"Ġstayed":1819,"igin":1820,"Ġwants":1821,"Ġrace":1822,"Ġbreak":1823,"Ġparty":1824,"Ġlion":1825,"Ġperfect":1826,"ĠWhat":1827,"Ġlate":1828,"Ġext":1829,"Ġrece":1830,"ives":1831,"Ġhig":1832,"Ġask":1833,"idge":1834,"Ġ10":1835,"Ġbeach":1836,"ĠCom":1837,"Ġsail":1838,"oom":1839,"Ġacross":1840,"Ġspl":1841,"ctor":1842,"ific":1843,"cle":1844,"Ġruns":1845,"ĠMolly":1846,"Ġgener":1847,"Ġwithout":1848,"ĠZ":1849,"ĠBl":1850,"Ġblack":1851,"Ġes":1852,"alth":1853,"Ġalone":1854,"Ġdinner":1855,"str":1856,"ics":1857,"eared":1858,"Ġpupp":1859,"Ġow":1860,"ced":1861,"Ġwet":1862,"Ġtail":1863,"Ġalbum":1864,"hip":1865,"reet":1866,"ley":1867,"ern":1868,"Ġsmell":1869,"Ġdream":1870,"Ġleave":1871,"Ġcookies":1872,"ĠCl":1873,"ents":1874,"Ġem":1875,"Ġ/":1876,"ject":1877,"olog":1878,"Ġvisit":1879,"Ġscary":1880,"Ġmust":1881,"Ġforgot":1882,"Ġpie":1883,"Ġclot":1884,"ead":1885,"Ġgroup":1886,"Ġlife":1887,"ek":1888,"ially":1889,"Ġyoung":1890,"Ġhungry":1891,"Ġdaddy":1892,"Ġcream":1893,"Ġthese":1894,"Ġgrandma":1895,"Ġsuccess":1896,"ises":1897,"isod":1898,"Ġpictures":1899,"ĠMary":1900,"Ġdanc":1901,"Ġamazing":1902,"Ġpower":1903,"unt":1904,"Ġclimbed":1905,"Ġeverything":1906,"ĠMaybe":1907,"els":1908,"aught":1909,"iam":1910,"ucky":1911,"Ġsister":1912,"Ġter":1913,"Ġtalk":1914,"Ġpubl":1915,"ball":1916,"Ġroll":1917,"Ġmoney":1918,"Ġmill":1919,"Ġepisod":1920,"uary":1921,"Ġwasn":1922,"Ġmix":1923,"Ġriver":1924,"Ġgi":1925,"Ġliving":1926,"Ġlistened":1927,"Ġmoved":1928,"Ġjob":1929,"Ġant":1930,"Ġheavy":1931,"Ġorigin":1932,"Ġdanger":1933,"Ġclothes":1934,"Ġduck":1935,"ĠBe":1936,"elc":1937,"af":1938,"Ġmed":1939,"aj":1940,"Ġhit":1941,"Ġstart":1942,"Ġcharac":1943,"Ġride":1944,"igg":1945,"Ġprot":1946,"ness":1947,"Ġjoy":1948,"ured":1949,"ĠTo":1950,"to":1951,"Ġ17":1952,"ived":1953,"Ġpuppy":1954,"Ġlast":1955,"Ġadd":1956,"Ġflying":1957,"old":1958,"Ġfree":1959,"Ġpot":1960,"Ġve":1961,"Ġperson":1962,"unch":1963,"Ġwoods":1964,"Ġthough":1965,"Ġincluding":1966,"Ġstrange":1967,"ipp":1968,"Ġpulled":1969,"ict":1970,"Ġdays":1971,"oman":1972,"und":1973,"cri":1974,"Ġshar":1975,"Ġpet":1976,"Ġsmiles":1977,"Ġspark":1978,"velop":1979,"sw":1980,"any":1981,"uffy":1982,"Ġ0":1983,"Ġshared":1984,"This":1985,"Ġowner":1986,"Oh":1987,"ĠMr":1988,"Ġfox":1989,"Ġasks":1990,"ĠJust":1991,"iec":1992,"Ġdance":1993,"ities":1994,"Ġearly":1995,"Ġclass":1996,"ober":1997,"ĠFr":1998,"Ġpar":1999,"ĠSoon":2000,"uz":2001,"Ġdire":2002,"Ġorgan":2003,"Ġteac":2004,"Ġbroke":2005,"ieces":2006,"ĠâĢĶ":2007,"Ġmoral":2008,"Ġhide":2009,"Ġcloud":2010,"tern":2011,"ray":2012,"ines":2013,"ments":2014,"Ġyard":2015,"Ġpieces":2016,"Ġlarge":2017,"acks":2018,"Ġpromised":2019,"Ġwaited":2020,"Ġstorm":2021,"une":2022,"ĠJill":2023,"Ġteddy":2024,"Ġbott":2025,"Ġmark":2026,"ĠUnited":2027,"itten":2028,"Ġamazed":2029,"ina":2030,"Ġseries":2031,"erv":2032,"Ġed":2033,"Ġlake":2034,"Ġ15":2035,"son":2036,"Ġquiet":2037,"Ġ198":2038,"ĠSc":2039,"ung":2040,"Ġ12":2041,"Ġju":2042,"erest":2043,"But":2044,"Ġknown":2045,"ĠBrit":2046,"Ġline":2047,"ten":2048,"Ġart":2049,"Ġprov":2050,"tle":2051,"Ġdisapp":2052,"ipped":2053,"Ġreach":2054,"Ġansw":2055,"oke":2056,"Ġroad":2057,"ows":2058,"Ġslowly":2059,"Ġmain":2060,"Ġsilly":2061,"set":2062,"ours":2063,"Ġinterest":2064,"ected":2065,"ĠDaddy":2066,"Ġwords":2067,"Ġcover":2068,"eck":2069,"ony":2070,"Ġ194":2071,"Ġgif":2072,"ute":2073,"Ġval":2074,"augh":2075,"Ġcourse":2076,"Ġarm":2077,"Ġclosed":2078,"eth":2079,"Ġsever":2080,"ountain":2081,"though":2082,"Ġfaster":2083,"ize":2084,"ateful":2085,"ĠWith":2086,"ately":2087,"Ġdevelop":2088,"Ġworried":2089,"ze":2090,"Ġwelc":2091,"Ġheart":2092,"Ġthinks":2093,"Ġmay":2094,"Ġjour":2095,"ĠEng":2096,"Ġcup":2097,"Ġcir":2098,"ider":2099,"fort":2100,"Ġgrateful":2101,"Ġepisode":2102,"gg":2103,"Ġoper":2104,"Okay":2105,"Ġmouth":2106,"Ġtower":2107,"Ġcolorful":2108,"Maybe":2109,"Ġseveral":2110,"Ġpaint":2111,"Ġhelping":2112,"ĠMay":2113,"Ġhigher":2114,"sp":2115,"ides":2116,"Ġbigger":2117,"ative":2118,"Ġdangerous":2119,"Ġdef":2120,"Ġwhe":2121,"Ġkiss":2122,"aur":2123,"ush":2124,"Ġconc":2125,"Mommy":2126,"Ġben":2127,"ĠWar":2128,"Ġlonger":2129,"ah":2130,"icks":2131,"Ġbelieve":2132,"Ġmonster":2133,"Ġblank":2134,"Ġpen":2135,"ces":2136,"Ġmonkey":2137,"Ġtreasure":2138,"ighb":2139,"Ġadm":2140,"Ġspe":2141,"Ġ16":2142,"Ġsea":2143,"Ġcandy":2144,"ital":2145,"Ġreleased":2146,"Ġkey":2147,"Ġeff":2148,"Ġmagical":2149,"Ġprincess":2150,"ery":2151,"board":2152,"itting":2153,"Ġchair":2154,"ĠAmerican":2155,"Ġbowl":2156,"Ġbrown":2157,"Ġcity":2158,"cks":2159,"Ġsmart":2160,"aid":2161,"Ġeverywhere":2162,"Ġtaking":2163,"anch":2164,"Ġbike":2165,"ivers":2166,"Ġoffic":2167,"Ġneighb":2168,"Ġgun":2169,"ĠInd":2170,"Ġ197":2171,"Ġround":2172,"Ġfarmer":2173,"Ġfruit":2174,"Ġdragon":2175,"Ġaccident":2176,"OK":2177,"read":2178,"ife":2179,"aughter":2180,"uth":2181,"Ġthrew":2182,"Ġtoday":2183,"ĠMama":2184,"orted":2185,"Ġpast":2186,"ucks":2187,"ilt":2188,"Ġ196":2189,"Ġ11":2190,"Ġnap":2191,"asket":2192,"arl":2193,"ĠAust":2194,"ept":2195,"Ġpiece":2196,"Ġking":2197,"Ġwrote":2198,"Ġexplained":2199,"Ġpresent":2200,"Why":2201,"ones":2202,"Ġinstead":2203,"Ġsim":2204,"Ġhum":2205,"orts":2206,"Ġpos":2207,"Ġtrans":2208,"ĠGer":2209,"Ġstepped":2210,"ium":2211,"ator":2212,"Sure":2213,"Ġwouldn":2214,"Ġbath":2215,"rop":2216,"Ġrev":2217,"Ġbee":2218,"ction":2219,"Ġbring":2220,"Ġbite":2221,"Hi":2222,"owed":2223,"Ġdirty":2224,"Ġcal":2225,"Ġfoot":2226,"Ġcrying":2227,"Ġstars":2228,"Ġcorn":2229,"Ġhoped":2230,"Ġanimal":2231,"ĠGr":2232,"Ġest":2233,"acked":2234,"ears":2235,"ution":2236,"ĠTheir":2237,"Ġstuck":2238,"Ġmatch":2239,"vely":2240,"Ġdolls":2241,"Ġmeet":2242,"Ġbasket":2243,"Ġsold":2244,"Ġeating":2245,"orrow":2246,"Ġfront":2247,"althy":2248,"ubb":2249,"Ġcarr":2250,"Ġdesign":2251,"Ġstories":2252,"ĠLater":2253,"Ġsuddenly":2254,"Ġav":2255,"Ġtwins":2256,"uss":2257,"Ġballoon":2258,"Ġfive":2259,"Ġnearby":2260,"cted":2261,"ocked":2262,"Ġadv":2263,"ĠEmma":2264,"irth":2265,"ages":2266,"Ġbuilding":2267,"Ġdry":2268,"Ġpushed":2269,"Ġproble":2270,"ining":2271,"Ġmagic":2272,"Ġteacher":2273,"Ġdaughter":2274,"elly":2275,"Ġmid":2276,"Ġbuck":2277,"Ġfeels":2278,"Ġdrove":2279,"ues":2280,"stem":2281,"Ġfollowing":2282,"Ġdescri":2283,"Ġdoctor":2284,"ists":2285,"sy":2286,"ĠGrandma":2287,"ĠWor":2288,"ught":2289,"Ġcrit":2290,"Ġmillion":2291,"Ġappeared":2292,"igned":2293,"ĠJimmy":2294,"Ġgentle":2295,"ement":2296,"Ġturns":2297,"Ġsinging":2298,"itch":2299,"ĠAd":2300,"Ġhar":2301,"Ġoften":2302,"Ġhor":2303,"ĠUS":2304,"Ġdropped":2305,"Ġwings":2306,"ĠTr":2307,"Ġfairy":2308,"ĠWill":2309,"Ġdest":2310,"Ġce":2311,"ying":2312,"ĠIs":2313,"Ġbal":2314,"Ġvill":2315,"Ġcross":2316,"Ġform":2317,"Ġreceived":2318,"its":2319,"ĠQ":2320,"cept":2321,"Ġrelie":2322,"ĠNo":2323,"Ġeng":2324,"Ġsongs":2325,"Ġclapped":2326,"ison":2327,"ĠHowever":2328,"ĠInside":2329,"Ġcray":2330,"Ġshap":2331,"ĠGe":2332,"Ġpract":2333,"umb":2334,"Ġpock":2335,"ats":2336,"Ġbelong":2337,"reamed":2338,"ience":2339,"Ġstate":2340,"aged":2341,"vious":2342,"Ġwelcome":2343,"Ġtrou":2344,"Ġhappen":2345,"Ġsol":2346,"Ġcaught":2347,"Ġcarry":2348,"Ġtakes":2349,"Ġhist":2350,"ron":2351,"Ġswings":2352,"ped":2353,"vern":2354,"Ġ$":2355,"Ġ13":2356,"Ġsecret":2357,"Ġsang":2358,"Ġsal":2359,"la":2360,"Ġfarm":2361,"Ġann":2362,"ĠGerman":2363,"ĠHar":2364,"ĠBritish":2365,"Ġsix":2366,"Ġsince":2367,"ended":2368,"aken":2369,"Ġhon":2370,"Ġblanket":2371,"na":2372,"Ben":2373,"Ġrad":2374,"Ġneck":2375,"Ġmod":2376,"yard":2377,"Ġforget":2378,"ĠCon":2379,"Ġcre":2380,"Ġstreet":2381,"Ġreturned":2382,"Ġupset":2383,"Ġcard":2384,"irt":2385,"Ġcamp":2386,"ĠFor":2387,"Ġpri":2388,"ajor":2389,"osed":2390,"ĠAug":2391,"Ġcheered":2392,"Ġbirth":2393,"Ġfeet":2394,"Ġshop":2395,"Ġeventually":2396,"ĠSept":2397,"gy":2398,"aceful":2399,"ism":2400,"ĠSeptember":2401,"Ġadventures":2402,"ude":2403,"Ġdiscover":2404,"Ġmine":2405,"Ġnest":2406,"ĠAugust":2407,"ĠCol":2408,"uzz":2409,"osp":2410,"ĠMum":2411,"Ġrespect":2412,"Ġcharacter":2413,"Ġeleph":2414,"ches":2415,"Ġseemed":2416,"yp":2417,"ĠStates":2418,"Ġocc":2419,"Ġnothing":2420,"uly":2421,"Ġshoes":2422,"Ġlon":2423,"ĠKing":2424,"Ġgovern":2425,"Ġthose":2426,"Ġwish":2427,"Ġarms":2428,"ĠPr":2429,"Ġbecome":2430,"Ġapple":2431,"Ġeas":2432,"Ġnoises":2433,"Ġarea":2434,"ĠJan":2435,"Ġview":2436,"Ġoriginal":2437,"most":2438,"Ġled":2439,"pping":2440,"Ġbuilt":2441,"Ġcomes":2442,"Ġquest":2443,"Ġowl":2444,"Ġtom":2445,"rib":2446,"ĠWhile":2447,"ĠAn":2448,"gin":2449,"Ġ14":2450,"Ġlonely":2451,"Ġonto":2452,"ager":2453,"Ġra":2454,"..":2455,"Ġlunch":2456,"Ġjar":2457,"ĠEll":2458,"Ġpocket":2459,"ĠChr":2460,"isted":2461,"Ġholding":2462,"Ġsugg":2463,"weet":2464,"Ġkm":2465,"llo":2466,"Ġcou":2467,"Ġrocks":2468,"Ġbranch":2469,"port":2470,"ĠWorld":2471,"Ġsounds":2472,"Ġexploring":2473,"que":2474,"iving":2475,"ility":2476,"Anna":2477,"Ġwide":2478,"Ġhugs":2479,"Ġfence":2480,"Ġcollect":2481,"Ġ195":2482,"Ġvide":2483,"utes":2484,"ĠMe":2485,"Ġcap":2486,"Ġsoup":2487,"Ġwise":2488,"ĠOct":2489,"Ġcontro":2490,"Ġpartic":2491,"Ġmail":2492,"Ġwoman":2493,"eal":2494,"Ġfit":2495,"Ġnorth":2496,"icked":2497,"Ġorange":2498,"Ġbur":2499,"Ġmach":2500,"Ġappro":2501,"Ġincre":2502,"Ġshook":2503,"ĠFluffy":2504,"uce":2505,"ensive":2506,"ĠAustral":2507,"aughty":2508,"ne":2509,"Ġbackyard":2510,"Ġsystem":2511,"Ġpig":2512,"owing":2513,"Ġnaughty":2514,"ĠJune":2515,"Ġshell":2516,"Ġsitting":2517,"Ġprotect":2518,"Ã©":2519,"Ġ193":2520,"Ġpress":2521,"Ġspent":2522,"Ġshort":2523,"Ġpurple":2524,"ĠAnn":2525,"ĠOr":2526,"Ġswam":2527,"Ġaf":2528,"te":2529,"ĠSammy":2530,"ĠOctober":2531,"Ġbench":2532,"dle":2533,"iness":2534,"ination":2535,"ĠGeor":2536,"Do":2537,"Ġshapes":2538,"Ġpatient":2539,"Ġord":2540,"Ġeast":2541,"Ġnose":2542,"Ġwoke":2543,"Ġjourney":2544,"Ġtiny":2545,"Ġmen":2546,"Ġvar":2547,"Ġbusy":2548,"Ġsupport":2549,"ĠBy":2550,"Ġsingle":2551,"Ġla":2552,"Ġlaw":2553,"Ġfather":2554,"Ġtouc":2555,"Ġmist":2556,"Ġimag":2557,"Ġ191":2558,"Ġmad":2559,"bow":2560,"Ġsick":2561,"Ġgrand":2562,"ring":2563,"ested":2564,"Ġhuge":2565,"Ġtele":2566,"mon":2567,"Ġrequ":2568,"Ġwondered":2569,"andy":2570,"Ġcur":2571,"Ġcentury":2572,"Ġalmost":2573,"ices":2574,"Ġrelieved":2575,"Ġ]":2576,"ĠNorth":2577,"Ġhalf":2578,"Ġspin":2579,"ĠSe":2580,"Ġegg":2581,"raid":2582,"Ġgift":2583,"Ġgather":2584,"Ġdem":2585,"tal":2586,"Ġcompet":2587,"Ġpost":2588,"Ġdriver":2589,"Ġwhole":2590,"ĠPl":2591,"Ġkite":2592,"ov":2593,"Ġ[":2594,"ĠPeter":2595,"Ġjuice":2596,"Ġcreature":2597,"Ġforever":2598,"Ġban":2599,"Ġfing":2600,"ians":2601,"Ġbirthday":2602,"Ġtaken":2603,"Ġsour":2604,"den":2605,"Ġlay":2606,"Ġdeter":2607,"ains":2608,"Ġpath":2609,"Ġboun":2610,"Ġgives":2611,"Ġafraid":2612,"Ġpromise":2613,"Ġpublic":2614,"Ġbought":2615,"ĠTweet":2616,"Ġ%":2617,"Ġmajor":2618,"ĠJuly":2619,"Ġelephant":2620,"Ġcomple":2621,"ĠRo":2622,"par":2623,"Ġhorse":2624,"ars":2625,"Ġesc":2626,"pril":2627,"Ġcapt":2628,"fic":2629,"Ġwatching":2630,"Ġhope":2631,"Ġposs":2632,"Ġcute":2633,"ĠApril":2634,"Ġhur":2635,"Ġsharp":2636,"Ġlow":2637,"Ġble":2638,"struc":2639,"Ġaccidentally":2640,"ording":2641,"cean":2642,"Ġemb":2643,"ĠThank":2644,"Of":2645,"ĠNove":2646,"ĠSome":2647,"ĠNovember":2648,"ĠFe":2649,"Ġexper":2650,"Ġself":2651,"Ġcirc":2652,"Ġrub":2653,"Ġincluded":2654,"Ġthird":2655,"Ġappear":2656,"Ġru":2657,"Ġtouched":2658,"ention":2659,"Ġswimming":2660,"ges":2661,"Ġexciting":2662,"ense":2663,"ittens":2664,"ik":2665,"Ġdrink":2666,"iversity":2667,"Ġimpress":2668,"Ġmot":2669,"Ġsaf":2670,"Ġstra":2671,"Ġmonth":2672,"Ġfinal":2673,"Ġhours":2674,"Ġtest":2675,"uper":2676,"ship":2677,"Ġfurther":2678,"Ġpointed":2679,"Ġev":2680,"ĠCome":2681,"ĠMarch":2682,"Ġsunny":2683,"ana":2684,"ĠEd":2685,"adow":2686,"Ġanyone":2687,"ĠDon":2688,"ĠYork":2689,"Ġport":2690,"Ġcheese":2691,"lder":2692,"oose":2693,"Ġbucket":2694,"Ġtem":2695,"Sara":2696,"Ġnet":2697,"Ġwild":2698,"Ġvideo":2699,"Ġsearch":2700,"ural":2701,"Ġhello":2702,"pper":2703,"Ġwra":2704,"ively":2705,"Ġlaughing":2706,"aul":2707,"Ġsent":2708,"ech":2709,"Ġbody":2710,"Ġmatter":2711,"iter":2712,"shine":2713,"arth":2714,"Ġbreat":2715,"Tim":2716,"Ġtimes":2717,"Ġvillage":2718,"Ġap":2719,"ract":2720,"Ġbread":2721,"Ġorder":2722,"Ġ30":2723,"Ġcraw":2724,"Ġmind":2725,"Ġworking":2726,"imed":2727,"urch":2728,"Ġrainbow":2729,"Ġfig":2730,"Ġisland":2731,"Ġbush":2732,"Ġmilk":2733,"Ġcave":2734,"Ġusing":2735,"Ġweek":2736,"Ġminutes":2737,"ĠEmily":2738,"ointed":2739,"Ġplane":2740,"Ġgigg":2741,"lebr":2742,"Ġbottle":2743,"Ġsear":2744,"Ġwhist":2745,"Ġsouth":2746,"ission":2747,"ĠJenny":2748,"Ġcozy":2749,"Ġenc":2750,"Ġhoney":2751,"Ġinteresting":2752,"rat":2753,"Ġtalked":2754,"Ġdeterm":2755,"ground":2756,"Ġserv":2757,"Ġmoder":2758,"ato":2759,"Ġmountain":2760,"Ġsuccessful":2761,"bers":2762,"ĠCar":2763,"lish":2764,"iff":2765,"Ġpay":2766,"Ġvers":2767,"Hey":2768,"St":2769,"Ġcost":2770,"ĠMc":2771,"Ġclear":2772,"Ġsunshine":2773,"roy":2774,"Ġpassed":2775,"Ġplant":2776,"ified":2777,"Ġplaces":2778,"Ġclub":2779,"isa":2780,"Ġdue":2781,"ĠDece":2782,"Ġfact":2783,"ague":2784,"Ġfre":2785,"Ġcann":2786,"ĠSouth":2787,"bs":2788,"Ġcond":2789,"ĠPh":2790,"ĠDecember":2791,"ither":2792,"dom":2793,"airs":2794,"Ġsearched":2795,"Ġcelebr":2796,"Ġtour":2797,"Ġshout":2798,"ently":2799,"Ġrob":2800,"Ġlucky":2801,"Ġcarried":2802,"Ġfighting":2803,"ĠFo":2804,"Ġdam":2805,"Ġproblem":2806,"Ġsandw":2807,"Ġ25":2808,"Ġputs":2809,"Ġpolice":2810,"Ġson":2811,"Ġmachine":2812,"ĠJanuary":2813,"Ġdrive":2814,"Ġpopular":2815,"Ġbased":2816,"Ġpudd":2817,"ĠAb":2818,"Ġreturn":2819,"Ġfeather":2820,"Ġgold":2821,"Ġcomb":2822,"ically":2823,"Ġ192":2824,"Ġletter":2825,"Ġplayer":2826,"Ġring":2827,"Ġforward":2828,"Ġmyster":2829,"Ġgovernment":2830,"Ġhealthy":2831,"Ġtit":2832,"Ġtrack":2833,"ĠDan":2834,"fortable":2835,"work":2836,"sel":2837,"Ġapples":2838,"Ġgoes":2839,"Ġwrite":2840,"Ġwearing":2841,"Ġgiven":2842,"Ġlive":2843,"Ġsmiling":2844,"erry":2845,"Ġneighbor":2846,"ĠEur":2847,"Ġonce":2848,"Ġopp":2849,"Ġspotted":2850,"Ġpill":2851,"Ġdeath":2852,"Ġsmo":2853,"asing":2854,"Ġcorner":2855,"Ġadded":2856,"Ġclouds":2857,"Ġspread":2858,"Ġarg":2859,"Ġcountry":2860,"ĠII":2861,"Ġdiffic":2862,"ĠNe":2863,"anged":2864,"Ġclever":2865,"apan":2866,"Ġmud":2867,"pa":2868,"ĠSm":2869,"Ġshr":2870,"Ġequ":2871,"Ġ...":2872,"Ġloves":2873,"Ġwave":2874,"Ġten":2875,"ĠTV":2876,"Ġtrouble":2877,"sc":2878,"Ġreview":2879,"Ġpile":2880,"Ġcoat":2881,"ival":2882,"Ġtasty":2883,"Ġpuzz":2884,"head":2885,"ef":2886,"een":2887,"Ġdescribed":2888,"ĠMark":2889,"Ġgiant":2890,"ĠJapan":2891,"ospital":2892,"Ġprevious":2893,"Ġspoon":2894,"itive":2895,"Ġpoor":2896,"ls":2897,"ĠChrist":2898,"Ġbridge":2899,"ÅĵI":2900,"Ġattem":2901,"Ġmeant":2902,"Ġrelease":2903,"Good":2904,"ĠSomet":2905,"Ġstep":2906,"ĠFred":2907,"gged":2908,"Ġducks":2909,"epend":2910,"Ġzoom":2911,"Ġcoin":2912,"ior":2913,"Ġrope":2914,"Ġzoo":2915,"Ġshining":2916,"ĠTogether":2917,"ĠJake":2918,"Ġash":2919,"rated":2920,"Ġanswer":2921,"roduc":2922,"Ġbutton":2923,"Ġesp":2924,"Ġpack":2925,"atter":2926,"Ġcrayons":2927,"Ġtries":2928,"Ġstone":2929,"ler":2930,"Ġchange":2931,"Ġpoint":2932,"rench":2933,"Ġcheer":2934,"Ġstri":2935,"ilar":2936,"aining":2937,"ĠCo":2938,"ional":2939,"ĠMy":2940,"ishing":2941,"Ġocean":2942,"aff":2943,"ĠBill":2944,"Ġdanced":2945,"Ġsmelled":2946,"ecially":2947,"ogra":2948,"ĠGeorge":2949,"rence":2950,"iod":2951,"Ġmemb":2952,"ĠComm":2953,"Ġign":2954,"ĠMittens":2955,"ĠLisa":2956,"iding":2957,"play":2958,"Ġsnack":2959,"Ġprop":2960,"Ġcow":2961,"Ġtrip":2962,"Ġspo":2963,"Ġteeth":2964,"Ġespecially":2965,"pted":2966,"Ġfinish":2967,"selves":2968,"Ġsnake":2969,"Ġ100":2970,"yal":2971,"por":2972,"ĠTe":2973,"Ġphone":2974,"Ġcommand":2975,"Ġcannot":2976,"Ġstat":2977,"vision":2978,"ann":2979,"Ġasleep":2980,"ĠDav":2981,"ĠÂ":2982,"Ġfigure":2983,"Ġwithin":2984,"Ġdestroy":2985,"ivision":2986,"itty":2987,"Jo":2988,"Ġseat":2989,"Ġscreamed":2990,"Ġconfused":2991,"Ġlovely":2992,"Come":2993,"icket":2994,"Ġer":2995,"ief":2996,"ene":2997,"Ġhowever":2998,"Ġstret":2999,"Ġbark":3000,"oute":3001,"Ġsaying":3002,"Ġgently":3003,"ĠSus":3004,"Ġgas":3005,"Ġstation":3006,"bruary":3007,"Ġcoll":3008,"Ġiss":3009,"ĠBrown":3010,"Ġalthough":3011,"ĠFebruary":3012,"ĠJoh":3013,"ising":3014,"izz":3015,"Ġmodern":3016,"Ġmembers":3017,"ĠBat":3018,"gth":3019,"box":3020,"Ġaddition":3021,"Ġeffect":3022,"Ġcomplet":3023,"Ġdirt":3024,"Ġsnowman":3025,"Ġsum":3026,"ĠLittle":3027,"Ġflag":3028,"Ġspecies":3029,"Ġlab":3030,"ror":3031,"osaur":3032,"Ġcolour":3033,"ĠInt":3034,"Ġrolled":3035,"Ġtravel":3036,"Ġcop":3037,"arra":3038,"Ġscar":3039,"Ġrul":3040,"Ġpolit":3041,"Ġlad":3042,"nic":3043,"Ġbase":3044,"Ġsell":3045,"Ġoffice":3046,"pite":3047,"Ġcoo":3048,"kin":3049,"Ġsty":3050,"Ġthrow":3051,"ique":3052,"Ġsplas":3053,"Ġgrew":3054,"ancy":3055,"Ġdelight":3056,"Ġtalking":3057,"ocol":3058,"Ġdifficult":3059,"Ġwore":3060,"ĠPe":3061,"iger":3062,"itions":3063,"Ġfaces":3064,"Ġtasted":3065,"ances":3066,"Ġhospital":3067,"raft":3068,"Ġsmooth":3069,"Ġtells":3070,"Ġformer":3071,"gest":3072,"ĠNational":3073,"Ġperiod":3074,"Ġpour":3075,"Ġweak":3076,"Ġamong":3077,"Ġins":3078,"Ġspider":3079,"nam":3080,"ĠEurope":3081,"Ġcalm":3082,"oof":3083,"Ġinfl":3084,"ĠEl":3085,"ĠFrench":3086,"Ġeight":3087,"Ġdecor":3088,"cast":3089,"uitar":3090,"Ġbell":3091,"ales":3092,"Ġremind":3093,"light":3094,"Ġstage":3095,"Ġpool":3096,"Ġtun":3097,"ĠGu":3098,"Ġ2010":3099,"hel":3100,"Ġforgive":3101,"Ġwest":3102,"ume":3103,"Ġpowerful":3104,"Ġpeaceful":3105,"ĠHen":3106,"Ġallowed":3107,"Ġmov":3108,"Ġchick":3109,"Ġrude":3110,"olf":3111,"oci":3112,"Ġwaiting":3113,"Ġmissed":3114,"ĠEven":3115,"Ġoven":3116,"Ġmiddle":3117,"ipe":3118,"Ġshows":3119,"Ġrole":3120,"ĠX":3121,"Ġcor":3122,"ĠJames":3123,"Ġpush":3124,"Ġhelpful":3125,"ending":3126,"Ġinit":3127,"ĠWilliam":3128,"ĠMan":3129,"ĠIf":3130,"ĠWest":3131,"Ġtrust":3132,"Ġboard":3133,"Ġengine":3134,"ĠBar":3135,"Ġtyp":3136,"Ġfixed":3137,"ready":3138,"Ġpicnic":3139,"Ġcookie":3140,"Ġpretended":3141,"Ġstring":3142,"Ġshy":3143,"Ġvol":3144,"eb":3145,"Ġ21":3146,"eds":3147,"ĠDuring":3148,"ĠPet":3149,"Ġjoined":3150,"ropical":3151,"Ġfurry":3152,"ĠMin":3153,"Ġestab":3154,"Ġtor":3155,"Ġknee":3156,"ĠGrand":3157,"Ġconsid":3158,"Ġtid":3159,"uted":3160,"erp":3161,"Ġpan":3162,"Ġsuff":3163,"Ġchocol":3164,"cl":3165,"Ġlocal":3166,"Ġlanded":3167,"Ġcompany":3168,"ulation":3169,"Ġattack":3170,"Ġobs":3171,"ighed":3172,"Ġvict":3173,"ĠMich":3174,"arrass":3175,"Ġmoving":3176,"Ġdeb":3177,"com":3178,"uct":3179,"Ġalready":3180,"Ġshoot":3181,"Ġsil":3182,"Ġhiding":3183,"Ġtomorrow":3184,"Ġimpro":3185,"Ġsave":3186,"Ġeager":3187,"Ġcreated":3188,"Ġembarrass":3189,"ho":3190,"nal":3191,"ham":3192,"Ġtaste":3193,"Ġstood":3194,"Ġblew":3195,"Ġ2008":3196,"Ġplants":3197,"Ġfeature":3198,"ĠTod":3199,"rag":3200,"Ġexam":3201,"lex":3202,"Ġladder":3203,"ering":3204,"Ġwee":3205,"Ġstanding":3206,"Ġ2009":3207,"cial":3208,"Ġleaf":3209,"Ġwritten":3210,"Ġwhenever":3211,"Ġchased":3212,"nny":3213,"phy":3214,"Ġsimilar":3215,"itary":3216,"Ġregular":3217,"Ġindepend":3218,"Ġveget":3219,"My":3220,"Ġdrum":3221,"ĠPat":3222,"Ġ24":3223,"ĠPaul":3224,"ĠSometimes":3225,"Ġplaced":3226,"Ġcouch":3227,"Ġrod":3228,"Ġtreats":3229,"Ġguitar":3230,"Ġcase":3231,"fl":3232,"Ġpil":3233,"Ġgar":3234,"Ġdetermined":3235,"Ġfeed":3236,"Ġlegs":3237,"ĠGo":3238,"Ġhous":3239,"Ġconstruc":3240,"Ġlevel":3241,"ables":3242,"ĠTeddy":3243,"Ġmarket":3244,"Ġcreative":3245,"ases":3246,"ertain":3247,"Ġ2011":3248,"Ġabove":3249,"Ġstir":3250,"Ġplate":3251,"Ġbugs":3252,"Ġneckl":3253,"Ġ&":3254,"Ġoffered":3255,"men":3256,"ube":3257,"Ġpra":3258,"estern":3259,"Ġtrue":3260,"hest":3261,"Ġdiscovered":3262,"Ġchocolate":3263,"omin":3264,"ungle":3265,"Ġblock":3266,"enn":3267,"iron":3268,"Ġmaybe":3269,"Ġshelf":3270,"Ġempt":3271,"Ġhistory":3272,"oph":3273,"line":3274,"Ġdrew":3275,"Ġmeasure":3276,"Ġvi":3277,"Ġcovered":3278,"Ġremained":3279,"ĠEngland":3280,"Ġselfish":3281,"rit":3282,"Ġglass":3283,"Ġpuddle":3284,"Ġtelevision":3285,"Ġconsidered":3286,"Ġshore":3287,"Ġsurf":3288,"Ġhonest":3289,"Ġaff":3290,"Ġdistance":3291,"Ġsack":3292,"Ġmoon":3293,"Ġcloth":3294,"Ġmem":3295,"ĠAng":3296,"Ġspray":3297,"Ġsharing":3298,"roc":3299,"Ġknocked":3300,"ella":3301,"sequ":3302,"Ġdig":3303,"Ġpaw":3304,"umpy":3305,"Ġsuggested":3306,"Ġjungle":3307,"aked":3308,"Ġgray":3309,"Ġ22":3310,"astic":3311,"Ġwash":3312,"ĠAm":3313,"Ġsepar":3314,"Ġ2007":3315,"Ġcommun":3316,"Ġrare":3317,"ricane":3318,"Ġbarked":3319,"Ġauth":3320,"Ġannoun":3321,"kn":3322,"ĠEverywhere":3323,"amer":3324,"Ġshirt":3325,"Ġinclude":3326,"ĠPark":3327,"Ġjumping":3328,"Ġpoints":3329,"ogn":3330,"ĠJohnny":3331,"cy":3332,"lo":3333,"ustrated":3334,"ĠEast":3335,"Ġfear":3336,"Ġcarrot":3337,"ĠSte":3338,"Ġrobot":3339,"Ġnorm":3340,"elp":3341,"Ġempty":3342,"ection":3343,"ĠBo":3344,"het":3345,"ampions":3346,"Ġtaught":3347,"Ġdefe":3348,"Ġrecorded":3349,"ĠCity":3350,"Ġunderstood":3351,"Ġteach":3352,"Ġvan":3353,"ceed":3354,"iment":3355,"Ġsuper":3356,"ĠEnglish":3357,"Ġcalling":3358,"Ġwriting":3359,"Ġnut":3360,"Ġpin":3361,"Please":3362,"Ġproduction":3363,"iction":3364,"Ġparticular":3365,"ĠCount":3366,"ĠBlue":3367,"Ġposition":3368,"omen":3369,"lected":3370,"Ġeasy":3371,"alk":3372,"Ġembarrassed":3373,"ĠHenry":3374,"Ġversion":3375,"Ġtea":3376,"ences":3377,"Ġdirect":3378,"ĠThese":3379,"Ġseek":3380,"ighter":3381,"Ġearl":3382,"Ġlit":3383,"Ġcart":3384,"Ġspace":3385,"Ġinvol":3386,"Ġhidden":3387,"Ġnecklace":3388,"Ġjog":3389,"Ġgoal":3390,"Ġdet":3391,"rest":3392,"ĠAlice":3393,"Ġwaves":3394,"ĠCent":3395,"Ġtightly":3396,"Ġ2012":3397,"ĠPlease":3398,"ondon":3399,"Ġsheep":3400,"ado":3401,"Ġdead":3402,"reek":3403,"Ġsticks":3404,"Ġextra":3405,"Ġbreath":3406,"Ġwhis":3407,"co":3408,"Ġtrad":3409,"Ġdied":3410,"Ġrecogn":3411,"Ġtidy":3412,"aps":3413,"Ġeither":3414,"ĠAlex":3415,"John":3416,"Ġmixed":3417,"Ġjew":3418,"There":3419,"Ġthick":3420,"resent":3421,"Ġinflu":3422,"Ġanc":3423,"ology":3424,"Ġdisappointed":3425,"Ġobject":3426,"Ġfail":3427,"Ġcarrots":3428,"Ġleaving":3429,"Ġ23":3430,"ĠLondon":3431,"ĠRiver":3432,"Ġthemselves":3433,"Ġproject":3434,"Ġmanaged":3435,"int":3436,"val":3437,"Ġresult":3438,"Ġgiving":3439,"fted":3440,"Ġhang":3441,"body":3442,"ford":3443,"Ġfill":3444,"Ġlog":3445,"ĠWhy":3446,"ĠAir":3447,"ably":3448,"ĠTw":3449,"Ġhears":3450,"Ġgate":3451,"Ġcrown":3452,"ĠRed":3453,"Ġcontrol":3454,"Ġavail":3455,"uel":3456,"Ġones":3457,"oop":3458,"Ġknowing":3459,"Ġfamous":3460,"Ġwhistle":3461,"Ġchanged":3462,"ĠCal":3463,"Ġcontent":3464,"Ġ190":3465,"Ġresul":3466,"ument":3467,"stit":3468,"Ġquar":3469,"Ġmysterious":3470,"Ġelect":3471,"Ġreve":3472,"iety":3473,"iest":3474,"Ġashamed":3475,"craft":3476,"ĠEx":3477,"ĠCanad":3478,"medi":3479,"Ġprof":3480,"gram":3481,"Ġsplash":3482,"Ġmeadow":3483,"ĠMummy":3484,"Ġattempt":3485,"ĠLeo":3486,"Ġprince":3487,"Ġwife":3488,"Ġcreate":3489,"au":3490,"Ġbedroom":3491,"Ġhunt":3492,"ĠUniversity":3493,"Ġtent":3494,"Ġmeans":3495,"apped":3496,"Ġhuman":3497,"Ġgathered":3498,"Ġcommon":3499,"ency":3500,"Ġtotal":3501,"Ġfeat":3502,"Ġnovel":3503,"Ġlock":3504,"Ġserved":3505,"onom":3506,"ĠMor":3507,"Ġinvest":3508,"Ġmel":3509,"Ġyelled":3510,"ervous":3511,"angu":3512,"Ġcrab":3513,"Ġcompl":3514,"Ġgenerous":3515,"Ġsnacks":3516,"lies":3517,"icro":3518,"Ġnervous":3519,"ging":3520,"Ġdi":3521,"Ġchest":3522,"Ġsight":3523,"ĠSy":3524,"Ġexpensive":3525,"Ġended":3526,"Ġpir":3527,"Ġeye":3528,"ppy":3529,"min":3530,"Ġships":3531,"Ġbored":3532,"Ġbatter":3533,"iled":3534,"att":3535,"Ġsaved":3536,"Ġphot":3537,"aly":3538,"Ġchew":3539,"ĠEnd":3540,"Ġsmaller":3541,"Ġintroduc":3542,"Ġmedic":3543,"Ġfinger":3544,"Ġdinosaur":3545,"iant":3546,"ola":3547,"Ġmovie":3548,"Ġproduced":3549,"Ġpuzzle":3550,"Ġwolf":3551,"Ġkitten":3552,"Ġsparkly":3553,"ille":3554,"ĠDavid":3555,"Where":3556,"ĠToday":3557,"Ġreported":3558,"Ġperformance":3559,"Ġfrustrated":3560,"Ġpublished":3561,"Ġitself":3562,"oles":3563,"ugar":3564,"Ġsuit":3565,"Ġasking":3566,"ald":3567,"apt":3568,"Ġtie":3569,"Ġlim":3570,"ĠNor":3571,"izza":3572,"Sam":3573,"iser":3574,"Ġstudy":3575,"Ġbattle":3576,"ĠMad":3577,"Ġstated":3578,"iers":3579,"ns":3580,"Ġprogram":3581,"Ġbegin":3582,"ĠMag":3583,"Ġavailable":3584,"azine":3585,"Ġboss":3586,"ushed":3587,"Ġmir":3588,"Ġ2006":3589,"ĠHigh":3590,"Ġfavour":3591,"Ġsandwich":3592,"Ġstyle":3593,"Ġscream":3594,"ites":3595,"gu":3596,"Ġspeed":3597,"Ġnods":3598,"aster":3599,"Ġcareer":3600,"ills":3601,"Ġgets":3602,"Ġyet":3603,"Ġeggs":3604,"ĠGener":3605,"Ġhouses":3606,"ucture":3607,"Ġorganized":3608,"Ġpolite":3609,"Ġradio":3610,"chie":3611,"echn":3612,"Ġlift":3613,"Ġang":3614,"Ġservice":3615,"ccording":3616,"ĠThom":3617,"Ġthankful":3618,"Ġscarf":3619,"omes":3620,"ĠSw":3621,"Ġfort":3622,"bled":3623,"Ġunique":3624,"Ġpal":3625,"Ġroar":3626,"Ġfancy":3627,"ĠEvent":3628,"Ġrough":3629,"Ġmonths":3630,"mp":3631,"Ġdrawing":3632,"illar":3633,"Ġforces":3634,"Ġgen":3635,"Ġpractice":3636,"Ġjelly":3637,"cent":3638,"Ġworks":3639,"Ġmotor":3640,"ĠRex":3641,"Ġserious":3642,"Ġdancing":3643,"Ġbi":3644,"Ġpizza":3645,"Ġspicy":3646,"Ġsighed":3647,"form":3648,"aled":3649,"Ġanswered":3650,"itted":3651,"Ġviol":3652,"rey":3653,"Ġmessy":3654,"Ġsleepy":3655,"Ġur":3656,"Ġcaterp":3657,"Ġhero":3658,"Ġcloset":3659,"ishes":3660,"round":3661,"ubbles":3662,"nel":3663,"Ġworm":3664,"Ġpleased":3665,"ĠCr":3666,"ĠRep":3667,"Ġdeer":3668,"Ġ27":3669,"Ġrail":3670,"Ġ50":3671,"Ġactiv":3672,"Stop":3673,"ĠDes":3674,"Ġyourself":3675,"ĠAlthough":3676,"omm":3677,"'d":3678,"Ġinstr":3679,"Ġelder":3680,"Ġscreen":3681,"Ġstructure":3682,"ĠMus":3683,"Ġescape":3684,"Ġlose":3685,"Ġchurch":3686,"Ġ28":3687,"Ġrich":3688,"ĠRose":3689,"Ġnormal":3690,"gly":3691,"ĠPo":3692,"ĠBobby":3693,"Ġweeks":3694,"Ġscore":3695,"Ġnature":3696,"Ġlangu":3697,"Ġloyal":3698,"ĠSmith":3699,"ĠQu":3700,"Ġsailed":3701,"Ġstuff":3702,"Ġagree":3703,"Ġcharacters":3704,"Ġquestions":3705,"Ġaircraft":3706,"eral":3707,"ĠSusie":3708,"ael":3709,"Ġmilitary":3710,"Ġauthor":3711,"ĠMike":3712,"Ġgrumpy":3713,"ĠRoy":3714,"Ġtears":3715,"Ġexcit":3716,"Ġlying":3717,"ae":3718,"ĠAf":3719,"Ġunus":3720,"Ġ2013":3721,"Ġpray":3722,"ĠEventually":3723,"Ġcab":3724,"Ġguard":3725,"ugh":3726,"Ġunl":3727,"aded":3728,"hern":3729,"Ġkissed":3730,"Ġsugar":3731,"issors":3732,"Ġnic":3733,"arian":3734,"Ġexcitement":3735,"Ġwalls":3736,"Ġhopping":3737,"Ġbottom":3738,"ampionship":3739,"Ġugly":3740,"Ġknight":3741,"Ġcritic":3742,"Ġcy":3743,"Ġstrugg":3744,"Ġforce":3745,"ĠAustralia":3746,"Ġmedicine":3747,"Ġbone":3748,"ĠFirst":3749,"Ġentire":3750,"izzy":3751,"Ġfootball":3752,"ci":3753,"Ġmetal":3754,"Ġtwirl":3755,"Ġrocket":3756,"Ġaut":3757,"Ġpow":3758,"Ġobser":3759,"Ġmistake":3760,"bur":3761,"inary":3762,"ky":3763,"Ġmass":3764,"Ġnumbers":3765,"Ġplayers":3766,"ĠSim":3767,"under":3768,"Ġfine":3769,"Ġindependent":3770,"Ġscissors":3771,"useum":3772,"Ġsummer":3773,"Ġcomfortable":3774,"Ġboring":3775,"Ġneeds":3776,"Ġedge":3777,"Are":3778,"Ġjud":3779,"outhern":3780,"Ġcere":3781,"Ġcaterpillar":3782,"ption":3783,"Ġ40":3784,"anks":3785,"aign":3786,"Ġancient":3787,"Ġrepresent":3788,"Ġfold":3789,"Ġcries":3790,"Ġdogs":3791,"Ġwheel":3792,"Ġseven":3793,"cut":3794,"ĠCor":3795,"arn":3796,"Ġcaused":3797,"Ġmummy":3798,"rage":3799,"Ġ26":3800,"ĠState":3801,"Ġvegetables":3802,"ĠMill":3803,"ha":3804,"Ġmarch":3805,"Ġresc":3806,"Ġfeathers":3807,"Ġpacked":3808,"Ġannounced":3809,"Ġperformed":3810,"Ġmicro":3811,"uter":3812,"ĠSec":3813,"Ġsize":3814,"Ġdevelopment":3815,"Ġ189":3816,"Ġcoins":3817,"Ġcage":3818,"Ġft":3819,"Ġmap":3820,"Ġlibr":3821,"Be":3822,"Ġok":3823,"Ġham":3824,"Ġwagged":3825,"Ġtitle":3826,"Ġdisappeared":3827,"Ġbelieved":3828,"Sorry":3829,"acing":3830,"Ġaud":3831,"Ġwalks":3832,"Ġfake":3833,"known":3834,"net":3835,"keep":3836,"Ġener":3837,"ĠGod":3838,"Ġdeveloped":3839,"Ġvase":3840,"Ġhorn":3841,"Ġfat":3842,"Ġaw":3843,"ĠRober":3844,"ĠHo":3845,"Ġbrush":3846,"Ġearlier":3847,"Ġpicks":3848,"Ġoccur":3849,"Ġending":3850,"ĠArmy":3851,"Ġsword":3852,"ĠKitty":3853,"can":3854,"Ġestabl":3855,"Ġmiles":3856,"fer":3857,"Ġrefused":3858,"Ġwander":3859,"Ġrat":3860,"Ġtax":3861,"erc":3862,"ĠPro":3863,"Ġpainting":3864,"Ġwing":3865,"Ġsquare":3866,"Ġqueen":3867,"Ġcompleted":3868,"aches":3869,"ĠGeneral":3870,"ĠSn":3871,"Ġbrothers":3872,"Ġbalance":3873,"Ġboys":3874,"hood":3875,"Ġclown":3876,"Ġfruits":3877,"ĠGl":3878,"Ġnational":3879,"anges":3880,"Ġincred":3881,"Ġstren":3882,"ĠRob":3883,"Ġgiggled":3884,"Ġunusual":3885,"Ġelderly":3886,"ĠPete":3887,"ĠLeague":3888,"azy":3889,"Ġtag":3890,"Ġdecl":3891,"Ġthroughout":3892,"Ġprevent":3893,"aser":3894,"ĠPres":3895,"Ġshot":3896,"Ġcomplete":3897,"icle":3898,"Ġquestion":3899,"Ġofficial":3900,"Ġshark":3901,"Ġwip":3902,"Ġdeliver":3903,"anches":3904,"Ġsignific":3905,"Ġimmedi":3906,"Ġinvited":3907,"Ġshape":3908,"ffic":3909,"Ġskin":3910,"Ġmater":3911,"Ġdepend":3912,"Ġborrow":3913,"Ġchose":3914,"Ġlearning":3915,"Ġstones":3916,"ublic":3917,"Ġtape":3918,"idence":3919,"Ġconn":3920,"Ġhistor":3921,"aven":3922,"Ġnames":3923,"Ġnoted":3924,"Who":3925,"Ġdecide":3926,"Ġbranches":3927,"illa":3928,"Ġareas":3929,"ĠAmerica":3930,"Ġmirror":3931,"Ġstream":3932,"aks":3933,"vin":3934,"acy":3935,"ĠDivision":3936,"Ġrespons":3937,"Ġunknown":3938,"Ġbake":3939,"atic":3940,"ĠSqu":3941,"ĠPar":3942,"ĠPol":3943,"apping":3944,"ĠComp":3945,"Ġguns":3946,"Ġglue":3947,"Ġdisplay":3948,"Ġkilled":3949,"Ġage":3950,"Ġlazy":3951,"lege":3952,"Ġbathroom":3953,"Ġcheck":3954,"Ġroof":3955,"ĠChar":3956,"Ġsweetie":3957,"Ġballs":3958,"Ġyog":3959,"phone":3960,"Ġpraised":3961,"Ġlemon":3962,"ai":3963,"Ġencou":3964,"ĠOK":3965,"thern":3966,"Ġvarious":3967,"Ġsplashed":3968,"ĠRoad":3969,"Ġimpressed":3970,"imately":3971,"Ġperm":3972,"oons":3973,"ĠMrs":3974,"Ġ2005":3975,"Ġprep":3976,"Ġhurricane":3977,"Ġdish":3978,"ellig":3979,"Ġpossible":3980,"Ġplayground":3981,"ĠâĢĻ":3982,"ĠStreet":3983,"ĠEllie":3984,"laimed":3985,"ems":3986,"Ġsurround":3987,"ĠPhil":3988,"ĠRuss":3989,"ĠCounty":3990,"Ġrelax":3991,"Ġsmelly":3992,"Ġaver":3993,"Ġlamp":3994,"Ġsoap":3995,"Ġinsp":3996,"rell":3997,"Ġbill":3998,"Ġprocess":3999,"Ġscale":4000,"Ġcircle":4001,"Ġcamer":4002,"uture":4003,"Ġpolitical":4004,"Ġharm":4005,"ration":4006,"Ġachie":4007,"Ġdol":4008,"Ġshowing":4009,"ression":4010,"Ġruined":4011,"Ġmagazine":4012,"eez":4013,"Now":4014,"Ġgrown":4015,"view":4016,"Ġnoisy":4017,"Ġcabin":4018,"field":4019,"ĠJapanese":4020,"Ġdiscuss":4021,"Ġincredible":4022,"Ġrealised":4023,"Ġinvestig":4024,"Ġdiam":4025,"Ġec":4026,"Ġjoke":4027,"Ġlicked":4028,"Ġ29":4029,"appy":4030,"Ġcampaign":4031,"omb":4032,"Me":4033,"Ġprim":4034,"ference":4035,"oming":4036,"ĠJe":4037,"Ġ2014":4038,"?\".":4039,"night":4040,"Ġahead":4041,"Ġmember":4042,"Ġvictory":4043,"isk":4044,"Ġboats":4045,"Ġchart":4046,"Ġfa":4047,"Ġturt":4048,"Ġolder":4049,"Ġmoms":4050,"Ġkick":4051,"Ġpump":4052,"Ġjo":4053,"Ġstaff":4054,"Ġdrank":4055,"Ġentered":4056,"Ġlifted":4057,"Ġrose":4058,"Ġfluffy":4059,"umbled":4060,"Ġtropical":4061,"ĠMon":4062,"Ġspir":4063,"ealous":4064,"Ġcrew":4065,"Ġpattern":4066,"Ġchicken":4067,"Ġrepe":4068,"ĠDave":4069,"keeper":4070,"Ġskipped":4071,"iano":4072,"Ġways":4073,"Ġyours":4074,"enced":4075,"Ġchase":4076,"Ġstraw":4077,"Ġcoast":4078,"Ġprovided":4079,"Ġrese":4080,"Ġmaterial":4081,"Ġdiv":4082,"Ġearth":4083,"ays":4084,"olution":4085,"Ġchoose":4086,"ality":4087,"ĠAnt":4088,"Ġbarn":4089,"Ġtiger":4090,"ule":4091,"Ġcleaned":4092,"Ġfrag":4093,"Ġtechn":4094,"Ġaction":4095,"Ġbrill":4096,"Ġleading":4097,"Ġnor":4098,"ization":4099,"Ġnon":4100,"Ġident":4101,"ica":4102,"Ġjuicy":4103,"uable":4104,"Ġjealous":4105,"Ġsort":4106,"ips":4107,"ĠYour":4108,"Ġsignificant":4109,"iable":4110,"Ġminute":4111,"omed":4112,"Ġweird":4113,"ades":4114,"Ġdolph":4115,"Ġroute":4116,"ĠIsland":4117,"ashing":4118,"Ġfoc":4119,"ĠMandy":4120,"ĠCharl":4121,"Ġtough":4122,"Ġordered":4123,"Ġbroad":4124,"Ġhappening":4125,"Ġfavourite":4126,"Ġfinding":4127,"ests":4128,"ĠAccording":4129,"Ġparts":4130,"Ġpillow":4131,"Ġgarage":4132,"ĠBella":4133,"Ġspring":4134,"Ġaward":4135,"Ġber":4136,"Ġformed":4137,"Ġflash":4138,"ĠElla":4139,"bert":4140,"pack":4141,"urous":4142,"Ġfright":4143,"Ġsurv":4144,"Ġ!":4145,"Ġestablished":4146,"ĠReg":4147,"Ġgrowing":4148,"Ġknife":4149,"Ġbrilliant":4150,"uddy":4151,"anda":4152,"Ġbelonged":4153,"ĠRec":4154,"Ġrather":4155,"ĠRich":4156,"Ġdamage":4157,"ĠThomas":4158,"Ġfalls":4159,"Ġwhale":4160,"Ġsmoke":4161,"Ġterri":4162,"Ġvalue":4163,"ĠAfric":4164,"Ġmm":4165,"omp":4166,"Ġenergy":4167,"Ġadventurous":4168,"Well":4169,"Ġfresh":4170,"time":4171,"oops":4172,"Ġrelation":4173,"hi":4174,"Ġfeatures":4175,"Ġda":4176,"ĠMichael":4177,"ĠOnce":4178,"ĠAustralian":4179,"Ġinj":4180,"Ġtank":4181,"Ġpointing":4182,"Ġcheerful":4183,"Ġwomen":4184,"Ġbubbles":4185,"Ġmissing":4186,"Ġrange":4187,"Ġtowel":4188,"ierce":4189,"Ġintellig":4190,"ĠTweety":4191,"ĠPart":4192,"Ġcolourful":4193,"ti":4194,"Ġfuture":4195,"ĠHouse":4196,"Ġreplaced":4197,"Ġbul":4198,"Ġapolog":4199,"oted":4200,"Ġjewel":4201,"Ġvaluable":4202,"allen":4203,"Ġlanguage":4204,"ounc":4205,"Ġuseful":4206,"Ġgeneral":4207,"Ġnotice":4208,"aker":4209,"ĠBobo":4210,"Ġscored":4211,"alt":4212,"emo":4213,"Ġcarrying":4214,"Ġshells":4215,"Ġhelps":4216,"ivil":4217,"Ġstarting":4218,"ĠMil":4219,"encil":4220,"Ġfrown":4221,"Ġjack":4222,"Ġpainted":4223,"Help":4224,"Ġhighest":4225,"Ġtrunk":4226,"Ġpair":4227,"Ġharder":4228,"Ġbald":4229,"Ġpencil":4230,"Ġleast":4231,"Ġthreat":4232,"ators":4233,"ĠSer":4234,"ari":4235,"ĠMiss":4236,"Ġhose":4237,"Ġguess":4238,"oco":4239,"Ġlocated":4240,"Ġborn":4241,"Ġcamera":4242,"Ġsucceed":4243,"right":4244,"Ġwake":4245,"Ġcircles":4246,"aring":4247,"Ġproper":4248,"Ġwand":4249,"Ġfool":4250,"ĠFrank":4251,"ĠKim":4252,"Ġdriving":4253,"ĠBra":4254,"Ġtrucks":4255,"Ġshake":4256,"Ġpaid":4257,"Ġears":4258,"Ġenjoying":4259,"Ġmarried":4260,"echan":4261,"Ġarch":4262,"Ġhanded":4263,"ĠSoph":4264,"Ġmeeting":4265,"Ġwrapped":4266,"Ġopening":4267,"Ġcrawled":4268,"ex":4269,"Ġdestroyed":4270,"ivid":4271,"ĠRoyal":4272,"Ġspend":4273,"ĠStar":4274,"ĠLou":4275,"heast":4276,"Ġballoons":4277,"Ġkindness":4278,"isher":4279,"Ġtrade":4280,"ĠAss":4281,"ino":4282,"Ġ188":4283,"Ġboxes":4284,"Ġspun":4285,"Ġattract":4286,"Ġexperience":4287,"Ġberries":4288,"Ġfif":4289,"Ġsafely":4290,"Ġmighty":4291,"Ġcell":4292,"fast":4293,"Ġstretch":4294,"go":4295,"ĠRobert":4296,"ĠQue":4297,"Ġattention":4298,"hus":4299,"Ġturtle":4300,"hys":4301,"tons":4302,"ĠLee":4303,"wood":4304,"Ġrepair":4305,"cepted":4306,"Ġprint":4307,"Ġclay":4308,"Ġflood":4309,"Ġlights":4310,"Ġhurts":4311,"Ġfan":4312,"Ġ31":4313,"met":4314,"Ġdecision":4315,"Ġknows":4316,"Ġlouder":4317,"Ġcomputer":4318,"Ġpiano":4319,"cked":4320,"house":4321,"ĠMed":4322,"Ġdizzy":4323,"Ġbanana":4324,"Ġstrawber":4325,"Ġdoesn":4326,"Ġpilot":4327,"rot":4328,"Ġtied":4329,"asc":4330,"ĠIndian":4331,"Ġing":4332,"ĠRos":4333,"Ġ2004":4334,"Ġdemand":4335,"Ġtools":4336,"Ġclock":4337,"Ġbusiness":4338,"Ġadvice":4339,"Ġcomment":4340,"Ġimmediately":4341,"Ġsite":4342,"Ġprovide":4343,"Ġbirdie":4344,"Ġnote":4345,"Ġpopulation":4346,"Ġscare":4347,"Ġhost":4348,"istent":4349,"Ġreading":4350,"Ġnewsp":4351,"Ġloudly":4352,"Ġbreakfast":4353,"Ġdesigned":4354,"Ġdev":4355,"Ġholds":4356,"Ġloss":4357,"ĠBefore":4358,"Ġshel":4359,"ĠSch":4360,"ĠNemo":4361,"ĠAndy":4362,"lt":4363,"Ġslipped":4364,"Ġcurrent":4365,"Ġnur":4366,"Ġvoc":4367,"Ġpred":4368,"Ġdreams":4369,"ĠGreat":4370,"Ġlibrary":4371,"Ġpee":4372,"Ġlaughs":4373,"Ġscene":4374,"Ġ186":4375,"ĠBlack":4376,"Ġhats":4377,"By":4378,"zer":4379,"Ġbossy":4380,"Ġexplored":4381,"Ġhappiness":4382,"ĠSchool":4383,"ĠDr":4384,"Ġweap":4385,"sect":4386,"fall":4387,"ico":4388,"Ġstronger":4389,"ĠFrance":4390,"Ġoil":4391,"Ġtelling":4392,"Ġbas":4393,"Ġproudly":4394,"Ġrelationship":4395,"Ġfrightened":4396,"ilty":4397,"Ġwhisp":4398,"eep":4399,"Ġtorn":4400,"Ġstubb":4401,"Ġdreamed":4402,"Ġmechan":4403,"Ġresist":4404,"Ġlocked":4405,"ĠGrandpa":4406,"Ġfourth":4407,"bor":4408,"Ġreb":4409,"Ġhall":4410,"Ġinform":4411,"ample":4412,"Ġbuttons":4413,"Ġthinking":4414,"pes":4415,"ploy":4416,"Ġkinds":4417,"bles":4418,"apers":4419,"Ġsounded":4420,"Ġjournal":4421,"Ġsubsequ":4422,"Ġoriginally":4423,"Ġsteal":4424,"Ġ2015":4425,"Ġrules":4426,"aching":4427,"ormous":4428,"ĠHall":4429,"ouncil":4430,"Here":4431,"Ġemer":4432,"ĠAre":4433,"Ġconstruction":4434,"Ġaunt":4435,"Ġexample":4436,"Ġshut":4437,"uing":4438,"Ġdelicate":4439,"ĠTob":4440,"ĠLa":4441,"rison":4442,"Ġwagon":4443,"Ġenormous":4444,"istic":4445,"Ġobed":4446,"Ġswan":4447,"Ġwitch":4448,"Ġgraceful":4449,"Ġfierce":4450,"ecause":4451,"Ġforth":4452,"Ġstubborn":4453,"ses":4454,"arm":4455,"Ġsymb":4456,"Ġcrack":4457,"Ġwinter":4458,"husi":4459,"Ġspr":4460,"Ġfem":4461,"Ġassoci":4462,"Ġbitter":4463,"Ġmodel":4464,"Ġbloom":4465,"Ġlines":4466,"Ġguilty":4467,"uation":4468,"ĠIntern":4469,"Ġlean":4470,"Ġuncle":4471,"Ġtruth":4472,"erson":4473,"nes":4474,"Ġveh":4475,"umber":4476,"Ġfoolish":4477,"iring":4478,"estival":4479,"Ġspoke":4480,"Ġaccepted":4481,"ĠHere":4482,"Ġrode":4483,"ĠBel":4484,"Ġamb":4485,"Ġsigned":4486,"oved":4487,"Ġwealthy":4488,"Ġjam":4489,"Ġdiamond":4490,"Ġbelt":4491,"Ġenthusi":4492,"Ġchance":4493,"Ġletters":4494,"Ġvisited":4495,"ĠBest":4496,"Ġaccept":4497,"Lila":4498,"Ġpun":4499,"Ġicy":4500,"Ġexclaimed":4501,"Ġfridge":4502,"Ġseparate":4503,"Ġcourt":4504,"ĠAngel":4505,"Ġimprove":4506,"ĠAct":4507,"Ġtomato":4508,"Ġfountain":4509,"Ġkicked":4510,"Ġdust":4511,"Ġcrayon":4512,"ĠPer":4513,"Ġcher":4514,"Ġmi":4515,"Ġnicely":4516,"He":4517,"Ġ2000":4518,"Ġpoured":4519,"Ġchallen":4520,"Ġdou":4521,"amb":4522,"ients":4523,"oli":4524,"Ġwiped":4525,"isc":4526,"Ġfeatured":4527,"Ġbiggest":4528,"Ġtradition":4529,"Ġadmired":4530,"ĠIts":4531,"reg":4532,"Ġsymbol":4533,"Ġtracks":4534,"Ġquite":4535,"ĠSan":4536,"ĠPresident":4537,"pe":4538,"nament":4539,"Ġdrop":4540,"Ġprofess":4541,"Ġindivid":4542,"ĠLola":4543,"Ġspirit":4544,"ĠDucky":4545,"ĠPort":4546,"Ġobedient":4547,"Ġarmy":4548,"ki":4549,"ĠPen":4550,"Ġcounted":4551,"Ġsolve":4552,"Ġplayful":4553,"Ġthoughtful":4554,"Ġ500":4555,"ĠPlay":4556,"Ġnosy":4557,"ength":4558,"Ġhammer":4559,"Ġaverage":4560,"Ġcudd":4561,"Ġclaim":4562,"inking":4563,"Ġmult":4564,"Ġmole":4565,"cing":4566,"Ġfriendship":4567,"Ġsplit":4568,"artment":4569,"How":4570,"Ġfingers":4571,"After":4572,"Ġgrandpa":4573,"Ġintroduced":4574,"Ġ187":4575,"Ġfragile":4576,"Ġwid":4577,"Ġscrat":4578,"ashington":4579,"orses":4580,"isting":4581,"ĠTwo":4582,"Ġthunder":4583,"Ġclap":4584,"Ġcricket":4585,"Ġsett":4586,"Ġregion":4587,"Ġindust":4588,"inc":4589,"Ġstove":4590,"elled":4591,"Ġbelow":4592,"Ġbags":4593,"Ġcritics":4594,"Ġspinning":4595,"Ġwire":4596,"Ġweather":4597,"ius":4598,"Ġstrength":4599,"ĠJul":4600,"ata":4601,"ĠHam":4602,"Ġexcitedly":4603,"antic":4604,"fish":4605,"Ġfinds":4606,"Ġterrible":4607,"ĠOther":4608,"Ġraced":4609,"Ġneg":4610,"ĠWil":4611,"Ġincreased":4612,"ru":4613,"Ġwindows":4614,"han":4615,"ĠSl":4616,"ĠMart":4617,"Ġwinning":4618,"Ġflex":4619,"Ġreminded":4620,"Ġstamp":4621,"Ġblood":4622,"Ġbushes":4623,"host":4624,"Ġsilver":4625,"Ġsnugg":4626,"Ġmatches":4627,"Ġtick":4628,"Ġdough":4629,"verse":4630,"Ġgoat":4631,"Ġplanet":4632,"Ġsoldiers":4633,"ĠWashington":4634,"Ġprize":4635,"loo":4636,"llip":4637,"adium":4638,"ÅĵLet":4639,"stal":4640,"rict":4641,"Ġpeace":4642,"corn":4643,"stant":4644,"Ġreliable":4645,"Ġrecomm":4646,"Ġestim":4647,"oot":4648,"Ġdelighted":4649,"Ġcounter":4650,"Ġsurface":4651,"sing":4652,"upid":4653,"rian":4654,"Ġtroops":4655,"Ġspoiled":4656,"Ġstatue":4657,"Ġbadly":4658,"Ġrecording":4659,"ena":4660,"mbrell":4661,"Ġdistur":4662,"Ġevents":4663,"Ġsearching":4664,"Ġstumbled":4665,"Ġgenerally":4666,"!\".":4667,"ĠHarry":4668,"Ġreward":4669,"Ġeconom":4670,"ressed":4671,"Ġpresident":4672,"Ġrushed":4673,"Ġsex":4674,"Ġparticularly":4675,"Ġ2003":4676,"Ġill":4677,"iling":4678,"Ġproblems":4679,"Ġbrightly":4680,"asion":4681,"Ġexec":4682,"Ġcleaning":4683,"Ġtunnel":4684,"Ġbees":4685,"Ġrug":4686,"ures":4687,"uke":4688,"Ġtwig":4689,"Ġdependable":4690,"adron":4691,"burg":4692,"Ġmeas":4693,"ĠBear":4694,"ids":4695,"ential":4696,"llowing":4697,"Ġelev":4698,"Ġreplace":4699,"ĠLi":4700,"ĠBattle":4701,"Ġimpressive":4702,"Ġparticip":4703,"Ġrestaur":4704,"Ġcone":4705,"enes":4706,"Ġiron":4707,"hile":4708,"Ġopens":4709,"Ġbuildings":4710,"Ġbrace":4711,"Ġstarts":4712,"ĠCour":4713,"ĠWhenever":4714,"ĠBur":4715,"Ġseem":4716,"robe":4717,"itation":4718,"Ġfed":4719,"Ġpup":4720,"Ġuncom":4721,"ĠTur":4722,"hod":4723,"Ġmessage":4724,"ological":4725,"Ġtrains":4726,"Ġpicking":4727,"ockey":4728,"Ġscatter":4729,"Ġinvolved":4730,"Ġhandle":4731,"Ġlower":4732,"Ġumbrell":4733,"Ġlength":4734,"antry":4735,"Ġchir":4736,"eer":4737,"Ġsleeping":4738,"Ġplanned":4739,"Ġpatch":4740,"duce":4741,"Al":4742,"Ġnews":4743,"Ġingred":4744,"eeze":4745,"Ġtummy":4746,"Ġshone":4747,"Ġbeginning":4748,"Ġpotato":4749,"zard":4750,"Ġpale":4751,"Ġacorn":4752,"Ġbump":4753,"Ġmph":4754,"Ġwashed":4755,"ĠNext":4756,"ĠToby":4757,"Ġ35":4758,"anut":4759,"enty":4760,"icated":4761,"Ġmention":4762,"Ġusually":4763,"ĠCup":4764,"ili":4765,"Ġseeds":4766,"Ġcoal":4767,"Ġparrot":4768,"Ġarrow":4769,"Ġemploy":4770,"Ġsunfl":4771,"Ġwhispered":4772,"Ġregard":4773,"Ġbull":4774,"Ġhorses":4775,"Ġintern":4776,"ipping":4777,"Ġsink":4778,"anced":4779,"Ġpit":4780,"Ġjolly":4781,"Ġmuseum":4782,"Ġaer":4783,"Ġfund":4784,"Ġcompass":4785,"Ġnine":4786,"Ġsniff":4787,"Ġclum":4788,"ĠMo":4789,"Ġsauce":4790,"Ġdull":4791,"ville":4792,"Ġhairy":4793,"ĠRock":4794,"llipop":4795,"zz":4796,"azz":4797,"Ġsudden":4798,"ĠMid":4799,"Ã¡":4800,"ram":4801,"izes":4802,"Ġtowers":4803,"Ġdove":4804,"Ġwrap":4805,"BC":4806,"ĠVir":4807,"Ġwarned":4808,"west":4809,"Ġlives":4810,"using":4811,"ĠRes":4812,"Ġbecoming":4813,"Ġbounce":4814,"Ġstops":4815,"render":4816,"atural":4817,"hetti":4818,"Ġdolphin":4819,"Ġraised":4820,"Ġstupid":4821,"ula":4822,"Ġlollipop":4823,"ĠMaria":4824,"Ġtoast":4825,"ĠEuropean":4826,"Ġrevealed":4827,"Ġnation":4828,"Ġsend":4829,"aval":4830,"Ġpopcorn":4831,"Ġbeak":4832,"Ġdeal":4833,"Ġoffer":4834,"osition":4835,"ĠFil":4836,"Ġlargest":4837,"Ġcrazy":4838,"Ġforced":4839,"Ġstairs":4840,"ugged":4841,"Ġdirector":4842,"Ġsalad":4843,"Ġtraining":4844,"Ġhay":4845,"ĠScott":4846,"rocod":4847,"Ġpige":4848,"ety":4849,"Ġclosely":4850,"ÅĵYes":4851,"ĠAg":4852,"Ġly":4853,"aghetti":4854,"Ġpumpkin":4855,"Ġevening":4856,"Ġhighway":4857,"ebra":4858,"Ġstudio":4859,"Ġjacket":4860,"Ġaftern":4861,"ĠMal":4862,"Ġcontrib":4863,"Ġpriv":4864,"ait":4865,"Ġpirate":4866,"Ġsouthern":4867,"Ġprob":4868,"leg":4869,"ilities":4870,"Ġbeauty":4871,"Ġclumsy":4872,"Ġangel":4873,"ulture":4874,"Ġconsider":4875,"Ġmeal":4876,"ĠChampionship":4877,"Ġtext":4878,"Ġcommer":4879,"nings":4880,"Ġcaptain":4881,"oint":4882,"ĠRoman":4883,"ĠVal":4884,"Ġinitially":4885,"Ġappearance":4886,"ĠÃ":4887,"Ġfilms":4888,"Ġflexible":4889,"Ġmush":4890,"Ġanx":4891,"Ġbeet":4892,"Ġsequ":4893,"Ġbarber":4894,"stead":4895,"abor":4896,"Ġpercent":4897,"ston":4898,"ĠMac":4899,"Ġcelebrate":4900,"Ġgasped":4901,"Ġ2001":4902,"ĠNot":4903,"Ġsoldier":4904,"Ġmushroom":4905,"Ġincrease":4906,"icop":4907,"Ġgrad":4908,"Ġzip":4909,"Ġdespite":4910,"Ġmer":4911,"onna":4912,"ĠRichard":4913,"Ġafternoon":4914,"Ġfailed":4915,"Ġfac":4916,"Ġgoose":4917,"ĠAtl":4918,"irsty":4919,"Ġvolcan":4920,"orable":4921,"Re":4922,"Ġyarn":4923,"See":4924,"ograph":4925,"ĠNavy":4926,"ĠRepublic":4927,"Ġcheap":4928,"ĠJoey":4929,"Ġshocked":4930,"Ġspaghetti":4931,"Ġingredients":4932,"ecess":4933,"Ġcontract":4934,"Ġden":4935,"Ġpositive":4936,"Ġflight":4937,"Ġsne":4938,"Ġoperation":4939,"Ġallow":4940,"for":4941,"Ġprec":4942,"Ġserve":4943,"Ġordinary":4944,"sey":4945,"Ġimagined":4946,"ĠÂ°":4947,"Ġzebra":4948,"ĠSing":4949,"Ġwheels":4950,"ĠKingdom":4951,"ateg":4952,"Ġcrocod":4953,"Ġren":4954,"ners":4955,"Ġpeanut":4956,"ĠOl":4957,"Ġtrail":4958,"Ġtriang":4959,"ibb":4960,"Ġcenter":4961,"Ġmaint":4962,"ago":4963,"Ġkill":4964,"ĠCharles":4965,"ding":4966,"Ġumbrella":4967,"ĠWhite":4968,"ĠSophie":4969,"ĠMusic":4970,"ĠPolly":4971,"riage":4972,"Ġlie":4973,"Ġtrick":4974,"Ġwhose":4975,"ification":4976,"Ġghost":4977,"ĠGame":4978,"ĠEn":4979,"eezed":4980,"Ġwinds":4981,"Ġrescue":4982,"ĠBig":4983,"Ġflour":4984,"iforn":4985,"Ġsocial":4986,"otten":4987,"ĠCharlie":4988,"fa":4989,"Ġhelicop":4990,"Ġcrow":4991,"Ġgum":4992,"Ġnorthern":4993,"Ġdreaming":4994,"ÅĵWhat":4995,"Ġcompassion":4996,"ĠDespite":4997,"Ġarr":4998,"Ġofficer":4999,"ĠJerry":5000,"ĠTony":5001,"Ġcooking":5002,"olid":5003,"ibility":5004,"Ġcareless":5005,"Ġheaded":5006,"ito":5007,"Ġcontinue":5008,"Ġspeak":5009,"road":5010,"Ġsurrender":5011,"Ġ2002":5012,"Ġcentral":5013,"Ġrestaurant":5014,"lin":5015,"oomy":5016,"Ġcurt":5017,"Ġappre":5018,"Ġphys":5019,"Ġmedal":5020,"Ġuncomfortable":5021,"imp":5022,"Ġbeg":5023,"ĠCanada":5024,"Ġfollows":5025,"ĠBaby":5026,"Ġfought":5027,"aze":5028,"ĠDep":5029,"lus":5030,"Ġjet":5031,"Ġload":5032,"rem":5033,"Ġdelay":5034,"Ġhoop":5035,"Ġtool":5036,"Ġsteps":5037,"ĠPal":5038,"pet":5039,"Ġhy":5040,"Ġlizard":5041,"Ġstranger":5042,"mar":5043,"ĠBer":5044,"Ġrot":5045,"Ġrelig":5046,"izing":5047,"icycle":5048,"Ġbutterflies":5049,"ĠChurch":5050,"Ġsparkled":5051,"rac":5052,"Ġpeb":5053,"Ġheads":5054,"Ġunits":5055,"âĤ¬âĢ":5056,"Ġeduc":5057,"rophy":5058,"ĠBet":5059,"Ġbent":5060,"ĠSen":5061,"ĠCaliforn":5062,"Ġshiver":5063,"Ġcreatures":5064,"Ġabs":5065,"Ġoct":5066,"ĠSnow":5067,"ÅĵIt":5068,"Ġnurse":5069,"Ġintelligent":5070,"Ġpenny":5071,"Ġseas":5072,"ords":5073,"ĠGrace":5074,"Ġnewspaper":5075,"arily":5076,"Ġlic":5077,"Ġcourage":5078,"Ġpackage":5079,"Ġnar":5080,"Ġpage":5081,"Ġspilled":5082,"Ġgoals":5083,"Ġdisp":5084,"Ġcupboard":5085,"uses":5086,"Go":5087,"cher":5088,"Ġrubbed":5089,"Ġcompetitive":5090,"Ġheal":5091,"ĠVirgin":5092,"Ġrefer":5093,"oid":5094,"pect":5095,"Ġtap":5096,"Ġmission":5097,"Ġdistant":5098,"Ġnetwork":5099,"Ġsorts":5100,"Ġnail":5101,"Ġexcept":5102,"Ġcollection":5103,"Ġspell":5104,"Ġsadly":5105,"ĠBay":5106,"Ġanxious":5107,"overn":5108,"Ġpersistent":5109,"Ġfalling":5110,"Ġhumble":5111,"Ġmailbox":5112,"Ġtask":5113,"Ġchoice":5114,"Ġactually":5115,"iches":5116,"ores":5117,"Ġremain":5118,"Ġfields":5119,"Ġpengu":5120,"nit":5121,"Ġblow":5122,"Ġtooth":5123,"Ġsle":5124,"ĠJohnson":5125,"vere":5126,"Ġflashlight":5127,"Ġbracelet":5128,"Ġstudents":5129,"Ġleader":5130,"Ġfuel":5131,"Ġdesk":5132,"Ġworth":5133,"Ġstraight":5134,"ĠInstead":5135,"off":5136,"ĠCalifornia":5137,"Ġped":5138,"Ġthirsty":5139,"Ġaccording":5140,"imin":5141,"ĠCarl":5142,"Ġairport":5143,"istol":5144,"ander":5145,"ittee":5146,"Ġhung":5147,"ĠGreen":5148,"apa":5149,"Ġparade":5150,"ĠCourt":5151,"Ġcounting":5152,"Ġreduc":5153,"Ġgroups":5154,"ĠLook":5155,"Ġremoved":5156,"gie":5157,"Ġdug":5158,"Ġhotel":5159,"Ġbasketball":5160,"Ġseal":5161,"Ġpear":5162,"Ġsoil":5163,"Ġterm":5164,"ĠIr":5165,"Ġbattery":5166,"Ġsection":5167,"Ġbaseball":5168,"Ġjudge":5169,"Ġplays":5170,"ĠMont":5171,"case":5172,"Ġappreci":5173,"Ġanywhere":5174,"Ġaccess":5175,"ÅĵLetÃ¢":5176,"ĠUnion":5177,"Ġcharming":5178,"Ġamount":5179,"Ġflute":5180,"ĠCong":5181,"Ġalert":5182,"Ġtrap":5183,"Ġpreviously":5184,"ĠGold":5185,"Ġcertain":5186,"Ġpeeked":5187,"Ġmeat":5188,"leton":5189,"ĠKat":5190,"Ġcalls":5191,"Ġgor":5192,"ĠVict":5193,"Ġtraffic":5194,"ĠGive":5195,"opus":5196,"Ġcrane":5197,"ĠAward":5198,"Ġslides":5199,"ĠAc":5200,"Ġcrystal":5201,"place":5202,"ĠMet":5203,"band":5204,"amber":5205,"Ġgifted":5206,"Ġharmless":5207,"Ġstates":5208,"Ġchasing":5209,"ĠTra":5210,"ĠMcC":5211,"erve":5212,"ĠWhere":5213,"Ġlack":5214,"Ġaccount":5215,"Ġdeaf":5216,"Ġbeetle":5217,"onse":5218,"Ġinsect":5219,"Ġelements":5220,"Ġcards":5221,"Ġkingdom":5222,"Ġpor":5223,"van":5224,"Ġ1990":5225,"ĠAssoci":5226,"Ġideas":5227,"They":5228,"ux":5229,"Ġhunter":5230,"Ġfro":5231,"opard":5232,"Ġwishes":5233,"Ġrequired":5234,"Ġsupply":5235,"ĠCompany":5236,"Ġresponsible":5237,"Ġsunflower":5238,"ĠInternational":5239,"ounds":5240,"ĠKe":5241,"Ġrise":5242,"Ġattractive":5243,"Ġcrocodile":5244,"Ġinterview":5245,"Ġcause":5246,"Ġdirected":5247,"Ġneat":5248,"Ġ60":5249,"Ġjumps":5250,"ida":5251,"ĠRoute":5252,"irm":5253,"Ġreviews":5254,"Ġhelmet":5255,"ĠIndia":5256,"Ġpony":5257,"ples":5258,"Ġpracticed":5259,"Ġtrump":5260,"As":5261,"velope":5262,"Ġsettle":5263,"Ġlively":5264,"Ġdefeated":5265,"Ġbeat":5266,"Ġenvelope":5267,"Ġraven":5268,"raged":5269,"Ġ45":5270,"ĠBoth":5271,"gust":5272,"Ġcompetition":5273,"ĠcouldnÃ¢":5274,"opl":5275,"atin":5276,"iform":5277,"Ġdebut":5278,"Ġsteam":5279,"Ġpalace":5280,"orial":5281,"Ġassist":5282,"Ġexerc":5283,"Ġheav":5284,"iverse":5285,"Ġignor":5286,"aws":5287,"Ġcomfort":5288,"Ġtar":5289,"Ġseed":5290,"Ġcollar":5291,"Ġ?":5292,"Ġcred":5293,"Ġpretending":5294,"Ġchain":5295,"ĠTimes":5296,"hester":5297,"ulated":5298,"Ġcollected":5299,"ĠGermany":5300,"rief":5301,"Ġslid":5302,"wor":5303,"ĠOut":5304,"hin":5305,"ĠAnnie":5306,"ĠGovern":5307,"talion":5308,"yer":5309,"Ġdisgust":5310,"Ġcereal":5311,"Ġclaimed":5312,"Ġchanges":5313,"Ġsalt":5314,"ĠChristian":5315,"Ġ185":5316,"ĠSpan":5317,"Ġot":5318,"Ġsus":5319,"Ġenv":5320,"Ġsandwiches":5321,"icles":5322,"Max":5323,"Ow":5324,"ĠKate":5325,"Ġharsh":5326,"ĠÂ£":5327,"Ġants":5328,"Ġthread":5329,"ĠDay":5330,"Ġnearly":5331,"Ġpressed":5332,"Ġteams":5333,"Ġanti":5334,"ubble":5335,"Yay":5336,"Ġeasily":5337,"Ġmiser":5338,"Ġframe":5339,"ody":5340,"Ġgloomy":5341,"Ġsinger":5342,"vert":5343,"Ġmagnet":5344,"Ġlabel":5345,"Ġtire":5346,"Ġseeing":5347,"ubby":5348,"Ġlistening":5349,"If":5350,"berg":5351,"Ġstretched":5352,"Ġnobody":5353,"Ġpoem":5354,"ĠFox":5355,"ĠGood":5356,"Ġsetting":5357,"Ġtemper":5358,"Ġwhom":5359,"Ġenter":5360,"Ġsubject":5361,"gers":5362,"Ġneedle":5363,"Ġsofa":5364,"Ġleague":5365,"Ġselling":5366,"Ġsupported":5367,"Ġsnuggled":5368,"Ġresponse":5369,"Ġtemple":5370,"atch":5371,"ĠUK":5372,"Ġdisag":5373,"Ġturkey":5374,"Ġpigeon":5375,"Ġstandard":5376,"Ġmelt":5377,"Ġmask":5378,"Ġtransfer":5379,"Ġtroubled":5380,"Ġske":5381,"ĠJess":5382,"ĠEach":5383,"ĠMex":5384,"cream":5385,"Ġgem":5386,"Ġriding":5387,"Ġequip":5388,"Ġmarry":5389,"ĠEnt":5390,"Ġshaking":5391,"ĠHill":5392,"ĠSov":5393,"Ġmiserable":5394,"Ġscoot":5395,"ĠBrownie":5396,"Ġhipp":5397,"una":5398,"ffe":5399,"ĠStud":5400,"Ġadditional":5401,"dge":5402,"Ġlarger":5403,"Ġputting":5404,"uk":5405,"ĠPeople":5406,"Ġblueber":5407,"Ġalive":5408,"Ġthief":5409,"Ġevidence":5410,"hem":5411,"Ġuniversity":5412,"heart":5413,"ĠSoviet":5414,"gl":5415,"Ġpepper":5416,"Ġinternational":5417,"Ġhomes":5418,"Ġweight":5419,"Ġhelicopter":5420,"Ġfeelings":5421,"ban":5422,"Ġexpected":5423,"Ġdrawer":5424,"ĠNY":5425,"Ġneighbour":5426,"ĠCollege":5427,"Ġhurry":5428,"Ġcommunity":5429,"ability":5430,"aries":5431,"imi":5432,"bing":5433,"ĠWestern":5434,"Ġowned":5435,"Ġshield":5436,"elling":5437,"anas":5438,"ris":5439,"Ġvolcano":5440,"Ġanyway":5441,"Ġtype":5442,"change":5443,"Ġleaders":5444,"Ġmodest":5445,"ocoa":5446,"ĠTweetie":5447,"Ġfrequ":5448,"ĠAdam":5449,"ĠTed":5450,"Ġpapers":5451,"Ġignorant":5452,"ees":5453,"oul":5454,"mi":5455,"Ġvalley":5456,"igan":5457,"ulf":5458,"Ġhelpless":5459,"ys":5460,"Ġoccup":5461,"inct":5462,"ĠChin":5463,"Ġmusical":5464,"Ġtub":5465,"Ġelection":5466,"Ġpole":5467,"pire":5468,"Ġscrew":5469,"ĠIm":5470,"Ġequipment":5471,"Ġtrash":5472,"ĠDanny":5473,"Ġoctopus":5474,"Ġspecific":5475,"alled":5476,"Ġtwirled":5477,"aint":5478,"rs":5479,"Ġbounced":5480,"isl":5481,"Ġbears":5482,"ĠArt":5483,"Ġlaid":5484,"Ġholes":5485,"ĠHot":5486,"Tommy":5487,"Ġsomewhere":5488,"Ġrice":5489,"Ġgir":5490,"Ġbin":5491,"ĠUp":5492,"Ġwestern":5493,"Ġpants":5494,"osh":5495,"Ġ1970":5496,"Ġremaining":5497,"Ġbrighter":5498,"Ġdoc":5499,"Ġfemale":5500,"ĠForce":5501,"Ġimpat":5502,"Ġprobably":5503,"ĠLove":5504,"Ġplans":5505,"Ġcivil":5506,"Ġdetail":5507,"Ġcomet":5508,"ero":5509,"ÅĵThat":5510,"Ġtube":5511,"Ġpipe":5512,"Ġ32":5513,"ym":5514,"Ġcycl":5515,"Ġeffort":5516,"thy":5517,"Ġshine":5518,"Ġsheet":5519,"Ġsuggest":5520,"ĠFlor":5521,"Ġhook":5522,"Ġbandage":5523,"Ġissue":5524,"Ġtrumpet":5525,"Ġenthusiastic":5526,"isions":5527,"ĠMatt":5528,"Ġadmire":5529,"Ġappl":5530,"ĠQueen":5531,"Ġskull":5532,"Ġjeep":5533,"ĠEarth":5534,"Ġ1980":5535,"Ġmuff":5536,"Ġcocoa":5537,"ully":5538,"ĠSoc":5539,"Ġwriter":5540,"Ġdirection":5541,"ga":5542,"Ġprison":5543,"angar":5544,"Ġfireman":5545,"Ġlik":5546,"unched":5547,"Ġcarpet":5548,"Ġfishing":5549,"gen":5550,"overy":5551,"Ġcompassionate":5552,"Ġshelter":5553,"Ġresident":5554,"Ġcooked":5555,"Timmy":5556,"Ġstirred":5557,"Ġshoe":5558,"Ġdecorate":5559,"Ġshadow":5560,"Ġloop":5561,"Ġcrossed":5562,"Ġnowhere":5563,"Ġpressure":5564,"ccoli":5565,"Ġsuffered":5566,"Ġvac":5567,"Ġincreasing":5568,"Ġallig":5569,"ĠVictor":5570,"Ġimpatient":5571,"Ġpasta":5572,"Ġtwist":5573,"ĠEverything":5574,"Ġbicycle":5575,"iament":5576,"Ġestimated":5577,"Ġpad":5578,"Ġopera":5579,"Ġdate":5580,"ession":5581,"Ġmild":5582,"Ġcandle":5583,"Ġcats":5584,"Ġrestless":5585,"Ġmoves":5586,"ache":5587,"oe":5588,"Ġleash":5589,"ĠMel":5590,"Ġvine":5591,"Ġattic":5592,"Ġconfl":5593,"ĠBritain":5594,"Ġbroadcast":5595,"Ġjug":5596,"Ġminor":5597,"Ġdess":5598,"ĠMany":5599,"Ġribb":5600,"Ġmonkeys":5601,"angaroo":5602,"Ġuniform":5603,"Ġliter":5604,"Ġchubby":5605,"ien":5606,"Ġbrief":5607,"Ġexperi":5608,"Ġeastern":5609,"Ġcube":5610,"Ġfearful":5611,"Ġapart":5612,"Ġadmin":5613,"Ġbeep":5614,"Ġbarrel":5615,"Ġsafety":5616,"ĠCat":5617,"Ġlyric":5618,"ios":5619,"Ġreport":5620,"Ġpushing":5621,"Ġburied":5622,"Ġax":5623,"Ġrespectful":5624,"ĠPri":5625,"ĠKen":5626,"dd":5627,"Ġstickers":5628,"Ġ1999":5629,"roat":5630,"ĠSteve":5631,"Ġunh":5632,"Ġnuts":5633,"Ġsides":5634,"ĠSun":5635,"ĠMa":5636,"Ġapprox":5637,"Ġuns":5638,"utter":5639,"Ġdisgusting":5640,"ĠWho":5641,"Ġbud":5642,"ĠPac":5643,"Ġviolin":5644,"Ġhockey":5645,"Ġorganize":5646,"ography":5647,"Ġmug":5648,"ffee":5649,"Ġleopard":5650,"Ġcolours":5651,"acht":5652,"ĠLos":5653,"Ġskip":5654,"Ġfactory":5655,"Ġcommercial":5656,"Ġpurch":5657,"Ġwheat":5658,"ĠSandy":5659,"Ġol":5660,"Ġswitch":5661,"Ġadorable":5662,"Ġjokes":5663,"Ġhealth":5664,"ĠDem":5665,"Ġscenes":5666,"Ġcostume":5667,"asy":5668,"Ġgained":5669,"Ġfork":5670,"Ġexplain":5671,"Ġmovement":5672,"ĠFranc":5673,"ĠLilly":5674,"ĠSpanish":5675,"rial":5676,"Ġpersonal":5677,"oss":5678,"Ġbomb":5679,"porary":5680,"Ġlatter":5681,"Ġanch":5682,"Ġmos":5683,"Ġmarched":5684,"stairs":5685,"lection":5686,"Ġ36":5687,"rab":5688,"ĠChic":5689,"Ġinch":5690,"ĠWould":5691,"Give":5692,"tles":5693,"Ġterrit":5694,"ĠSal":5695,"Ġacqu":5696,"ĠJackson":5697,"Ġbehav":5698,"Ġ80":5699,"Ġsweetheart":5700,"Ġhour":5701,"Ġofficers":5702,"Ġepisodes":5703,"Ġfilthy":5704,"Ġenvious":5705,"action":5706,"Ġhoping":5707,"Ġwaff":5708,"Ġcompared":5709,"ĠBunny":5710,"va":5711,"tr":5712,"isf":5713,"Ġtriangle":5714,"de":5715,"inked":5716,"roll":5717,"Ġprior":5718,"Ġlimited":5719,"strich":5720,"Ġlightning":5721,"Ġbatht":5722,"Ġconv":5723,"ĠBuddy":5724,"Ġoverall":5725,"Ġrooms":5726,"Ġtarget":5727,"Ġknock":5728,"Ġcrawl":5729,"Ġstruck":5730,"Ġbathtub":5731,"Ġnomin":5732,"Ġappointed":5733,"Ġrolling":5734,"Ġprog":5735,"Ġder":5736,"Ġmarriage":5737,"Ġtray":5738,"Ġcows":5739,"Ġscri":5740,"Ġnatural":5741,"itter":5742,"Ġreceive":5743,"Ġmanager":5744,"Ġcommission":5745,"Ġshooting":5746,"ĠSuper":5747,"Ġshouts":5748,"hibit":5749,"Ġaudience":5750,"Ġsoar":5751,"ĠVirginia":5752,"lymp":5753,"Ġdrawings":5754,"itor":5755,"erous":5756,"Ġfleet":5757,"Ġdive":5758,"Ġrights":5759,"Ġfans":5760,"Ġkangaroo":5761,"atory":5762,"Ġdamaged":5763,"Ġproposed":5764,"Ġkil":5765,"Ġautom":5766,"Ġbubble":5767,"Ġbroccoli":5768,"Ġhappier":5769,"Ġimage":5770,"Ġple":5771,"igade":5772,"Ġcush":5773,"Ġaeropl":5774,"Ġeffects":5775,"rd":5776,"Ġclimbing":5777,"ipper":5778,"Ġunc":5779,"Ġhedge":5780,"ĠUnder":5781,"ĠFort":5782,"affe":5783,"ĠJones":5784,"ĠOlymp":5785,"ĠParty":5786,"Ġshade":5787,"ension":5788,"Ġbarking":5789,"Ġartist":5790,"oices":5791,"Ġcelebrated":5792,"Ġcoup":5793,"ĠLouis":5794,"uments":5795,"ĠJeff":5796,"Ġgiggle":5797,"Ġsandbox":5798,"yn":5799,"Ġfisher":5800,"Ġrhy":5801,"sen":5802,"Ġrap":5803,"Ġveter":5804,"ĠTex":5805,"kins":5806,"Ġshown":5807,"Ġotter":5808,"ĠClub":5809,"Ġmama":5810,"Ġthanks":5811,"icking":5812,"ĠSund":5813,"Ġapproached":5814,"NA":5815,"Ġ75":5816,"Ġrid":5817,"Ġraft":5818,"Ġintended":5819,"Ġargued":5820,"year":5821,"Ġ184":5822,"Ġscooter":5823,"back":5824,"Ġsquash":5825,"Ġluck":5826,"Ġcountries":5827,"ĠMimi":5828,"bes":5829,"ĠBun":5830,"Ġ300":5831,"Ġox":5832,"Ġcact":5833,"Ġbreaks":5834,"Ġcaptured":5835,"ĠAssociation":5836,"Ġdivision":5837,"Ġlid":5838,"Ġinspired":5839,"Ġinfluence":5840,"Ġresearch":5841,"Ġlands":5842,"anes":5843,"ucted":5844,"Ġalligator":5845,"II":5846,"Ġdessert":5847,"ucked":5848,"Ġcontain":5849,"Ġ1960":5850,"ication":5851,"Ġwool":5852,"Ġuses":5853,"Ġforgave":5854,"Ġsituation":5855,"ĠOt":5856,"anted":5857,"Ġpurse":5858,"Ġboots":5859,"Ġmarked":5860,"ental":5861,"Ġawarded":5862,"ĠChicago":5863,"Ġtrophy":5864,"Ġtripped":5865,"ironment":5866,"utor":5867,"achel":5868,"Ġswinging":5869,"Ġstack":5870,"iskers":5871,"AF":5872,"Ġporch":5873,"Ġrubber":5874,"Ġyogurt":5875,"Ġkeeping":5876,"Ġrag":5877,"Ġstared":5878,"Ġperfectly":5879,"Ġtheater":5880,"Ġmule":5881,"Ġreason":5882,"Ġbehave":5883,"ĠCast":5884,"Ġwhether":5885,"ĠPapa":5886,"Ġpurp":5887,"Ġmotorcy":5888,"well":5889,"Ġgorilla":5890,"Ġcoffee":5891,"Ġpaws":5892,"Ġintens":5893,"ĠCouncil":5894,"ĠChinese":5895,"ĠAwards":5896,"ĠSecond":5897,"Ġostrich":5898,"ĠdidnÃ¢":5899,"stitution":5900,"Ġ1998":5901,"Ġscient":5902,"imum":5903,"atively":5904,"Ġhits":5905,"asses":5906,"Ġcompan":5907,"ĠEdward":5908,"Ġmostly":5909,"Ġstadium":5910,"Ġobserved":5911,"Ġmelon":5912,"ĠLike":5913,"Ġgrabs":5914,"ĠFle":5915,"ĠMillie":5916,"Ġstable":5917,"Ġambul":5918,"Ġremains":5919,"Ġdiary":5920,"Ġfifth":5921,"Ġsettled":5922,"Ġlions":5923,"Ġpulls":5924,"ĠWhiskers":5925,"Ġhippo":5926,"Ġtaxi":5927,"Ġquit":5928,"Ġgolf":5929,"ĠHist":5930,"Ġjellyfish":5931,"ĠCarol":5932,"Ġknot":5933,"Ġbuzz":5934,"ĠTour":5935,"icted":5936,"Ġcel":5937,"Ġunhappy":5938,"ecture":5939,"Ġnoteb":5940,"ĠBow":5941,"Ġagreement":5942,"Ġwag":5943,"ĠSee":5944,"eros":5945,"Ġtricks":5946,"Ġconclud":5947,"Ġescap":5948,"Ġmedia":5949,"Ġlearnt":5950,"Ġbelongs":5951,"undry":5952,"Ġbananas":5953,"Ġpassing":5954,"Ġpanda":5955,"ĠSant":5956,"Ġcopies":5957,"Ġrelated":5958,"Ġhaircut":5959,"eed":5960,"Ġhadn":5961,"Ġsock":5962,"Ġroared":5963,"Ġdishes":5964,"Ġattacked":5965,"mas":5966,"Ġcult":5967,"Ġmath":5968,"Ġtemperature":5969,"Ġapproximately":5970,"Ġund":5971,"rie":5972,"omer":5973,"Bye":5974,"ka":5975,"Ġraise":5976,"undred":5977,"ĠBillboard":5978,"Ġmicrophone":5979,"ĠSong":5980,"Ġbikes":5981,"Ġscold":5982,"Ġshoulder":5983,"Ġchalk":5984,"Ġthus":5985,"Ġcompletely":5986,"Ġcust":5987,"ĠOver":5988,"ĠPacific":5989,"Ġcord":5990,"asis":5991,"eding":5992,"ĠCle":5993,"Ġteaching":5994,"Ġinvestigate":5995,"atives":5996,"Ġ70":5997,"Ġsailor":5998,"Ġchecked":5999,"Ġink":6000,"iple":6001,"uf":6002,"Ġ33":6003,"Ġincludes":6004,"Ġproducer":6005,"Ġwithd":6006,"Ġdrops":6007,"Ġextended":6008,"Ġreaching":6009,"Ġcras":6010,"Ġult":6011,"Ġquarrel":6012,"Ġprivate":6013,"ĠItal":6014,"Ġdiss":6015,"Ġquarter":6016,"Ġtornado":6017,"Ġticket":6018,"Ġlaundry":6019,"Ġambulance":6020,"ĠKore":6021,"ĠMost":6022,"niture":6023,"Ġfestival":6024,"Ġactive":6025,"Ġsweater":6026,"At":6027,"Ġopin":6028,"Ġscript":6029,"Ġcrash":6030,"umes":6031,"Ġgolden":6032,"Ġtear":6033,"Ġmusician":6034,"Ġstrawberry":6035,"Ġwallet":6036,"Ġcomplex":6037,"Ġfrowned":6038,"Ġcable":6039,"Ġapologized":6040,"Ġavoc":6041,"Ġconcept":6042,"ĠInf":6043,"Ġrule":6044,"ĠCont":6045,"Ġoperations":6046,"Ġâ":6047,"Ġcub":6048,"Ġearned":6049,"ett":6050,"Ġbattles":6051,"ĠLake":6052,"Ġphoto":6053,"ÅĵYou":6054,"Ġcomf":6055,"ĠChris":6056,"lor":6057,"Ġskills":6058,"Ġflies":6059,"Ġimagine":6060,"Ġcactus":6061,"ously":6062,"Ġcooler":6063,"ĠStep":6064,"uries":6065,"Ġ1997":6066,"Ġmur":6067,"Ġbank":6068,"Ġfurniture":6069,"Ġportray":6070,"Ġactions":6071,"Ġshopkeeper":6072,"ĠScot":6073,"Ġdisappear":6074,"Ġglow":6075,"Ġhive":6076,"mm":6077,"Ġcreek":6078,"Ġreind":6079,"ĠAtlantic":6080,"Ġnotebook":6081,"Ġpine":6082,"Ġsaus":6083,"rm":6084,"Ġissued":6085,"Ġyacht":6086,"Ġpenguin":6087,"Ġlikely":6088,"Ġacting":6089,"Ġsticker":6090,"ooped":6091,"Ġelevator":6092,"ĠJew":6093,"reeze":6094,"vey":6095,"Ġwound":6096,"ĠBoy":6097,"umed":6098,"ĠMartin":6099,"ĠDis":6100,"Ġencouraged":6101,"Ġrequest":6102,"ĠHur":6103,"Ġgain":6104,"Ġsource":6105,"Ġsailing":6106,"Ġcm":6107,"ĠWin":6108,"agement":6109,"ashion":6110,"semb":6111,"Ġcanc":6112,"Ġadop":6113,"raw":6114,"Ġvet":6115,"Ġoy":6116,"Ġrecognized":6117,"Ġdoors":6118,"Ġdeg":6119,"ĠSir":6120,"Ġcreation":6121,"Ġdressed":6122,"ria":6123,"jected":6124,"ĠTrue":6125,"Ġsprink":6126,"iation":6127,"Ġthrowing":6128,"Ġexpand":6129,"Ġdeclared":6130,"antly":6131,"Ġappears":6132,"Ġsteak":6133,"Ġprepared":6134,"Ġclapping":6135,"Ġceiling":6136,"Ġdefeat":6137,"Ġleaned":6138,"ros":6139,"iles":6140,"Ġpushes":6141,"ĠAfrica":6142,"Ġcru":6143,"Ġwarning":6144,"ĠRub":6145,"Ġinitial":6146,"Ġnone":6147,"ĠCongress":6148,"Ġsmells":6149,"Ġshovel":6150,"unately":6151,"Ġheat":6152,"Ġmechanic":6153,"Ġzoomed":6154,"otion":6155,"Ġward":6156,"Ġcapital":6157,"Ġpainter":6158,"Ġlyrics":6159,"Ġgrapes":6160,"ĠSea":6161,"Ġlawyer":6162,"Ġpowder":6163,"ĠOld":6164,"Ġvend":6165,"During":6166,"order":6167,"Ġ37":6168,"Ġunable":6169,"ĠChina":6170,"ĠTown":6171,"Ġmemories":6172,"Ġargue":6173,"ishop":6174,"Ġbrain":6175,"Ġshakes":6176,"Ġreindeer":6177,"Ġlocation":6178,"Ġachieve":6179,"angers":6180,"Ġsubsequently":6181,"Ġtip":6182,"Ġsoftly":6183,"Ġswamp":6184,"Ġanchor":6185,"venue":6186,"Ġprofessional":6187,"Ġstom":6188,"Ġshouldn":6189,"ĠFlorida":6190,"hero":6191,"Ġsimple":6192,"ÃŃ":6193,"Ġvia":6194,"quito":6195,"Ġsupposed":6196,"Ġmoments":6197,"ĠJer":6198,"urity":6199,"Ġaeroplane":6200,"Ġpolish":6201,"ĠOper":6202,"iral":6203,"Ġexact":6204,"Ġpebble":6205,"ĠLord":6206,"Ġburned":6207,"ĠHal":6208,"Ġturning":6209,"Ġfrogs":6210,"Ġfallen":6211,"Ġunderstanding":6212,"Ġspending":6213,"Ġsocc":6214,"Ġsoccer":6215,"ĠTime":6216,"Ġsandcast":6217,"Ġterms":6218,"When":6219,"ĠApp":6220,"ĠTexas":6221,"ĠSad":6222,"Ġslight":6223,"Ġtons":6224,"hew":6225,"Ġservices":6226,"Jim":6227,"ĠFollowing":6228,"Ġsteel":6229,"Ġfiction":6230,"Ġthrows":6231,"Ġability":6232,"Ġstuffed":6233,"Ġskeleton":6234,"Ġflame":6235,"Ġpresented":6236,"Ġglove":6237,"Ġunlock":6238,"Ġblowing":6239,"Ġforgotten":6240,"Ġconcer":6241,"Ġbackpack":6242,"Ġmotorcycle":6243,"Ġholid":6244,"Ġwrit":6245,"rets":6246,"ertainment":6247,"Ġsusp":6248,"Ġprepare":6249,"Ġcolon":6250,"do":6251,"Ġmajority":6252,"Ġshrimp":6253,"Ġrepeated":6254,"olk":6255,"Ġcelery":6256,"Ġdistrib":6257,"Ġ183":6258,"Ġpassen":6259,"ĠCla":6260,"sters":6261,"Ġstatus":6262,"Ġsuperhero":6263,"ĠMaggie":6264,"ĠDV":6265,"ĠSince":6266,"Ġonion":6267,"Ġcabinet":6268,"Ġadminist":6269,"ĠdonÃ¢":6270,"Ġhut":6271,"yl":6272,"ĠCanadian":6273,"ĠLind":6274,"Ġcardboard":6275,"Ġrout":6276,"Ġranked":6277,"Dad":6278,"Ġraining":6279,"Ġpitch":6280,"Ġpermission":6281,"bury":6282,"Ġinformation":6283,"Ġhanging":6284,"Ġconcert":6285,"ĠClara":6286,"Mia":6287,"Ġplot":6288,"Ġconnect":6289,"Ġbaking":6290,"Ġeaten":6291,"Ġeraser":6292,"Ġbrand":6293,"Ġimagination":6294,"ĠOff":6295,"ifl":6296,"Ġremove":6297,"ĠWood":6298,"ĠJose":6299,"vention":6300,"Ġmemory":6301,"hold":6302,"inks":6303,"Ġindividual":6304,"ĠWal":6305,"Ġseconds":6306,"Ġlaser":6307,"Ġkitty":6308,"ĠCenter":6309,"Ġimm":6310,"Ġeagerly":6311,"Ġattacks":6312,"Ġlaunched":6313,"Ġcastles":6314,"Ġvehicle":6315,"ĠRail":6316,"itz":6317,"ĠTor":6318,"aging":6319,"die":6320,"ĠCamp":6321,"Ġmystery":6322,"Ġsch":6323,"Ġknob":6324,"Ġcomposed":6325,"Ġsucceeded":6326,"Sp":6327,"Ġmistakes":6328,"Ġrhin":6329,"Ġpresents":6330,"ĠMer":6331,"Ġrhyth":6332,"Ġtreasures":6333,"Ġstrike":6334,"Ġsurrounded":6335,"âĤ¬âĢľ":6336,"rences":6337,"Ġpages":6338,"Ġactivities":6339,"ortheast":6340,"ĠCath":6341,"ify":6342,"Ġrespectively":6343,"Ġoccurred":6344,"Ġignored":6345,"Ġaltern":6346,"Ġtrav":6347,"andon":6348,"Ġnumerous":6349,"down":6350,"Ġfog":6351,"Ġsoc":6352,"Ġmentioned":6353,"Ġcontem":6354,"Ġattempted":6355,"Ġnotes":6356,"ĠAngeles":6357,"Ġsales":6358,"bie":6359,"ledge":6360,"Ġbarks":6361,"Ġsunset":6362,"Ġshouting":6363,"Ġassociated":6364,"Ġfinanc":6365,"Ġwaste":6366,"Ġroyal":6367,"Ġyards":6368,"Ġcontains":6369,"ĠEmpire":6370,"Ġpirates":6371,"And":6372,"Ġdiscovery":6373,"Ġ1995":6374,"Ġreef":6375,"ĠTer":6376,"Ġreaches":6377,"Ġhundred":6378,"oceros":6379,"Ġmosquito":6380,"Ġsense":6381,"ĠSquadron":6382,"Ġrespond":6383,"rough":6384,"Ġwelcomed":6385,"Ġ90":6386,"ĠJon":6387,"Ġhopes":6388,"Ġdancer":6389,"Ġefforts":6390,"Ġaccomp":6391,"Ġgirls":6392,"Ġplastic":6393,"Ġslept":6394,"Ġupper":6395,"icing":6396,"Ġkay":6397,"Ġweapon":6398,"Ġconditions":6399,"Ġyoga":6400,"Ġuniverse":6401,"ĠRussian":6402,"chair":6403,"ĠIII":6404,"ĠDVD":6405,"Ġswung":6406,"Ġdouble":6407,"rees":6408,"idges":6409,"Ġcob":6410,"ĠKent":6411,"ibly":6412,"ĠHighway":6413,"uals":6414,"Ġsport":6415,"Ġcaul":6416,"Jack":6417,"Ġfashion":6418,"Ġmicrosc":6419,"Ġcentre":6420,"Ġcups":6421,"Ġattached":6422,"ĠCentral":6423,"Ġlend":6424,"Ġinsisted":6425,"Ġcurtain":6426,"icip":6427,"ĠJac":6428,"Ġselected":6429,"Ġtheat":6430,"Ġitems":6431,"Ġfaced":6432,"Ġcoach":6433,"elcome":6434,"olic":6435,"Ġweigh":6436,"ĠYear":6437,"Ġdemon":6438,"Ġcompos":6439,"Ġtwenty":6440,"Ġcushion":6441,"Ġpistol":6442,"Ġchess":6443,"unity":6444,"ij":6445,"Ġworkers":6446,"Ġcliff":6447,"itude":6448,"agle":6449,"Ġenvironment":6450,"gely":6451,"Ġcaulifl":6452,"ĠTina":6453,"Ġgreed":6454,"Ġrhinoceros":6455,"Ġhus":6456,"ĠFrancis":6457,"Ġ1996":6458,"Ġmarble":6459,"obile":6460,"ĠDel":6461,"ĠSu":6462,"Ġfisherman":6463,"Ġresulted":6464,"Ġreferred":6465,"Ġprice":6466,"Ġ34":6467,"ĠRachel":6468,"Ġattach":6469,"Ġarchit":6470,"Ġneighborhood":6471,"Ġregret":6472,"Ġissues":6473,"ĠServ":6474,"bey":6475,"Ġ1950":6476,"Ġcreating":6477,"reme":6478,"Ġens":6479,"Ġtutor":6480,"Ġge":6481,"Ġsatisf":6482,"Ġpeek":6483,"Ġglowing":6484,"rier":6485,"Ġpeach":6486,"Ġincor":6487,"Ġcommented":6488,"Ġqual":6489,"Ġdear":6490,"Ġpa":6491,"Ġ38":6492,"Ġelected":6493,"Ġrequire":6494,"Ġnecess":6495,"ening":6496,"Ġ2016":6497,"Ã¼":6498,"Ġtwink":6499,"Ġreverse":6500,"ĠMur":6501,"ĠAnother":6502,"ucle":6503,"Ġig":6504,"Ġmixer":6505,"ĠMinister":6506,"Ġcritical":6507,"uated":6508,"Ã¶":6509,"Ġvendor":6510,"Ġencount":6511,"Ġmakeup":6512,"Ġtelephone":6513,"Ġsen":6514,"Ġfolder":6515,"Ġculture":6516,"Ġsched":6517,"Ġplat":6518,"Ġbulb":6519,"Ġi":6520,"ims":6521,"Ġexecut":6522,"Ġfastest":6523,"ĠLiz":6524,"Ġowners":6525,"Ġpowers":6526,"Ġgiraffe":6527,"lands":6528,"ils":6529,"Ġlargely":6530,"Ġwipe":6531,"ĠGroup":6532,"Ġmaze":6533,"Ġ1994":6534,"Ġfireplace":6535,"ĠRosie":6536,"ĠMu":6537,"Ġquietly":6538,"Ġindustry":6539,"ĠMir":6540,"Ġlegisl":6541,"ilies":6542,"Ġmissile":6543,"ĠTy":6544,"Ġcauliflower":6545,"Ġmale":6546,"Ġtim":6547,"ĠJoy":6548,"Ġlisted":6549,"Ġchim":6550,"Ġvest":6551,"Ġpopped":6552,"Ġwaving":6553,"Ġabandon":6554,"Ġmop":6555,"Ġassigned":6556,"Ġprotected":6557,"Ġpoison":6558,"ĠChristmas":6559,"Ġhusband":6560,"ĠSunday":6561,"ĠItalian":6562,"ĠLaw":6563,"Ġburn":6564,"Ġpeak":6565,"Ġdomin":6566,"Ġisn":6567,"ĠCorps":6568,"Ġgear":6569,"Mum":6570,"Ġhappens":6571,"laud":6572,"ĠStan":6573,"ented":6574,"Mama":6575,"while":6576,"ĠVer":6577,"Ġtraditional":6578,"Ġcrowd":6579,"utch":6580,"glasses":6581,"Ġoak":6582,"Ġscattered":6583,"Ġdifference":6584,"Ġpoke":6585,"Ġbury":6586,"mark":6587,"Ġdrain":6588,"Sh":6589,"Ġbreeze":6590,"Ġrecords":6591,"works":6592,"Ġflea":6593,"ĠJam":6594,"Ġsunglasses":6595,"ogue":6596,"Ġplanes":6597,"Ġslipp":6598,"ĠTrans":6599,"Ġgroc":6600,"ĠRy":6601,"Ġanaly":6602,"ras":6603,"ĠViet":6604,"Ġprimary":6605,"Ġmethod":6606,"Ġdepression":6607,"Ġroads":6608,"Ġsquirrels":6609,"Ġx":6610,"Ġavoid":6611,"ĠRev":6612,"reak":6613,"Ġchamber":6614,"Ġchimney":6615,"Ġbes":6616,"Ġaxe":6617,"ona":6618,"dies":6619,"ĠTeam":6620,"Ġstudied":6621,"Ġtuna":6622,"Ġinches":6623,"Ġitch":6624,"Ġchirp":6625,"ĠIÃ¢":6626,"ĠRad":6627,"Ġmeaning":6628,"ĠFore":6629,"Ġfile":6630,"Molly":6631,"Ġproduce":6632,"Ġtoil":6633,"Ġopport":6634,"ste":6635,"Ġapplaud":6636,"Ġunpack":6637,"Ġpetals":6638,"Ġsect":6639,"Ġentr":6640,"Ġexist":6641,"Ġindic":6642,"Ġigloo":6643,"Ġ1940":6644,"llie":6645,"Ġdut":6646,"umn":6647,"Ġpuzzles":6648,"Ġchickens":6649,"tress":6650,"ita":6651,"Because":6652,"Ġlime":6653,"osen":6654,"Ġsupplies":6655,"Ġarrest":6656,"ĠCapt":6657,"ĠEv":6658,"Ġmount":6659,"atur":6660,"Ġholiday":6661,"bour":6662,"Ġwinner":6663,"Ġgrey":6664,"antasy":6665,"ĠWales":6666,"Ġ180":6667,"Ġpinch":6668,"stitute":6669,"Ġreligious":6670,"Ġclassroom":6671,"rick":6672,"Ġsevere":6673,"Ġcommander":6674,"Ġmeasured":6675,"Ġbringing":6676,"Ġcartoon":6677,"Ġcared":6678,"Ġ49":6679,"Is":6680,"ĠHel":6681,"ĠitÃ¢":6682,"ĠDemoc":6683,"oh":6684,"Ġrate":6685,"Ġmax":6686,"ĠCy":6687,"Ġsticky":6688,"ĠCam":6689,"irmed":6690,"ĠLy":6691,"ĠMichigan":6692,"Ġgym":6693,"ĠSpr":6694,"ender":6695,"eder":6696,"Ġrapid":6697,"Ġprepar":6698,"Ġdocument":6699,"orter":6700,"Ġplates":6701,"Ġrhythm":6702,"Ġskirt":6703,"utions":6704,"igning":6705,"loy":6706,"Ġnortheast":6707,"Ġcausing":6708,"Your":6709,"bridge":6710,"everal":6711,"Ġgreedy":6712,"Ġunit":6713,"teen":6714,"Ġmyself":6715,"Ġwis":6716,"Ġsevent":6717,"ĠSum":6718,"Ġgrin":6719,"Ġattend":6720,"Ġeducation":6721,"inated":6722,"Ġalarm":6723,"ompl":6724,"Ġchief":6725,"Ġbecomes":6726,"Ġbey":6727,"wide":6728,"gency":6729,"Ġwooden":6730,"Ġpromin":6731,"Ġestablish":6732,"oms":6733,"was":6734,"quar":6735,"Ġcouple":6736,"Ġmicroscope":6737,"Ġyouth":6738,"Ġcontest":6739,"ift":6740,"ĠPan":6741,"Ġletting":6742,"Ġslippery":6743,"ĠNet":6744,"ivity":6745,"Ġbeyond":6746,"Ġ1992":6747,"ĠKn":6748,"ĠZeal":6749,"Ġsigns":6750,"Ġchallenge":6751,"Ġmotion":6752,"Ġbeef":6753,"ĠTri":6754,"Ġsniffed":6755,"Ġtug":6756,"uten":6757,"Ġdirectly":6758,"Ġbreaking":6759,"ĠPrince":6760,"Ġaccompl":6761,"Ġgust":6762,"Ġtheme":6763,"Ġexpect":6764,"zen":6765,"endar":6766,"Ġjazz":6767,"Ġpunish":6768,"inem":6769,"Ġbouncing":6770,"Ġkilomet":6771,"Ġmattress":6772,"ĠSur":6773,"Ġsizes":6774,"ĠTest":6775,"Ġhighly":6776,"Ġtermin":6777,"Ġconstructed":6778,"Ġnapkin":6779,"Ġsup":6780,"Ġsir":6781,"Ġhom":6782,"Ġactivity":6783,"Ġspear":6784,"Ġrestore":6785,"ĠFar":6786,"ĠOx":6787,"ulations":6788,"Ġviewers":6789,"ĠMass":6790,"Ġallowing":6791,"outheast":6792,"Ġradish":6793,"Ġavocado":6794,"Ġscience":6795,"Ġsneak":6796,"Ġfirm":6797,"Ġseats":6798,"Ġlevels":6799,"Ġvocals":6800,"Ġtoilet":6801,"Ġroot":6802,"Ġbound":6803,"Ġlosing":6804,"Ġdism":6805,"win":6806,"ĠRay":6807,"Ġprem":6808,"Ġtrusted":6809,"Ġfreezer":6810,"ĠGar":6811,"che":6812,"Ġcontroll":6813,"Ġcrib":6814,"Ġcane":6815,"emy":6816,"ĠZealand":6817,"Ġcombat":6818,"the":6819,"vet":6820,"ĠPenn":6821,"Ġachieved":6822,"Ġresults":6823,"ok":6824,"Ġflapped":6825,"agon":6826,"edy":6827,"Ġzipper":6828,"ĠDog":6829,"Ġattended":6830,"ĠMic":6831,"Ġlotion":6832,"fortunately":6833,"racted":6834,"mble":6835,"Ġ41":6836,"ĠFinal":6837,"Ġchosen":6838,"Ġenemy":6839,"Ġago":6840,"ĠFreddy":6841,"cend":6842,"Ġarmchair":6843,"Ġflat":6844,"Ġoyster":6845,"ĠLight":6846,"ĠLong":6847,"Ġannual":6848,"olar":6849,"izard":6850,"Ġreduced":6851,"asp":6852,"ĠOh":6853,"nie":6854,"Ġsaving":6855,"Ġraz":6856,"ĠMexico":6857,"ĠAfrican":6858,"Ġconcent":6859,"reck":6860,"Ġjail":6861,"Ġyounger":6862,"ĠMore":6863,"Ġscratch":6864,"Ġcontrovers":6865,"ousand":6866,"Ġspots":6867,"Ġ400":6868,"Ġtwice":6869,"Ġmountains":6870,"ictionary":6871,"ĠCare":6872,"Ġlawn":6873,"Ġshower":6874,"Ġjewelry":6875,"Ġedition":6876,"Ġcobwe":6877,"Ġlumber":6878,"cles":6879,"sis":6880,"Ġschools":6881,"ĠJud":6882,"Ġwardrobe":6883,"Ġlandsc":6884,"Ġsprayed":6885,"Ġ1930":6886,"Ġattempts":6887,"Ġproperty":6888,"Ġstating":6889,"Ġrac":6890,"Ġlicense":6891,"Ġharbor":6892,"Ġapproach":6893,"Bob":6894,"Ġpresence":6895,"Ġcontra":6896,"ĠStone":6897,"Ġbegins":6898,"Ã³":6899,"Ġcases":6900,"Ġmis":6901,"Ġwine":6902,"ĠOw":6903,"Ġfauc":6904,"Ġkayak":6905,"Ġvariety":6906,"Ġcandid":6907,"Ġet":6908,"Ġveil":6909,"Ġbother":6910,"Ġimproved":6911,"ĠHaw":6912,"ĠRuby":6913,"Ġwrites":6914,"ads":6915,"Thanks":6916,"Ġ1993":6917,"Ġknowledge":6918,"Ġbridges":6919,"Ġhills":6920,"Ġbean":6921,"Ġ1991":6922,"ĠBird":6923,"Ġ179":6924,"Ġchairs":6925,"Ġadvance":6926,"Ġearthqu":6927,"po":6928,"Ġcalendar":6929,"Ġmint":6930,"Ġblankets":6931,"Wait":6932,"Ġded":6933,"Ġcoats":6934,"Ġfigures":6935,"ĠDen":6936,"Ġcontinues":6937,"Ġperformances":6938,"Ġpurs":6939,"pher":6940,"Ġtransport":6941,"Ġsubway":6942,"Ġstudent":6943,"ĠHolly":6944,"Ġvroom":6945,"Ġpositions":6946,"uction":6947,"Ġcherries":6948,"Ġclaws":6949,"Ġcaring":6950,"Ġquality":6951,"Ġwaters":6952,"Ġcollege":6953,"Ġimpact":6954,"Ġlegal":6955,"ervation":6956,"Ġsplashing":6957,"Ġ55":6958,"Ġfocus":6959,"Ġfreed":6960,"rical":6961,"Ġtong":6962,"Ġrein":6963,"Ġbene":6964,"washer":6965,"ĠCaptain":6966,"Ġfaucet":6967,"Ġforms":6968,"ĠScotland":6969,"rect":6970,"Ġconflict":6971,"Ġlap":6972,"Ġelectric":6973,"Ġairpl":6974,"ani":6975,"ĠBrad":6976,"Ġexercise":6977,"Ġpatterns":6978,"ĠMat":6979,"Ġproduct":6980,"ĠFilm":6981,"Ġdishwasher":6982,"Ġkisses":6983,"Ġdeli":6984,"ican":6985,"ĠMadonna":6986,"secut":6987,"Ġresulting":6988,"ĠDepartment":6989,"ĠParl":6990,"Ġcharge":6991,"Ġshrugged":6992,"Ġcyclone":6993,"awned":6994,"Ġchampionship":6995,"Ġrefe":6996,"ygen":6997,"Ġornament":6998,"illery":6999,"ĠGreek":7000,"Ġcandles":7001,"Ġ182":7002,"Ġdoct":7003,"Ch":7004,"Ġapr":7005,"ĠAnne":7006,"ÅĵItÃ¢":7007,"onc":7008,"eel":7009,"ĠAcade":7010,"Ġvent":7011,"ĠCreek":7012,"ĠEliz":7013,"Ġgross":7014,"Ġscolded":7015,"Ġpuddles":7016,"Ġvot":7017,"aming":7018,"Ġbom":7019,"Ġpotential":7020,"Ġtucked":7021,"utenant":7022,"ĠDoc":7023,"Ġgranted":7024,"Ġprogress":7025,"Ġ39":7026,"ĠLar":7027,"Ġ+":7028,"Ġtoward":7029,"ĠLuck":7030,"Ġfasc":7031,"ĠSimps":7032,"Ġincorpor":7033,"Ġracing":7034,"ĠInfantry":7035,"Ġgreater":7036,"Ġimportance":7037,"MS":7038,"inarian":7039,"Ġrow":7040,"ĠFer":7041,"Ġrake":7042,"Ġalongside":7043,"Ġtherm":7044,"Ġflav":7045,"peror":7046,"lement":7047,"ancing":7048,"Ġnucle":7049,"Ġpeaked":7050,"ups":7051,"Ġfamilies":7052,"etch":7053,"osity":7054,"icient":7055,"thur":7056,"ĠManc":7057,"vest":7058,"ĠHelp":7059,"enth":7060,"ĠBost":7061,"Ġbodies":7062,"ĠJoseph":7063,"Ġcrawling":7064,"Ġ48":7065,"mic":7066,"ĠBC":7067,"ĠFour":7068,"ĠCross":7069,"Ġescaped":7070,"ĠEr":7071,"Ġopinion":7072,"ply":7073,"ĠWall":7074,"Ġ181":7075,"Ġcong":7076,"Ġscoring":7077,"Ġveterinarian":7078,"itiz":7079,"ĠDist":7080,"gypt":7081,"Ġ42":7082,"ading":7083,"Ġslightly":7084,"ocking":7085,"Ġwags":7086,"lee":7087,"Ġinvite":7088,"Ġmetres":7089,"ampoo":7090,"Ġstruggling":7091,"ker":7092,"uzzy":7093,"umble":7094,"Ġworse":7095,"Ġrazor":7096,"ĠBecause":7097,"ĠTre":7098,"Ġrecommend":7099,"Ġboot":7100,"Ġeconomic":7101,"ĠSecret":7102,"ĠCons":7103,"ĠLeg":7104,"Ġsqueezed":7105,"ĠGuard":7106,"ĠNick":7107,"Ġyield":7108,"ĠBuzz":7109,"anging":7110,"Ġdemonstr":7111,"isation":7112,"ĠGames":7113,"Ġblouse":7114,"py":7115,"Ġrefres":7116,"Ġwebs":7117,"Ġperfume":7118,"Ġrabbits":7119,"Ġringing":7120,"ratic":7121,"uan":7122,"ĠWilliams":7123,"Ġblueberries":7124,"Ġweapons":7125,"ĠSnowy":7126,"anding":7127,"Ġwhisper":7128,"Ġribbon":7129,"Ġdistinct":7130,"ĠAdm":7131,"ĠParliament":7132,"Ġbookcase":7133,"ĠRecords":7134,"Ġhelper":7135,"Ġpoll":7136,"ĠChe":7137,"Ġobt":7138,"Ġforeign":7139,"inky":7140,"Ġblinked":7141,"Ġwarmth":7142,"ĠRam":7143,"Ġcontrast":7144,"ĠMilly":7145,"Ġrelaxed":7146,"ĠEgypt":7147,"unes":7148,"Ġportion":7149,"Ġseems":7150,"Ġdeeper":7151,"Ġconcern":7152,"Ġconducted":7153,"Ġspaces":7154,"ĠNews":7155,"Ġwed":7156,"Ġprinc":7157,"fully":7158,"Ġsigh":7159,"Ġsports":7160,"Ġseasons":7161,"helf":7162,"urs":7163,"Ġgrill":7164,"Ġsimply":7165,"Ġsens":7166,"Ġdictionary":7167,"Ġwidely":7168,"awn":7169,"Ġshampoo":7170,"Ġguest":7171,"Ġbookshelf":7172,"Ġamazement":7173,"Ġhearts":7174,"ĠDaniel":7175,"ĠRog":7176,"ĠSil":7177,"ĠGeorg":7178,"iance":7179,"Ġpropos":7180,"Ġactor":7181,"Ġmanage":7182,"Ġtransferred":7183,"ĠLo":7184,"Ġunf":7185,"Fo":7186,"Ġgreatest":7187,"Ġhabit":7188,"Ġdivided":7189,"Ġreturning":7190,"Ġconcluded":7191,"Ġ1942":7192,"ĠMem":7193,"hab":7194,"olved":7195,"Ġthousand":7196,"Ġdestination":7197,"Ġinstrument":7198,"Ġheight":7199,"Ġvocal":7200,"ĠHave":7201,"Ġbegged":7202,"ĠLatin":7203,"ĠHop":7204,"Ġfounded":7205,"Ġnavy":7206,"Ġcopper":7207,"Ġdom":7208,"Ġdisturb":7209,"Ġpoked":7210,"Ġrelief":7211,"sych":7212,"ĠArch":7213,"Ġmultiple":7214,"arly":7215,"Ġhardly":7216,"Ġrelatively":7217,"Ġpulling":7218,"Ġignore":7219,"rol":7220,"Ġmustache":7221,"Ġ65":7222,"ĠBu":7223,"ĠLife":7224,"Ġmall":7225,"Ġproved":7226,"annel":7227,"ĠSociety":7228,"onic":7229,"Ġsqueeze":7230,"Ġprimarily":7231,"Ġweep":7232,"ĠSouthern":7233,"ĠBets":7234,"ĠShow":7235,"Ġfederal":7236,"Ġincident":7237,"Ġwriters":7238,"Ġbrings":7239,"Ġplatform":7240,"wise":7241,"ette":7242,"ĠStr":7243,"Ġlaughter":7244,"Ġshrink":7245,"Ġpride":7246,"Ġcomplain":7247,"usion":7248,"ĠPrin":7249,"Ġfeaturing":7250,"igging":7251,"ĠStephen":7252,"Ġfinancial":7253,"tor":7254,"Ġdu":7255,"Ġtitled":7256,"Ġdried":7257,"Ġmuffin":7258,"Ġworms":7259,"cage":7260,"Ġsurprises":7261,"Ġinfant":7262,"anwhile":7263,"ĠHung":7264,"ĠFoot":7265,"Ġbrick":7266,"Ġunderground":7267,"ĠCommittee":7268,"Ġrecover":7269,"ĠBoston":7270,"ĠKatie":7271,"Ġpoet":7272,"Ġkneel":7273,"Ġadj":7274,"ĠLuckily":7275,"Ġcombined":7276,"Ġsits":7277,"Ġadding":7278,"ada":7279,"âĤ¬.":7280,"ĠChief":7281,"Ġhes":7282,"Ġoxygen":7283,"imate":7284,"ĠHor":7285,"Ġ47":7286,"Ġwhip":7287,"ĠBridge":7288,"Ġhate":7289,"ĠJosh":7290,"Ġshed":7291,"riger":7292,"pedo":7293,"Ġdise":7294,"Ġsneeze":7295,"Ġheavily":7296,"ĠSwed":7297,"Ġvel":7298,"Ġflutter":7299,"Ġbirdcage":7300,"Ġcollabor":7301,"ĠBetsy":7302,"mond":7303,"agers":7304,"Ġthumb":7305,"ĠOllie":7306,"Ġdecorations":7307,"Ġinnings":7308,"atever":7309,"Ġhurting":7310,"ĠInter":7311,"ĠBeth":7312,"inder":7313,"Ġchap":7314,"Ġlicks":7315,"Ġyucky":7316,"Ġrefriger":7317,"ault":7318,"ĠGi":7319,"Ġdrinking":7320,"Ġsisters":7321,"Ġinstruct":7322,"ĠManchester":7323,"ĠBeat":7324,"Ġfloating":7325,"Ġpolicy":7326,"Ġultimately":7327,"Ġ64":7328,"Ġ52":7329,"Ġorders":7330,"Ġalright":7331,"shire":7332,"Ġjunk":7333,"Ġwandered":7334,"Ġrating":7335,"Ġoccasion":7336,"ĠCommission":7337,"inson":7338,"ĠOxford":7339,"ĠFur":7340,"Ġ46":7341,"ĠThree":7342,"Ġgrowled":7343,"ĠLine":7344,"Ġtongue":7345,"ĠParis":7346,"Ġburning":7347,"ĠAdmiral":7348,"ĠBattalion":7349,"iders":7350,"omeday":7351,"Ġtrial":7352,"Ġbravely":7353,"Ġfunction":7354,"Ġoppos":7355,"Ġlaws":7356,"Ġcompanies":7357,"Ġ1944":7358,"ĠMod":7359,"Ġbones":7360,"Ġapron":7361,"Ġvisiting":7362,"ĠHarrison":7363,"Ġartists":7364,"Äĩ":7365,"Ġcutting":7366,"ĠSanta":7367,"Ġentrance":7368,"Ġsought":7369,"Ġends":7370,"ĠColumb":7371,"Did":7372,"Ġcas":7373,"Ġwigg":7374,"Ġlem":7375,"Ġdefend":7376,"Ġcapture":7377,"Ġbackground":7378,"Ġdelivered":7379,"ĠOtt":7380,"track":7381,"ĠBBC":7382,"Ġstrawberries":7383,"ĠVan":7384,"Ġinterested":7385,"Ġvanished":7386,"Ok":7387,"Ġess":7388,"Ġquiz":7389,"stein":7390,"Ġmainly":7391,"Ġsnapped":7392,"Ġstomach":7393,"Ġcrossing":7394,"Ġearthquake":7395,"Ġpastry":7396,"Ġdesignated":7397,"Ġ43":7398,"Ġmaximum":7399,"Ġberry":7400,"ĠWay":7401,"Ġbathe":7402,"Ġoasis":7403,"iqu":7404,"Ġera":7405,"Ġdepart":7406,"Ġconsequ":7407,"ighters":7408,"Ġdefin":7409,"Ġcollecting":7410,"Ġofficials":7411,"Ġexactly":7412,"adows":7413,"Ġ44":7414,"force":7415,"ĠAcademy":7416,"ĠWater":7417,"mother":7418,"Ġsecure":7419,"oti":7420,"Ġvess":7421,"Ġ1920":7422,"Ġeagle":7423,"Ġsocks":7424,"Ġautomobile":7425,"lying":7426,"Ġscr":7427,"ptions":7428,"Ġcopy":7429,"Ġlandscape":7430,"Ġsew":7431,"Ġinterp":7432,"ĠMuseum":7433,"Ġinfluenced":7434,"istry":7435,"Ġcrashed":7436,"ĠSeries":7437,"Ġpasses":7438,"itan":7439,"Ġserving":7440,"ĠDar":7441,"Ġtide":7442,"Ġspade":7443,"Ġcities":7444,"ĠSpec":7445,"Ġemergency":7446,"Ġsandcastle":7447,"Ġgifts":7448,"Ġtorpedo":7449,"ĠCap":7450,"Ġ1941":7451,"Ġrefrigerator":7452,"ĠArab":7453,"Ġrecent":7454,"Ġbuckle":7455,"Ġ150":7456,"Ġexit":7457,"Ġclimbs":7458,"ĠBrigade":7459,"Ġconvers":7460,"Ġtoes":7461,"Ġcheek":7462,"Ġnominated":7463,"ĠCroat":7464,"Ġstudies":7465,"Ġexamine":7466,"ĠPenny":7467,"ĠSpike":7468,"ĠTay":7469,"Ġstruggled":7470,"htray":7471,"Ġconfirmed":7472,"ĠSaint":7473,"Ġtransl":7474,"ĠItaly":7475,"Ġ1945":7476,"ĠDire":7477,"asks":7478,"Ġreform":7479,"Ġseg":7480,"ÅĵNo":7481,"ĠAmericans":7482,"Ġnin":7483,"ĠJay":7484,"Ġconver":7485,"Ġshortly":7486,"Ġashtray":7487,"'ve":7488,"reland":7489,"omers":7490,"Ġrush":7491,"rain":7492,"Ġreveal":7493,"Ġir":7494,"ĠFlo":7495,"ĠMajor":7496,"abeth":7497,"Ġsociety":7498,"Ġbreathe":7499,"wr":7500,"ushing":7501,"Ġperforming":7502,"Ġsixth":7503,"ĠWind":7504,"HL":7505,"Ġdigging":7506,"Ġappreciate":7507,"Welcome":7508,"Ġsomeday":7509,"Ġbumped":7510,"Ġbeamed":7511,"ĠRegiment":7512,"oration":7513,"Ġtheory":7514,"hell":7515,"vania":7516,"Ġinjury":7517,"Ġpanic":7518,"Ġsources":7519,"Ġjewels":7520,"rative":7521,"ĠBa":7522,"ĠSk":7523,"ota":7524,"unn":7525,"ĠYoung":7526,"Ġdresses":7527,"ĠIreland":7528,"Ġfocused":7529,"Ġvacation":7530,"ĠPop":7531,"Ġsystems":7532,"ications":7533,"Ġbattleship":7534,"Ġwizard":7535,"Ġpromoted":7536,"Ġboo":7537,"Ġnorthwest":7538,"quarters":7539,"Ġvoices":7540,"Ġconvin":7541,"Ġshall":7542,"Ġsubsequent":7543,"Ġcondition":7544,"ĠAvenue":7545,"Ġdrawn":7546,"Will":7547,"Ġparties":7548,"Ġexhibit":7549,"Ġdare":7550,"olt":7551,"ole":7552,"TV":7553,"Ġnaval":7554,"Ġsoutheast":7555,"ĠPost":7556,"adel":7557,"ĠJacob":7558,"igail":7559,"Ġsparkling":7560,"Ġplanning":7561,"ĠService":7562,"'.":7563,"Ġeasier":7564,"Ġborder":7565,"Ġtaller":7566,"Ġadult":7567,"ĠEveryday":7568,"Ġsnap":7569,"Ġbeans":7570,"Ġmineral":7571,"AS":7572,"ĠKh":7573,"alle":7574,"These":7575,"Ġexpressed":7576,"ĠAndrew":7577,"Ġpurpose":7578,"Ġsolved":7579,"Ġcounty":7580,"Ġ1989":7581,"rig":7582,"Ġobserve":7583,"elve":7584,"Ġranch":7585,"ĠEntertainment":7586,"Ġairplane":7587,"Ġwashing":7588,"ifying":7589,"ĠConf":7590,"ĠNight":7591,"rise":7592,"Ġinvasion":7593,"Ġvehicles":7594,"Ġrele":7595,"ĠValley":7596,"ĠKr":7597,"ĠClass":7598,"ĠVictoria":7599,"Ġsings":7600,"ĠCatholic":7601,"Ġalbums":7602,"Ġshaped":7603,"Ġstro":7604,"Ġdefense":7605,"Ġexpress":7606,"ategory":7607,"Ġtease":7608,"Ġonwards":7609,"ĠPoppy":7610,"ĠGirl":7611,"Ġspeech":7612,"ĠAbigail":7613,"Ġexperiment":7614,"Ġfiref":7615,"Ġphysical":7616,"Ġbathrobe":7617,"Ġresidents":7618,"Ġappearances":7619,"Ġbillboard":7620,"Ġrecommended":7621,"Ġblackboard":7622,"Ġrisk":7623,"Ġsexual":7624,"ĠFleet":7625,"Ġrepresented":7626,"ĠOp":7627,"Ġfired":7628,"ometer":7629,"water":7630,"anny":7631,"AA":7632,"Ġver":7633,"Ġfloat":7634,"Ġtore":7635,"Ġunp":7636,"Ġidentified":7637,"lers":7638,"Ġmast":7639,"Ġleak":7640,"Ġtwisted":7641,"An":7642,"oys":7643,"Ġ51":7644,"Ġpassport":7645,"Ġdraft":7646,"ufact":7647,"toons":7648,"Ġsparkle":7649,"ini":7650,"Ġpatiently":7651,"oll":7652,"Ġ1943":7653,"Ġfully":7654,"ĠRoll":7655,"Ġprinted":7656,"Ġdaisy":7657,"Ġscooped":7658,"Ġyawned":7659,"ĠMountain":7660,"ansion":7661,"Ġcontact":7662,"Ġraid":7663,"Ġsust":7664,"Ġacted":7665,"Ġcontained":7666,"Ġkg":7667,"ampion":7668,"emember":7669,"gal":7670,"Ġofficially":7671,"Ġinvitation":7672,"Ġjun":7673,"Ġhanger":7674,"Ġcartoons":7675,"ĠDuke":7676,"Ġobjects":7677,"Ġwaffle":7678,"Ġagg":7679,"Ġdecides":7680,"aine":7681,"Ġapparent":7682,"ronic":7683,"Ġbare":7684,"Ġnom":7685,"uled":7686,"reets":7687,"Ġgrowth":7688,"Ġspoil":7689,"Ġdistrict":7690,"Ġartillery":7691,"Ġtrapped":7692,"Ġdebuted":7693,"Ġtrib":7694,"ĠDef":7695,"Ġstations":7696,"Ġhers":7697,"Ġpoppy":7698,"ĠSa":7699,"usted":7700,"Ġversions":7701,"inn":7702,"Ġterritory":7703,"Ġcitiz":7704,"Ġbeneath":7705,"Ġwob":7706,"gging":7707,"Ġlemonade":7708,"Ġsurrounding":7709,"Ġexecutive":7710,"kend":7711,"Ġmarks":7712,"ĠHann":7713,"Ġorganization":7714,"owers":7715,"Ġspeaking":7716,"Ġappeal":7717,"Ġbuzzing":7718,"Ġsausage":7719,"ĠDutch":7720,"ĠBon":7721,"Ġupstairs":7722,"ĠUnfortunately":7723,"Ġchirping":7724,"ĠDi":7725,"iration":7726,"Ġrestored":7727,"Ġintro":7728,"Ġprominent":7729,"ties":7730,"Ġexped":7731,"Ġaired":7732,"ults":7733,"Ġtournament":7734,"Ġaffected":7735,"essions":7736,"Ġcuddled":7737,"Ġpalm":7738,"ĠNorm":7739,"Ġgraph":7740,"Ġtypes":7741,"Ġwisdom":7742,"Ġglitter":7743,"Ġinstit":7744,"Ġmeasuring":7745,"Ġscra":7746,"Ġconsisted":7747,"ĠMen":7748,"Ġreluct":7749,"ĠMiddle":7750,"Ġstrip":7751,"gt":7752,"ĠArm":7753,"stone":7754,"Ġrepeat":7755,"ĠLand":7756,"oves":7757,"Ġwatches":7758,"abel":7759,"Ġcobweb":7760,"ox":7761,"pool":7762,"Ġwhatever":7763,"Ġactors":7764,"Yuck":7765,"ĠHurricane":7766,"erved":7767,"Ġlip":7768,"Ġcontemporary":7769,"rid":7770,"Ġdemanded":7771,"rr":7772,"ingu":7773,"Ġelephants":7774,"Ġawe":7775,"Ġsuccessfully":7776,"Ġmaintained":7777,"lam":7778,"acity":7779,"Ġdisagreed":7780,"ĠTaylor":7781,"Not":7782,"Ġnewly":7783,"Ġfolded":7784,"ĠHan":7785,"Ġthrilled":7786,"ĠBus":7787,"Ġcriticized":7788,"Ġoutdo":7789,"ĠSusan":7790,"Ġmitten":7791,"aren":7792,"Ġmedical":7793,"ĠJean":7794,"Ġexperienced":7795,"Ġfixing":7796,"ĠWell":7797,"ĠAsh":7798,"Ġtraveled":7799,"ĠCarolina":7800,"ĠTam":7801,"Ġbeside":7802,"ĠHomer":7803,"Ġ600":7804,"ĠSpark":7805,"da":7806,"intend":7807,"gn":7808,"ĠRyan":7809,"Ġsingles":7810,"Ġdrug":7811,"walk":7812,"ĠOcean":7813,"Ġreference":7814,"ĠBey":7815,"ĠAlbert":7816,"Ġhesit":7817,"ĠNorthern":7818,"Mmm":7819,"Ġformation":7820,"ĠHard":7821,"Ġpaints":7822,"Ġabandoned":7823,"itness":7824,"Ġtreatment":7825,"Ġlanding":7826,"Ġworldwide":7827,"mony":7828,"ĠSeveral":7829,"Ġfloated":7830,"Ġwedding":7831,"uous":7832,"ĠTop":7833,"ĠFantasy":7834,"ĠKay":7835,"Ġunite":7836,"Ġsenior":7837,"ĠFootball":7838,"Ġsunlight":7839,"ĠDev":7840,"estic":7841,"exp":7842,"Ġdial":7843,"Ġsneezed":7844,"Ġoranges":7845,"Ġaspect":7846,"Ġconnected":7847,"ya":7848,"Ġ1987":7849,"Ġlaunch":7850,"Ġhyd":7851,"ĠLie":7852,"Ġdrag":7853,"Ġdecorated":7854,"Ġsets":7855,"ala":7856,"ĠNever":7857,"Ġpaintings":7858,"Ġusual":7859,"ĠDra":7860,"ĠMarsh":7861,"ĠOnly":7862,"Ġsolution":7863,"ĠCastle":7864,"Ġherb":7865,"Ġcrunch":7866,"rops":7867,"Ġrainfall":7868,"Ġnegoti":7869,"Ġrust":7870,"ĠSystem":7871,"gian":7872,"ĠDam":7873,"ĠRod":7874,"ares":7875,"Ġclaims":7876,"Ġ1988":7877,"ĠRom":7878,"Ġadvant":7879,"Ġnecessary":7880,"ĠIll":7881,"Ġshopping":7882,"gar":7883,"Ġcert":7884,"ĠTem":7885,"Ġbites":7886,"ĠScottish":7887,"ĠDistrict":7888,"Ġfrequently":7889,"Ġsunrise":7890,"ĠJulie":7891,"Ġdesigns":7892,"Ġmarching":7893,"ĠCivil":7894,"iments":7895,"ĠLew":7896,"Ġstruggle":7897,"Ġchores":7898,"chest":7899,"Ġconsecut":7900,"Ġfellow":7901,"Ġbenef":7902,"Ġpillows":7903,"Ġhistorian":7904,"rael":7905,"Ġsoundtrack":7906,"Jimmy":7907,"Ġclearing":7908,"ĠDoctor":7909,"ĠElizabeth":7910,"Ġdinosaurs":7911,"Ġ53":7912,"ĠZoe":7913,"Ġreports":7914,"ĠPre":7915,"ographer":7916,"ĠStudios":7917,"Åį":7918,"Ġplanted":7919,"syl":7920,"Ġglowed":7921,"Ġgovernor":7922,"Ġtherefore":7923,"ĠFire":7924,"Ġhumans":7925,"sembly":7926,"iley":7927,"Ġaccompan":7928,"Ġmelted":7929,"Ġprett":7930,"ĠPolish":7931,"mosp":7932,"ĠCD":7933,"Ġurge":7934,"Ġmassage":7935,"ament":7936,"Ġrailway":7937,"ĠSimon":7938,"ĠSenate":7939,"orne":7940,"ĠHistor":7941,"ba":7942,"ĠWeek":7943,"asty":7944,"Ġafterwards":7945,"Ġthermometer":7946,"ev":7947,"onents":7948,"Ġbricks":7949,"Ġdegree":7950,"Ġtwelve":7951,"Ġoperated":7952,"amas":7953,"ĠField":7954,"Ġwounded":7955,"ĠBrian":7956,"ashed":7957,"Ġpaused":7958,"Ġ85":7959,"Mummy":7960,"war":7961,"ĠBad":7962,"ĠAv":7963,"Ġgrape":7964,"Ġcherry":7965,"lusion":7966,"gent":7967,"Ġadopted":7968,"Ġproviding":7969,"ĠPic":7970,"Ġconduct":7971,"Ġlung":7972,"Ġrear":7973,"iana":7974,"ĠGovernor":7975,"Ġtoe":7976,"Ġmanufact":7977,"Ġkeeper":7978,"ĠBart":7979,"ĠMount":7980,"Ġinn":7981,"Ġsparkles":7982,"neath":7983,"Ġstudying":7984,"Ġvote":7985,"Ġbillion":7986,"iliar":7987,"Ġcostumes":7988,"Ġelement":7989,"Ġneither":7990,"Ġtypically":7991,"ĠJes":7992,"ĠOf":7993,"ĠMeanwhile":7994,"prise":7995,"ĠGal":7996,"Ġadapt":7997,"Ġconsecutive":7998,"ĠEastern":7999,"Ġsecurity":8000,"Ġwebsite":8001,"Ġopportunity":8002,"Ġtune":8003,"Ġwreck":8004,"cking":8005,"ĠPennsyl":8006,"ĠColon":8007,"ĠFestival":8008,"Ġwherever":8009,"ĠCorn":8010,"Ġlily":8011,"Ġpigs":8012,"Ġsu":8013,"rup":8014,"ĠGovernment":8015,"Ġmachines":8016,"Ġauthority":8017,"Ġadvanced":8018,"ĠWilson":8019,"utation":8020,"Ġglob":8021,"Ġmovies":8022,"loe":8023,"Ġopposed":8024,"Ġbudget":8025,"Ġ1986":8026,"Ġruler":8027,"eller":8028,"ĠSteven":8029,"Ġtend":8030,"uccess":8031,"She":8032,"Ġweren":8033,"Ġsliding":8034,"Ġexamined":8035,"Ġnative":8036,"lim":8037,"oir":8038,"Ġtickets":8039,"Ġphil":8040,"ĠSatur":8041,"Ġteasp":8042,"Ġproducers":8043,"Ġgotten":8044,"!\",":8045,"pton":8046,"Ġmarbles":8047,"Ġseparated":8048,"Ġparticipated":8049,"Ġbeds":8050,"Ġslip":8051,"Ġsuggests":8052,"ĠCard":8053,"Ġgaz":8054,"ĠLuna":8055,"Ġattrib":8056,"Ġplanets":8057,"ĠDoug":8058,"Ġbasis":8059,"Ġcasual":8060,"Ġgrinned":8061,"Ġ54":8062,"ĠAllied":8063,"Ġoffensive":8064,"Ġcouncil":8065,"Ġemph":8066,"Spot":8067,"Ġfilming":8068,"Ġproperly":8069,"Ġnarrow":8070,"Would":8071,"rad":8072,"Ġopposition":8073,"Ġdoctors":8074,"uggage":8075,"irty":8076,"ĠBond":8077,"aga":8078,"ĠBack":8079,"Ġroles":8080,"!'":8081,"Ġsore":8082,"Ġdrinks":8083,"Ġtransform":8084,"Ġmenu":8085,"ĠSand":8086,"ĠThrough":8087,"Ġcompar":8088,"Ġarranged":8089,"Ġfailure":8090,"imens":8091,"ĠAdd":8092,"ĠRemy":8093,"Ġ95":8094,"embers":8095,"Ġmaterials":8096,"Ġprotection":8097,"Ġolive":8098,"iven":8099,"ulty":8100,"ÅĵIÃ¢":8101,"bon":8102,"Ġluggage":8103,"Ġpsych":8104,"otional":8105,"Ġsequence":8106,"Ġpossibly":8107,"arked":8108,"ĠSup":8109,"cel":8110,"Ġastr":8111,"Ġmeowed":8112,"Ġrival":8113,"ĠThough":8114,"ĠHome":8115,"Ġrecognize":8116,"Ġfilmed":8117,"Ġbass":8118,"Ġsprinkles":8119,"Ġmixing":8120,"Ġlets":8121,"fire":8122,"ĠLiber":8123,"ca":8124,"Ġ56":8125,"Ġpotatoes":8126,"ĠPennsylvania":8127,"Ġresponded":8128,"ĠAlexander":8129,"ĠMoo":8130,"ocated":8131,"Ġcakes":8132,"ext":8133,"Ġlecture":8134,"Ġmane":8135,"Ġsteep":8136,"Ġconfident":8137,"ĠPip":8138,"ĠUncle":8139,"ĠEarly":8140,"Ġdisturbed":8141,"Ġscur":8142,"ĠSpring":8143,"Ġcapacity":8144,"ĠSquare":8145,"Ġsupporting":8146,"Ġ177":8147,"Ġsquadron":8148,"Ġchewed":8149,"Ġleather":8150,"aving":8151,"Ġsip":8152,"Ġgloves":8153,"ipal":8154,"irts":8155,"ĠSomeone":8156,"rane":8157,"ĠRon":8158,"Ġarrive":8159,"ype":8160,"ĠJersey":8161,"Ġtomatoes":8162,"ĠIrish":8163,"haps":8164,"ĠNut":8165,"Ġregarded":8166,"Ġsuffer":8167,"Ġtwigs":8168,"expected":8169,"eless":8170,"asm":8171,"Ġislands":8172,"ĠCoast":8173,"ĠOs":8174,"Ġvideos":8175,"gthen":8176,"iÄĩ":8177,"TC":8178,"ĠIslands":8179,"Ġnegative":8180,"Ġreflect":8181,"Ġdisease":8182,"ĠOperation":8183,"iot":8184,"ĠTropical":8185,"ĠCa":8186,"isers":8187,"Ġatmosp":8188,"Ġevac":8189,"mit":8190,"Ġindividuals":8191,"ĠCra":8192,"Ġeveryday":8193,"Ġdismiss":8194,"pass":8195,"ĠLu":8196,"Ġexpansion":8197,"Ġstructures":8198,"Ġretreat":8199,"Ġcurled":8200,"Ġlif":8201,"Although":8202,"Ġ178":8203,"Ġweekend":8204,"Ġrequested":8205,"Ġdisagree":8206,"ĠSub":8207,"Ġkilling":8208,"Ġzero":8209,"Ġmailman":8210,"ĠSpain":8211,"ĠFriend":8212,"ĠLuke":8213,"athan":8214,"ĠWat":8215,"Ġinte":8216,"Ġmagn":8217,"Ġjogging":8218,"ĠGet":8219,"Ġdeploy":8220,"Ġaware":8221,"ĠRhod":8222,"ÅĵThatÃ¢":8223,"ĠJamie":8224,"ĠHol":8225,"Or":8226,"lets":8227,"Ġhistorical":8228,"ĠWed":8229,"ossible":8230,"ĠTech":8231,"Ġ97":8232,"Ġwatered":8233,"Ġmulti":8234,"ĠClaire":8235,"ĠWild":8236,"Ġexplos":8237,"Ġwanting":8238,"ĠArthur":8239,"Ġceremony":8240,"ĠMD":8241,"Ġchirped":8242,"BA":8243,"Ġretired":8244,"stream":8245,"Ġsym":8246,"Ġteaspoon":8247,"ĠStorm":8248,"imal":8249,"Ġloaded":8250,"Ġhonor":8251,"Ġty":8252,"onent":8253,"Ġperman":8254,"ĠFinn":8255,"ĠLive":8256,"Ġoutf":8257,"ĠHunt":8258,"Ġexha":8259,"Ġkindly":8260,"Ġwins":8261,"Ġmob":8262,"Ġ76":8263,"ĠChloe":8264,"illing":8265,"Ġstrangers":8266,"Ġunexpected":8267,"cho":8268,"Ġadmiring":8269,"bell":8270,"ulu":8271,"Ġchem":8272,"Ġbriefly":8273,"ĠPrincess":8274,"ĠSS":8275,"Ġskipping":8276,"opes":8277,"ĠFair":8278,"Ġinstructions":8279,"Ġweighed":8280,"Ġgrandmother":8281,"Ġintroduce":8282,"Ġ1939":8283,"Ġgathering":8284,"Ġrejected":8285,"Ġmonsters":8286,"Ġfab":8287,"Ġfreedom":8288,"resp":8289,"ĠGil":8290,"asons":8291,"Ġchor":8292,"za":8293,"Ġarrang":8294,"Ġknots":8295,"Ġtwin":8296,"Ġwond":8297,"Ġoat":8298,"Ġarmed":8299,"Ġrom":8300,"Ġstreets":8301,"zag":8302,"Ġath":8303,"Ġfirework":8304,"Ġathlet":8305,"Ġslice":8306,"20":8307,"Ġhearing":8308,"ushes":8309,"Ġinterchange":8310,"fs":8311,"Ġ1968":8312,"Ġsam":8313,"Ġeffective":8314,"Ġsolo":8315,"Ġbend":8316,"yle":8317,"immer":8318,"Ġweb":8319,"istics":8320,"outs":8321,"ĠIsrael":8322,"ĠBoard":8323,"Ġshock":8324,"Ġprayed":8325,"Ġmaster":8326,"Ġextrem":8327,"Ġcorrect":8328,"Ġhated":8329,"seek":8330,"Ġproceed":8331,"Ġ1985":8332,"Ġstair":8333,"joyed":8334,"Ġwhistling":8335,"uman":8336,"Ġlips":8337,"Ġextensive":8338,"ĠCub":8339,"Ġrecently":8340,"Ġkilometres":8341,"Ġdata":8342,"ima":8343,"Ġaccidents":8344,"ĠLes":8345,"ĠRepublican":8346,"Ġpoems":8347,"Ġrebu":8348,"Ġaid":8349,"FA":8350,"Ġparalle":8351,"Ġstem":8352,"Ġarchitect":8353,"spect":8354,"Ġadministration":8355,"Ġsale":8356,"ĠSound":8357,"ĠVen":8358,"Ġanswers":8359,"ĠDun":8360,"Ġurged":8361,"Ġ66":8362,"Ġleadership":8363,"ĠDid":8364,"ops":8365,"Ġgrocery":8366,"ĠSummer":8367,"Ġexpanded":8368,"Ġscul":8369,"Ġoverjoyed":8370,"Ġmurder":8371,"ava":8372,"zil":8373,"Ġliqu":8374,"struction":8375,"Ġadvantage":8376,"ira":8377,"Ġinjured":8378,"Ġcovers":8379,"Ġhurried":8380,"Ready":8381,"For":8382,"uls":8383,"Ġpetted":8384,"ĠInstitute":8385,"Ġdescribes":8386,"Ġpassengers":8387,"ĠWW":8388,"uate":8389,"ĠSunny":8390,"Ġinfantry":8391,"Ġadvert":8392,"oln":8393,"ĠGeorgia":8394,"orters":8395,"Ġremembers":8396,"Ġlux":8397,"ĠSure":8398,"amm":8399,"Ġrested":8400,"Ġzipped":8401,"Ġreign":8402,"Following":8403,"Ġsynt":8404,"Ġacquired":8405,"Ġaddress":8406,"adelph":8407,"Ġseventh":8408,"ĠRevolution":8409,"Ġ61":8410,"lings":8411,"ĠFree":8412,"Ġiniti":8413,"Ġdrums":8414,"ĠNob":8415,"Ġsafari":8416,"Ġfireworks":8417,"ĠMos":8418,"ora":8419,"imet":8420,"Ġunderneath":8421,"Ġimages":8422,"Ġdeck":8423,"Ġmanagement":8424,"Ġorbit":8425,"ĠProt":8426,"Ġarrival":8427,"come":8428,"Ġfranch":8429,"ĠClark":8430,"Ġ1984":8431,"Ġsatisfied":8432,"Ġcous":8433,"Ġconqu":8434,"Ġcommissioned":8435,"Ġdrama":8436,"rett":8437,"Ġprecious":8438,"ware":8439,"Ġ800":8440,"ĠPhiladelph":8441,"ĠHind":8442,"aret":8443,"Ġmile":8444,"Ġreact":8445,"wall":8446,"Ġarticle":8447,"Ġflooding":8448,"Ġsidewalk":8449,"ĠOhio":8450,"Ġcomedy":8451,"ĠMoral":8452,"Ġprovides":8453,"arts":8454,"Ġdie":8455,"Ġcommittee":8456,"ran":8457,"Ġentirely":8458,"Ġcircus":8459,"Ġauthorities":8460,"ĠGall":8461,"iner":8462,"ĠBetty":8463,"Ġdraws":8464,"Ġacorns":8465,"mes":8466,"ĠSecretary":8467,"Ġsession":8468,"ĠJun":8469,"Ġmodels":8470,"Ġcontrolled":8471,"Ġzig":8472,"ĠPers":8473,"mates":8474,"Ġdiscussed":8475,"Ġgenus":8476,"Ġalien":8477,"Ġhousehold":8478,"ĠAlbum":8479,"ĠPhiladelphia":8480,"Ġpracticing":8481,"Ġdaily":8482,"Ġbang":8483,"Ġcommonly":8484,"ĠKa":8485,"Ġstrings":8486,"Ġcatching":8487,"ĠFurther":8488,"intendo":8489,"Ġstands":8490,"inal":8491,"Ġreceiving":8492,"Ġheadquarters":8493,"Ġ1967":8494,"Ġfinishing":8495,"Ġours":8496,"Ġexchange":8497,"Ġstealing":8498,"Ġ120":8499,"Ġtravelled":8500,"Ġpanc":8501,"Ġupgr":8502,"Ġhappiest":8503,"ĠHa":8504,"rich":8505,"rate":8506,"Ġroots":8507,"Ġsuffering":8508,"ĠHy":8509,"Ġrealize":8510,"Ġven":8511,"With":8512,"ÅĵThank":8513,"Ġalle":8514,"Ġpeered":8515,"ĠRA":8516,"Ġimpossible":8517,"Ġpermit":8518,"Ġmuddy":8519,"Ġsecrets":8520,"Ġcells":8521,"ĠChir":8522,"jo":8523,"Ġcenturies":8524,"Ġspaceship":8525,"Ġtouchdown":8526,"Ġbattalion":8527,"friend":8528,"Ġpurchased":8529,"ĠBook":8530,"Ġ57":8531,"Ġarguing":8532,"Ġkeys":8533,"Ġbehavior":8534,"Ġnuclear":8535,"acted":8536,"itled":8537,"ĠIS":8538,"ĠDet":8539,"Ġpedal":8540,"Ġshadows":8541,"ubbed":8542,"essed":8543,"Ġcontaining":8544,"ĠSuzy":8545,"like":8546,"Ġloose":8547,"ĠNintendo":8548,"Ġreminder":8549,"section":8550,"Ġdoggy":8551,"oma":8552,"Ġminister":8553,"ĠBul":8554,"Ġbye":8555,"ĠChild":8556,"Ġtremb":8557,"Ã¨":8558,"ĠElect":8559,"ĠHannah":8560,"ĠSomething":8561,"ĠDie":8562,"Ġdepth":8563,"Ġtitles":8564,"Ġprefer":8565,"ĠEric":8566,"ulate":8567,"Ġacade":8568,"Ġdedicated":8569,"Ġvillagers":8570,"iverpool":8571,"Ġengines":8572,"Ġalter":8573,"Ġdefence":8574,"Ġaccompanied":8575,"Ġcontributed":8576,"Ġbowed":8577,"Ġwithdraw":8578,"Ġrefreshed":8579,"ĠEarl":8580,"ĠSharing":8581,"ĠRussia":8582,"Ġadults":8583,"iously":8584,"ĠPrime":8585,"rupt":8586,"ĠHay":8587,"Ġdefensive":8588,"ĠColumbia":8589,"iece":8590,"incoln":8591,"Ġcultural":8592,"ĠDark":8593,"Ouch":8594,"Ġexpedition":8595,"ĠAsia":8596,"Ġleads":8597,"Ġdescend":8598,"looking":8599,"Ġscheduled":8600,"icorn":8601,"Ġwhistled":8602,"Ġpies":8603,"Station":8604,"ĠLucky":8605,"ĠAlong":8606,"Ġscratched":8607,"ĠLetÃ¢":8608,"Ġcitizens":8609,"ointment":8610,"\",":8611,"Ġtastes":8612,"ĠJewish":8613,"Ġreaction":8614,"ura":8615,"Ġprinter":8616,"Ġ1983":8617,"ĠSadly":8618,"Ġwitness":8619,"Ġwilling":8620,"Ġdestr":8621,"Ġobey":8622,"Ġoccupied":8623,"ĠFrancisco":8624,"Ġcuts":8625,"Ġcrunchy":8626,"Ġoccas":8627,"Ġpeanuts":8628,"Ġsubs":8629,"Ġkeeps":8630,"Ġdelivery":8631,"Ġintensity":8632,"ĠRain":8633,"Ġgod":8634,"Ġscreams":8635,"Ha":8636,"ĠBrazil":8637,"apore":8638,"Ġbands":8639,"respond":8640,"ĠSky":8641,"ĠKevin":8642,"ĠCambridge":8643,"Ġphilos":8644,"While":8645,"Ġmister":8646,"Ġspoons":8647,"Ġexisting":8648,"aves":8649,"Ġdetails":8650,"ĠNina":8651,"Ġ1969":8652,"ĠKorean":8653,"Ġgrant":8654,"Ġbacked":8655,"Ġwaist":8656,"Ġprojects":8657,"ĠHit":8658,"ĠFam":8659,"Ġvolume":8660,"arted":8661,"Ġ1964":8662,"Ġvolunt":8663,"Ġbarely":8664,"ĠLewis":8665,"iences":8666,"Ġwonders":8667,"Ġacts":8668,"ĠExp":8669,"ĠOffice":8670,"ĠLincoln":8671,"Ġlocations":8672,"Ġhired":8673,"ĠBroad":8674,"emies":8675,"Ġlearns":8676,"Ġstripes":8677,"Ġ74":8678,"Ġawards":8679,"Ġrescued":8680,"Ġcurrently":8681,"ĠLady":8682,"Ġapologize":8683,"ĠCommon":8684,"Ġmounted":8685,"Ġfabric":8686,"Ġnightm":8687,"Ġselection":8688,"Ġtruly":8689,"ĠMiller":8690,"Ġprune":8691,"ĠDisney":8692,"ĠPot":8693,"Ġ58":8694,"Ġcomfy":8695,"inity":8696,"ĠWars":8697,"Ġdesert":8698,"ĠRabbit":8699,"ĠPlayStation":8700,"Ġ1971":8701,"ĠTen":8702,"ÅĵWe":8703,"Ġrained":8704,"ĠShort":8705,"Ġburrow":8706,"Ġconve":8707,"Ġlasted":8708,"Ġconsists":8709,"Ġpadd":8710,"ĠGrant":8711,"ĠSingapore":8712,"Jill":8713,"Ġpets":8714,"ĠForm":8715,"ards":8716,"Ġcrept":8717,"Ġperched":8718,"Ġ1982":8719,"ĠSR":8720,"ĠCarey":8721,"ĠBell":8722,"Ġ1914":8723,"Ġbleeding":8724,"Ġindustrial":8725,"Ġgall":8726,"Ġrated":8727,"Ġconstant":8728,"Ġdecre":8729,"Ġ1966":8730,"Ġ#":8731,"Ġelimin":8732,"Ġsnowball":8733,"To":8734,"Ġstrengthen":8735,"ickets":8736,"Ġ1918":8737,"Ġcriticism":8738,"sec":8739,"Ġris":8740,"Ġfascinated":8741,"ĠVol":8742,"Ġ1972":8743,"ĠLiverpool":8744,"zant":8745,"terday":8746,"Ġcomic":8747,"Ġthemes":8748,"ĠRoger":8749,"Ġ1979":8750,"etic":8751,"agan":8752,"ĠLinda":8753,"Ġunlocked":8754,"Ġrapidly":8755,"Ġpunished":8756,"Ġsculpt":8757,"Ġut":8758,"Ġsubmar":8759,"ĠOlympic":8760,"Ġregions":8761,"ĠOrigin":8762,"ĠRel":8763,"Ġinvolve":8764,"ĠRailway":8765,"Ġopposite":8766,"Ġsoared":8767,"Really":8768,"ĠAtt":8769,"ĠConference":8770,"ĠNHL":8771,"Ġnotable":8772,"ĠâĪ":8773,"ĠBalt":8774,"ĠByzant":8775,"ĠBal":8776,"Ġgradually":8777,"Ġvelvet":8778,"ĠWalter":8779,"Billy":8780,"Ġshoulders":8781,"bec":8782,"hol":8783,"ĠJr":8784,"Ġbrushed":8785,"Ġ1975":8786,"bar":8787,"Ġwrest":8788,"rons":8789,"Ġmerch":8790,"Ġviewed":8791,"ĠRet":8792,"Ex":8793,"Ġswims":8794,"Ġcorrespond":8795,"Ġengaged":8796,"Ġviews":8797,"Ġemerged":8798,"Ġanytime":8799,"Ġdelayed":8800,"Ġrubb":8801,"Ġvisual":8802,"amin":8803,"Ġcler":8804,"Ġconference":8805,"ĠStop":8806,"Ġinsects":8807,"Ġfacilities":8808,"Ġspiders":8809,"ownt":8810,"Ġfaith":8811,"ĠGermans":8812,"ĠEmperor":8813,"ĠHead":8814,"Ġrang":8815,"nesday":8816,"Ġrivers":8817,"eries":8818,"ĠBern":8819,"Ġhighlight":8820,"burgh":8821,"Ġ1965":8822,"Ġinhab":8823,"Ġenemies":8824,"Ġspect":8825,"Ġnails":8826,"Ġcuriosity":8827,"Ġtowns":8828,"standing":8829,"Ġwaits":8830,"Ġdefined":8831,"Ġ1974":8832,"ĠGulf":8833,"indy":8834,"ĠPress":8835,"ilton":8836,"mann":8837,"ĠSyd":8838,"ĠHollywood":8839,"iggy":8840,"Ġcomforted":8841,"Ġresponsibility":8842,"ĠWr":8843,"ĠChart":8844,"agn":8845,"ĠWel":8846,"Ġzigzag":8847,"ĠRa":8848,"ĠOrder":8849,"Ġliber":8850,"Ġ99":8851,"hire":8852,"ĠAnderson":8853,"Ġsadness":8854,"Ġintersection":8855,"ĠDream":8856,"opher":8857,"Ġ59":8858,"ĠFed":8859,"Ġdigital":8860,"Ġsting":8861,"theless":8862,"Ġcinem":8863,"Ġactress":8864,"Ġmouths":8865,"ÅĵCan":8866,"orough":8867,"ĠDemocratic":8868,"Ġaffect":8869,"ĠWednesday":8870,"Ġchanging":8871,"ĠAlso":8872,"Ġreasons":8873,"ĠDavis":8874,"Ġintegr":8875,"ĠRome":8876,"ĠKelly":8877,"Ġ1973":8878,"Ġequal":8879,"ams":8880,"Ġrising":8881,"oncÃ©":8882,"FL":8883,"Ġhyp":8884,"Ġdollars":8885,"ua":8886,"Ġyawn":8887,"ĠTiny":8888,"ultural":8889,"ĠRadio":8890,"onym":8891,"what":8892,"Ġunsuccess":8893,"Ġ1976":8894,"ĠUpon":8895,"Ġcasualties":8896,"Ġsites":8897,"Ġdeveloping":8898,"ĠImper":8899,"ĠSix":8900,"ceived":8901,"Ġperhaps":8902,"etts":8903,"Ġroughly":8904,"Ġmice":8905,"Ġlosses":8906,"Ġeats":8907,"Ġapproved":8908,"Ġ62":8909,"Ġneighbourhood":8910,"Ġanalysis":8911,"Ġrevers":8912,"Ġfreeze":8913,"Ġ63":8914,"Ġcuddle":8915,"ĠSuz":8916,"Ġsilence":8917,"Ġcharts":8918,"Ġprints":8919,"Ġaccomplish":8920,"Ġmut":8921,"Ġsignificantly":8922,"Ġunicorn":8923,"Ġcore":8924,"Ġheading":8925,"Ġregister":8926,"istan":8927,"Daddy":8928,"Le":8929,"Ġsubstant":8930,"ĠLarry":8931,"Ġsquad":8932,"Ġinstruments":8933,"ĠNutty":8934,"Ġonline":8935,"ĠBall":8936,"Ġtechnology":8937,"Ġloving":8938,"ĠHMS":8939,"ĠEmmy":8940,"sting":8941,"Ġvon":8942,"itches":8943,"Ġ77":8944,"ĠLieutenant":8945,"Ġenl":8946,"Ġeconomy":8947,"Ġoats":8948,"Ġworker":8949,"Ġsecondary":8950,"Ġrides":8951,"Ġsoaring":8952,"olen":8953,"Ġ73":8954,"Ġpublication":8955,"Ġhi":8956,"ode":8957,"Ġguys":8958,"Ġsouthwest":8959,"Ġolives":8960,"Ġbab":8961,"Ġlies":8962,"Ġsemi":8963,"ĠGreg":8964,"ĠAfterwards":8965,"Ġencourag":8966,"ĠPoint":8967,"oard":8968,"ĠCoco":8969,"Ġindependence":8970,"Ġhorns":8971,"ropri":8972,"Ġconvinced":8973,"hens":8974,"Ġmyth":8975,"Ġresistance":8976,"uesday":8977,"ĠDaily":8978,"Ġgameplay":8979,"ĠPublic":8980,"ĠJenna":8981,"Ġpopularity":8982,"Ar":8983,"Ġnick":8984,"ĠPam":8985,"Ġ250":8986,"Ġstoryline":8987,"ĠConn":8988,"Ġgreet":8989,"ĠSpecial":8990,"Ġthreatened":8991,"Ġmovements":8992,"ĠRoss":8993,"ules":8994,"Ġripped":8995,"see":8996,"Ġjoining":8997,"ĠSerb":8998,"ĠBase":8999,"Ġurban":9000,"Ġliterature":9001,"Ġcape":9002,"Little":9003,"Ġfranchise":9004,"Ġextremely":9005,"ĠBre":9006,"ĠCommand":9007,"Ġdiscovering":9008,"Ġfetch":9009,"ĠAddition":9010,"Ġlb":9011,"ĠHon":9012,"Ġtouching":9013,"Ġagent":9014,"ologist":9015,"Ġdeclined":9016,"bound":9017,"Ġallows":9018,"Ġresour":9019,"Ġhoriz":9020,"ĠBas":9021,"Ġstern":9022,"ĠBeck":9023,"Ġladyb":9024,"Ġdent":9025,"ĠFloppy":9026,"Ġadap":9027,"Ġwondering":9028,"Ġretire":9029,"Ġlimit":9030,"ĠSupreme":9031,"ĠGord":9032,"Ġeditor":9033,"ĠTuesday":9034,"Ġruled":9035,"Ġstretching":9036,"Ġliquid":9037,"achus":9038,"Ġsights":9039,"Ġsoak":9040,"Ġemployed":9041,"awa":9042,"Ġincreasingly":9043,"ĠNaz":9044,"Ġsque":9045,"Ġ91":9046,"Ġcharged":9047,"Ġreun":9048,"Ġencourage":9049,"Ġsire":9050,"state":9051,"Ġtalent":9052,"icts":9053,"ilding":9054,"Ġreputation":9055,"ĠUN":9056,"ĠBeyoncÃ©":9057,"Ġoffers":9058,"ĠStation":9059,"ĠAlan":9060,"ĠRight":9061,"Ġraces":9062,"Ġcatches":9063,"Ġdrives":9064,"aky":9065,"Ġalternative":9066,"Ġherbs":9067,"erto":9068,"Ġvegetable":9069,"Ġscientific":9070,"Ã¤":9071,"inger":9072,"ĠJour":9073,"Ġmuscles":9074,"Ġtanks":9075,"Ġ67":9076,"ii":9077,"load":9078,"ĠIV":9079,"Ġisol":9080,"ĠJessie":9081,"Ġassistant":9082,"Ġcash":9083,"ographic":9084,"Ġdownstairs":9085,"ĠBro":9086,"ĠKir":9087,"Ġcalc":9088,"mouth":9089,"Ġoldest":9090,"Ġrenamed":9091,"Ġtiss":9092,"ĠEp":9093,"ĠKentucky":9094,"ĠEle":9095,"Ġundert":9096,"Ġconverted":9097,"Ġruin":9098,"Ġagric":9099,"ĠOffic":9100,"Ġconcerned":9101,"Ġwaffles":9102,"Ġoutdoors":9103,"Ġbunch":9104,"Ġ1981":9105,"ĠOlympics":9106,"ĠFall":9107,"Ġestate":9108,"ĠNorway":9109,"Ġregarding":9110,"Ġtremble":9111,"Ġdistingu":9112,"Ġstages":9113,"ĠMah":9114,"ĠMarie":9115,"Ġindeed":9116,"ĠSol":9117,"vy":9118,"Ġapplied":9119,"Ġflags":9120,"Ġ1946":9121,"eor":9122,"Ġknelt":9123,"Ġourselves":9124,"ano":9125,"ĠAlf":9126,"ĠSydney":9127,"ĠKnight":9128,"ĠWithout":9129,"ĠAirport":9130,"rant":9131,"ĠKey":9132,"Ġ1917":9133,"Ġarrested":9134,"Ġsolid":9135,"ĠDown":9136,"ÅĵDon":9137,"las":9138,"ĠMaya":9139,"Ġscholar":9140,"Ġcited":9141,"Ġ68":9142,"According":9143,"Ġskill":9144,"ĠCir":9145,"Ġluxury":9146,"Ġblueberry":9147,"Ġintroduction":9148,"ĠSel":9149,"Ġpiles":9150,"Ġneighbors":9151,"oses":9152,"Ġ72":9153,"achusetts":9154,"onia":9155,"ĠPu":9156,"ĠIndust":9157,"ĠâĪĴ":9158,"ĠRick":9159,"ĠItÃ¢":9160,"Ġseag":9161,"Ġfamiliar":9162,"heim":9163,"Ġjogged":9164,"Ġvirt":9165,"Ġcolle":9166,"Ġmilit":9167,"ĠColonel":9168,"ĠBruce":9169,"Ġtreated":9170,"ĠGolden":9171,"earch":9172,"Ġmatched":9173,"ĠIndepend":9174,"Ġstirring":9175,"ĠMassachusetts":9176,"ĠMoon":9177,"Ġlemons":9178,"Ġoperating":9179,"Ġlabor":9180,"ĠRal":9181,"Ġconstitution":9182,"Ġexistence":9183,"ĠProduc":9184,"akers":9185,"sed":9186,"ĠAp":9187,"ignment":9188,"Ġ96":9189,"li":9190,"Ġintelligence":9191,"Ġagrees":9192,"Ġ160":9193,"ĠSimpsons":9194,"Ġaboard":9195,"Ġsustained":9196,"ĠTilly":9197,"Ġkicking":9198,"Ġstole":9199,"Ġdepartment":9200,"Ġstamps":9201,"ĠDays":9202,"Ġ1948":9203,"ĠBand":9204,"unicip":9205,"avig":9206,"Ġweakened":9207,"Ġpeel":9208,"osl":9209,"ĠStanley":9210,"Ġpersonnel":9211,"Ġcredited":9212,"ĠMarc":9213,"atre":9214,"Ġdesire":9215,"ĠGree":9216,"mitted":9217,"Ġcombination":9218,"ĠPlan":9219,"Ġcelebration":9220,"Ġsurvived":9221,"Ġviolence":9222,"Ġguessed":9223,"Ġ1978":9224,"Ġadmitted":9225,"ĠBank":9226,"oured":9227,"Ġentering":9228,"ĠAmong":9229,"Ġ700":9230,"Ġ87":9231,"ĠPhilipp":9232,"ĠTele":9233,"Ġunivers":9234,"Ġinstall":9235,"ĠAri":9236,"Ġproducing":9237,"acher":9238,"Ġlandfall":9239,"atched":9240,"owntown":9241,"ĠWatch":9242,"ĠInc":9243,"ĠYes":9244,"igers":9245,"Ġbond":9246,"Ġarc":9247,"ifications":9248,"ĠAbby":9249,"don":9250,"Ġacres":9251,"Ġpec":9252,"Ġbaked":9253,"Ġtesting":9254,"Ġdoub":9255,"iversary":9256,"Ġnicer":9257,"Ġcaut":9258,"Ġprograms":9259,"Ġteasing":9260,"Ġ69":9261,"Ġcosts":9262,"Ġearliest":9263,"Ġfreeway":9264,"Ġprote":9265,"Ġstaying":9266,"ĠVietnam":9267,"actor":9268,"Ġstatement":9269,"Ġsettlement":9270,"ĠOttoman":9271,"put":9272,"ader":9273,"ĠCape":9274,"Ġmixture":9275,"Ġimpl":9276,"Ġjoint":9277,"Ġfrozen":9278,"ĠHart":9279,"Some":9280,"Ġselect":9281,"Ġpockets":9282,"Ġ78":9283,"Ġprisoners":9284,"Ġatmosphere":9285,"Ġsections":9286,"ĠBubbles":9287,"Ġretained":9288,"Ġprincipal":9289,"ĠJoan":9290,"Ġ1977":9291,"Ġgenre":9292,"ĠImperial":9293,"Ġseagull":9294,"Ġ1915":9295,"Ġshivering":9296,"ĠCoo":9297,"Ġcapable":9298,"Ġpurchase":9299,"ements":9300,"ĠStew":9301,"ĠAunt":9302,"Ġfoods":9303,"ĠPoland":9304,"Ġcoastal":9305,"Ġyelling":9306,"Ġpancakes":9307,"erted":9308,"insula":9309,"Ġmaintain":9310,"Ġstolen":9311,"ĠWomen":9312,"Gra":9313,"Ġvisitors":9314,"unnies":9315,"Ġwagging":9316,"ĠDec":9317,"Ġshots":9318,"Ġsyn":9319,"ĠOb":9320,"ugu":9321,"Ġfiremen":9322,"Ġdomestic":9323,"ĠSongs":9324,"ĠLulu":9325,"Ġneut":9326,"Ġcandidate":9327,"ĠMTV":9328,"Ġopt":9329,"Ġexclus":9330,"Ġzooming":9331,"issance":9332,"Ġpound":9333,"Ġassault":9334,"cope":9335,"Ġtact":9336,"Ġsank":9337,"Ġparl":9338,"ĠBang":9339,"Ġchampion":9340,"Ġslapped":9341,"ĠPear":9342,"Ġbunnies":9343,"Ġcomplained":9344,"ĠChirpy":9345,"ĠAgain":9346,"Ġduty":9347,"Ġrings":9348,"Yum":9349,"ĠDue":9350,"uration":9351,"ĠPrem":9352,"Ġprayer":9353,"Ġcampus":9354,"ĠColl":9355,"ships":9356,"break":9357,"Ġ1963":9358,"itors":9359,"Ġdarkness":9360,"Ġ1916":9361,"Ġtugged":9362,"riff":9363,"Ġconnection":9364,"Ġplayoff":9365,"ĠLab":9366,"ĠJason":9367,"ĠPass":9368,"ĠMaryland":9369,"osaurus":9370,"Ġencountered":9371,"Ġreluctantly":9372,"Ġdirections":9373,"Ġindicated":9374,"otton":9375,"Ġpartners":9376,"ĠVide":9377,"ĠNaval":9378,"Ġexhausted":9379,"Ġlongest":9380,"Ġ94":9381,"ela":9382,"Ġdragged":9383,"ĠAD":9384,"ĠMoore":9385,"ĠGordon":9386,"Ġchat":9387,"Ġpeaches":9388,"Ġtwirling":9389,"Ġprevented":9390,"ĠArts":9391,"ario":9392,"ĠMeg":9393,"ĠDu":9394,"Ġzone":9395,"Ġtheatre":9396,"isms":9397,"Ġgrounds":9398,"Ġcousin":9399,"Ġpromotion":9400,"Ġdarker":9401,"GN":9402,"ellow":9403,"Ġdolphins":9404,"Ġreserve":9405,"Ġmatters":9406,"Ġentitled":9407,"Ġcamping":9408,"Ġapplauded":9409,"Ġsuppl":9410,"eenth":9411,"vis":9412,"Ġcones":9413,"ivalent":9414,"Ġmig":9415,"Ġflu":9416,"ĠPur":9417,"ĠMcG":9418,"Ġ1962":9419,"Ġouter":9420,"Ġhitting":9421,"Ġaimed":9422,"Ġcomposition":9423,"Ġ98":9424,"otic":9425,"Ġdecade":9426,"Ġcraft":9427,"ĠRud":9428,"Ġremote":9429,"iki":9430,"ĠBowl":9431,"ĠMain":9432,"iens":9433,"Ġdifferences":9434,"Ġorchest":9435,"rus":9436,"Ġinvestigation":9437,"ko":9438,"ĠPut":9439,"Ġpolitics":9440,"Ġclubs":9441,"Ġcovering":9442,"bows":9443,"ĠRun":9444,"Ġregularly":9445,"Ġphotos":9446,"Ġentry":9447,"Ġcolored":9448,"Ġevil":9449,"Ġdisplayed":9450,"Ġexperiences":9451,"Ġguy":9452,"Ġdates":9453,"Ġclasses":9454,"iege":9455,"Ġregiment":9456,"Ġbatteries":9457,"Ġcauses":9458,"Ġnovels":9459,"Ġproposal":9460,"inois":9461,"ĠStadium":9462,"Ġ81":9463,"Ġ1919":9464,"Ġlanguages":9465,"Ġrema":9466,"Ġvoted":9467,"ĠGro":9468,"Ġ71":9469,"ja":9470,"Ġworst":9471,"Ġprotecting":9472,"ĠRhodes":9473,"ordan":9474,"ĠTa":9475,"Ġrecon":9476,"Ġrecalled":9477,"Ġmales":9478,"Ġcountryside":9479,"Ġintention":9480,"Ġanticip":9481,"izations":9482,"Ã¸":9483,"osis":9484,"ĠMulder":9485,"Ġreduce":9486,"Ġdeaths":9487,"Ġbudge":9488,"Ġbabies":9489,"Ġproducts":9490,"ĠGarden":9491,"Ġotherwise":9492,"ĠTodd":9493,"Ġfault":9494,"Ġbegun":9495,"Ġspecifically":9496,"rior":9497,"oor":9498,"Ġtonight":9499,"isten":9500,"Ġecho":9501,"cript":9502,"poration":9503,"Ġcrime":9504,"phoon":9505,"ĠAlb":9506,"Ġroutes":9507,"no":9508,"ĠPatrick":9509,"ieval":9510,"Ġ1938":9511,"ansas":9512,"Ġspons":9513,"ĠFound":9514,"ĠConfeder":9515,"ador":9516,"Ġscales":9517,"encies":9518,"Ġinstalled":9519,"Ġportrayed":9520,"ends":9521,"aka":9522,"Ã¡n":9523,"Ġbeard":9524,"mate":9525,"ropol":9526,"Ġ89":9527,"Ġrevolution":9528,"har":9529,"Ġpastel":9530,"Ġhunting":9531,"ias":9532,"Ġresting":9533,"ĠJessica":9534,"ĠCommun":9535,"ervative":9536,"Ġlane":9537,"Ġimplement":9538,"ception":9539,"Ġwides":9540,"Ġreligion":9541,"ĠUnt":9542,"Ġbreed":9543,"Ġarmor":9544,"aura":9545,"Ġthirty":9546,"iques":9547,"ctions":9548,"ĠOre":9549,"Ġdram":9550,"Ġpinched":9551,"Ġmanner":9552,"ĠTheatre":9553,"alty":9554,"icate":9555,"Ġmuffins":9556,"Ġbreeding":9557,"Ġ82":9558,"Ġstitch":9559,"Ġpleasure":9560,"Ġplenty":9561,"ĠUt":9562,"Ġconsum":9563,".'":9564,"itage":9565,"Ġactual":9566,"Ġtransp":9567,"Ġtrips":9568,"Ġcris":9569,"Ġsneaked":9570,"Ġduties":9571,"ĠForest":9572,"real":9573,"ĠAC":9574,"Ġ175":9575,"Ġburst":9576,"bourne":9577,"Ġfeeding":9578,"Ġremainder":9579,"Ġpassage":9580,"Ġcontroversy":9581,"olars":9582,"elson":9583,"Ġsoul":9584,"Ġconcerns":9585,"Ġnomination":9586,"Ġinternal":9587,"ppers":9588,"Ġ88":9589,"Ġbars":9590,"Just":9591,"Ġsending":9592,"ĠStaff":9593,"ĠletÃ¢":9594,"Ġmatching":9595,"Ġsufficient":9596,"Ġnightmare":9597,"ĠBeach":9598,"ĠExc":9599,"acle":9600,"ĠOur":9601,"Ġflap":9602,"Ġunited":9603,"Ġsoaked":9604,"ĠCrit":9605,"Ġbroom":9606,"Ġ130":9607,"Ġthousands":9608,"arter":9609,"Ġ1956":9610,"Ġdestruction":9611,"ĠHistory":9612,"Ġvir":9613,"Ġgiggling":9614,"Ġsole":9615,"ĠUTC":9616,"Ġdrivers":9617,"ĠKong":9618,"Ġmeters":9619,"ĠAnth":9620,"Ġmusicians":9621,"Ġforests":9622,"Ġsnail":9623,"ĠAge":9624,"Ġthrone":9625,"Ġprovin":9626,"father":9627,"Ġfoss":9628,"Ġpears":9629,"Ġrelations":9630,"Ġtoss":9631,"Ġpreced":9632,"Ġreality":9633,"uits":9634,"Ġparked":9635,"Ġpoking":9636,"ranean":9637,"Ġwider":9638,"eah":9639,"organ":9640,"Ġvowed":9641,"ĠBarb":9642,"Ġposted":9643,"Ġequipped":9644,"vard":9645,"Ġaccur":9646,"ĠAbout":9647,"Ġfemales":9648,"pread":9649,"Ġbrushes":9650,"Ġladybug":9651,"Ġmort":9652,"Ġchips":9653,"Ġcomposer":9654,"Ġrecovered":9655,"Ġphase":9656,"angled":9657,"ali":9658,"Ġpersu":9659,"ĠJustice":9660,"ĠJulia":9661,"Ġcontinuing":9662,"Ġlighter":9663,"Ġ1936":9664,"Ġalt":9665,"vi":9666,"Ġscreaming":9667,"eler":9668,"Ġdistribution":9669,"Ġscoop":9670,"Ġpermanent":9671,"Ġ79":9672,"Ġtests":9673,"ĠWhit":9674,"owled":9675,"ĠSaturday":9676,"aware":9677,"ĠMemorial":9678,"nce":9679,"otte":9680,"Ġreception":9681,"Ġinjuries":9682,"Ġfunds":9683,"Ġpassenger":9684,"ati":9685,"imy":9686,"ĠThose":9687,"ÅĵHello":9688,"Ġswept":9689,"Ġvalued":9690,"Ġcollaps":9691,"ĠRalph":9692,"All":9693,"ilation":9694,"Ġwarnings":9695,"Ġpraise":9696,"ician":9697,"entially":9698,"Ġpromote":9699,"ĠConstant":9700,"Goodbye":9701,"BS":9702,"Ġsib":9703,"Ġsurvive":9704,"Ġconsisting":9705,"Ġeighth":9706,"Ġconsiderable":9707,"Ġeverybody":9708,"Ġbouncy":9709,"Ġchoo":9710,"Ġextension":9711,"AT":9712,"BN":9713,"ĠHug":9714,"ÅĵLook":9715,"Ġquack":9716,"Ġtypical":9717,"nedy":9718,"Ġobl":9719,"ĠStra":9720,"Ġbrigade":9721,"Ġdriven":9722,"ĠMatthew":9723,"Happy":9724,"Ġ1961":9725,"rip":9726,"Ġhal":9727,"ĠAdams":9728,"ĠSpace":9729,"boat":9730,"Ġfrosting":9731,"Ġsons":9732,"iller":9733,"ĠPower":9734,"hetic":9735,"oni":9736,"Ġspit":9737,"Ġreplacement":9738,"ĠBir":9739,"Ġdecades":9740,"Ġheel":9741,"ĠLen":9742,"Ġreturns":9743,"iveness":9744,"Ġidentity":9745,"Ġscurried":9746,"Ġpaying":9747,"Ġrural":9748,"itched":9749,"ĠNether":9750,"esome":9751,"Ġinvent":9752,"ĠVill":9753,"Ġ1953":9754,"Ġoccurs":9755,"ĠNothing":9756,"uster":9757,"ĠVII":9758,"Tod":9759,"veland":9760,"Ġbasic":9761,"Ġthroat":9762,"ĠMomo":9763,"Ġaccused":9764,"Ġorganizing":9765,"Ġserves":9766,"âĤ¬âĢĿ":9767,"Ġlick":9768,"ĠBrother":9769,"Ġpatience":9770,"after":9771,"Ġnoting":9772,"Ġfigured":9773,"Ġchewing":9774,"velopment":9775,"Ġdated":9776,"Ġmes":9777,"ĠNBA":9778,"ĠNorwe":9779,"urious":9780,"ĠVar":9781,"Ġremix":9782,"Ġaspects":9783,"ĠSab":9784,"ĠStand":9785,"Ġstrongly":9786,"ĠIndiana":9787,"ĠGill":9788,"Ġdescribing":9789,"Ġprettiest":9790,"ĠIndones":9791,"Ġinvolving":9792,"cious":9793,"Ġlined":9794,"Ġprunes":9795,"bird":9796,"ĠMcK":9797,"Ġdragons":9798,"Ġdeparture":9799,"pir":9800,"Ġevolution":9801,"Ġcompr":9802,"Ġclaps":9803,"ĠHoward":9804,"ĠEngine":9805,"Ġcoloured":9806,"Ġplain":9807,"ĠJordan":9808,"Ġconsequences":9809,"iber":9810,"ront":9811,"ĠShel":9812,"ĠIGN":9813,"Ġswall":9814,"ensus":9815,"Ġsupporters":9816,"ĠFrog":9817,"pson":9818,"Ġsorting":9819,"Ġkings":9820,"Ġdebate":9821,"Ġcrimin":9822,"ĠChap":9823,"Ġstrongest":9824,"ĠZoom":9825,"Ġhundreds":9826,"Ġbuckets":9827,"Ġpearl":9828,"Ġprey":9829,"Ġ1947":9830,"onge":9831,"Ġeleven":9832,"Ġbehavi":9833,"ÅĵThis":9834,"Ġargument":9835,"Ġparliament":9836,"mun":9837,"icit":9838,"Ġprove":9839,"icide":9840,"Ġbravery":9841,"ĠHamilton":9842,"ĠKennedy":9843,"ĠMagazine":9844,"bro":9845,"Ġ93":9846,"Ġexception":9847,"Ġvessels":9848,"Ġdetect":9849,"ĠMarg":9850,"ĠNap":9851,"Ġ1958":9852,"Ġparallel":9853,"Ġattracted":9854,"Ġ84":9855,"Des":9856,"Ġassumed":9857,"Ġsigning":9858,"Ġgoodnight":9859,"enses":9860,"Ġsafer":9861,"Ġsessions":9862,"rete":9863,"ggy":9864,"Ġdecline":9865,"Ġackn":9866,"Ġcrosses":9867,"Ġcertified":9868,"Ġbats":9869,"Ġformal":9870,"Ġ1910":9871,"Ġribbons":9872,"ĠBos":9873,"Ġdenied":9874,"Ġ110":9875,"Ġfolk":9876,"oto":9877,"Ġremark":9878,"Ġwidespread":9879,"Ġincome":9880,"Ġobtained":9881,"Ġcommitted":9882,"Ġpartner":9883,"ynasty":9884,"ĠÎ":9885,"ĠBry":9886,"ĠHitler":9887,"Ġ1957":9888,"ĠTurk":9889,"Ġsequel":9890,"ĠDirector":9891,"ivals":9892,"agues":9893,"ĠTrust":9894,"Ġmode":9895,"Ġmelting":9896,"Ġrank":9897,"iere":9898,"Ġsurvey":9899,"ĠScully":9900,"ĠDolly":9901,"orney":9902,"Ġcharges":9903,"Ġdowntown":9904,"ĠRolling":9905,"osure":9906,"Ġequivalent":9907,"Ġpupil":9908,"aver":9909,"oting":9910,"Ġray":9911,"ĠConstitution":9912,"Ġassistance":9913,"ĠTara":9914,"Ġbalancing":9915,"Ġdy":9916,"ĠDri":9917,"Ġmeets":9918,"Ġstyles":9919,"Ġderived":9920,"ĠTreat":9921,"ĠGram":9922,"Ġcooper":9923,"Ġchorus":9924,"ĠCindy":9925,"ĠProg":9926,"Ġrocking":9927,"ĠPhill":9928,"aved":9929,"col":9930,"Ġhosted":9931,"ĠWrest":9932,"Ġacid":9933,"Ġgeneration":9934,"urn":9935,"Ġ1937":9936,"ĠWhe":9937,"Ġcompete":9938,"hello":9939,"ington":9940,"ĠLeon":9941,"laim":9942,"agonist":9943,"Ġpopulations":9944,"senal":9945,"Ġmemorial":9946,"ĠPhilip":9947,"ĠArgent":9948,"Ġshif":9949,"Ġreply":9950,"Ġchases":9951,"Ġcurtains":9952,"ĠIllinois":9953,"ĠBeatles":9954,"ĠBess":9955,"Ġinner":9956,"Ġsegment":9957,"ĠOregon":9958,"ĠHou":9959,"ĠLaura":9960,"Ġterminus":9961,"ĠLizzy":9962,"ĠScience":9963,"Ġsuperv":9964,"Ġdeleg":9965,"Ġtalks":9966,"western":9967,"Ġpouring":9968,"Ġliterary":9969,"Ġgal":9970,"Ġgazed":9971,"ĠGen":9972,"ommod":9973,"Ġrecognition":9974,"chers":9975,"eld":9976,"Ġpossibility":9977,"worth":9978,"ĠIra":9979,"ta":9980,"Ġ1959":9981,"Ġcircum":9982,"iterranean":9983,"ĠSlow":9984,"ĠAssembly":9985,"ĠâĢĿ":9986,"Ġwickets":9987,"Ġrum":9988,"Ġclosing":9989,"ĠAli":9990,"sex":9991,"Ġafford":9992,"ĠGab":9993,"lete":9994,"Ġtwinkling":9995,"ĠWeekly":9996,"Ġfacing":9997,"emed":9998,"ressive":9999,"Ġworn":10000,"Ġanimated":10001,"ĠMediterranean":10002,"Ġpolar":10003,"ĠPicture":10004,"ĠDouglas":10005,"ĠNorwegian":10006,"Ah":10007,"Ġmissions":10008,"Ġtransition":10009,"ĠConc":10010,"Ġstock":10011,"Ġcirculation":10012,"hedral":10013,"Ġregional":10014,"Ġsweeties":10015,"ĠVideo":10016,"Ġguide":10017,"Ġawesome":10018,"Ġ86":10019,"Ġdetermination":10020,"Ġoccasionally":10021,"ĠWy":10022,"Ġbelly":10023,"ÅĵDonÃ¢":10024,"erties":10025,"Ġthrown":10026,"nold":10027,"Ġshelves":10028,"Ġtissue":10029,"Ġforming":10030,"Ġboom":10031,"Ġcrumb":10032,"ĠKayla":10033,"Ġhip":10034,"ĠCleveland":10035,"ji":10036,"ĠWalk":10037,"Ġstaring":10038,"Ġdifficulty":10039,"thank":10040,"Ġtexture":10041,"Ġpure":10042,"ĠHappy":10043,"Ġ1955":10044,"Ġadapted":10045,"Ġtested":10046,"Ġcaval":10047,"Ġfictional":10048,"ĠCart":10049,"ĠVi":10050,"Ġpreparing":10051,"ĠLoc":10052,"Ġresemb":10053,"Ġsorted":10054,"Ġflames":10055,"atinum":10056,"Ġranking":10057,"Ġmarkers":10058,"minist":10059,"ĠMother":10060,"Today":10061,"ĠChannel":10062,"Ġtheirs":10063,"ĠHoppy":10064,"ĠDor":10065,"Ġ1954":10066,"ophy":10067,"ategy":10068,"aki":10069,"ĠReview":10070,"Ġfilling":10071,"eezing":10072,"heme":10073,"ĠFA":10074,"ĠAlways":10075,"ĠColor":10076,"ĠJazz":10077,"ÅĵWhy":10078,"ĠSingles":10079,"ĠLast":10080,"Ġscre":10081,"Ġcommanded":10082,"Ġoffering":10083,"Ġsqueal":10084,"ĠÃĹ":10085,"Ġmittens":10086,"Ġdecisions":10087,"Ġpurred":10088,"ĠDean":10089,"Ġavo":10090,"ĠEver":10091,"ĠMexican":10092,"Ġflavor":10093,"Ġchoices":10094,"artha":10095,"Ġpoliceman":10096,"ÅĤ":10097,"ordin":10098,"Ġdemol":10099,"ĠLanc":10100,"ĠVe":10101,"Ġbalanced":10102,"ĠOk":10103,"Ġboil":10104,"ĠProject":10105,"Ġpebbles":10106,"Ġrubbing":10107,"borne":10108,"Ġalleged":10109,"Ġlied":10110,"Ġclassic":10111,"Ġbelieving":10112,"rogen":10113,"ĠWWE":10114,"era":10115,"ĠFreder":10116,"Ġlibrarian":10117,"Ġstrateg":10118,"Ġcos":10119,"ĠBan":10120,"Ġdissip":10121,"Ġrocked":10122,"igi":10123,"ĠBishop":10124,"ĠFame":10125,"Ġdipl":10126,"Ġmassive":10127,"ĠMcCart":10128,"urrent":10129,"Ġtickle":10130,"Ġattributed":10131,"ĠMickey":10132,"ĠKeep":10133,"ĠISBN":10134,"Ġanniversary":10135,"Ġreads":10136,"Ġincorporated":10137,"ĠThird":10138,"Ġstorms":10139,"onto":10140,"azines":10141,"Ġcavalry":10142,"Ġaside":10143,"Ġtasks":10144,"Ġtravels":10145,"uting":10146,"ĠCab":10147,"Somet":10148,"Ġsway":10149,"ĠKorea":10150,"Ġaim":10151,"ĠFive":10152,"storm":10153,"ĠMorgan":10154,"Ġinspiration":10155,"Ġemphas":10156,"ĠFederal":10157,"Ġillust":10158,"Ġcompletion":10159,"ĠLow":10160,"Ġnewspapers":10161,"Ġinterests":10162,"Ġfal":10163,"ĠInit":10164,"Ġexplains":10165,"ami":10166,"Ġmethods":10167,"ĠHawai":10168,"Ġteen":10169,"Ġartwork":10170,"Ġlat":10171,"Ġbottles":10172,"ĠWinter":10173,"Ġvary":10174,"Ġinviting":10175,"ĠShar":10176,"Ġancest":10177,"ĠHero":10178,"Ġdancers":10179,"weight":10180,"Ġprovince":10181,"Ġeffectively":10182,"alf":10183,"Ġfears":10184,"Ġpoly":10185,"Ġguests":10186,"Ġpremi":10187,"iro":10188,"Ġ1952":10189,"Ġsob":10190,"Ġdared":10191,"ĠSav":10192,"Ġsurrendered":10193,"ĠNorman":10194,"Ġresources":10195,"elia":10196,"RA":10197,"ires":10198,"Ġsurviving":10199,"ĠTal":10200,"ĠRaj":10201,"Ġment":10202,"Ġknights":10203,"wo":10204,"ĠBetween":10205,"Ġvo":10206,"power":10207,"Ġspill":10208,"gus":10209,"Ġpacking":10210,"ĠâĢľ":10211,"Uh":10212,"ĠBee":10213,"Ġ176":10214,"wick":10215,"Ġspike":10216,"ĠPipp":10217,"Ġestablishment":10218,"Ġregretted":10219,"Ġgreatly":10220,"ĠBush":10221,"ĠRow":10222,"Ġappearing":10223,"Ġwires":10224,"Ġ1933":10225,"oslav":10226,"Ġaccommod":10227,"Ġbatting":10228,"Ġpounds":10229,"aza":10230,"Ġmarsh":10231,"Ġcheering":10232,"Ġrepaired":10233,"ĠAllen":10234,"Ġclassified":10235,"ĠMars":10236,"riers":10237,"Ġhugging":10238,"ĠFriends":10239,"Ġattacking":10240,"Ġtechnical":10241,"Ġ83":10242,"Ġroaring":10243,"ĠLibr":10244,"bl":10245,"Å¡":10246,"IA":10247,"Ġhelm":10248,"ĠMilitary":10249,"hor":10250,"ĠIron":10251,"ĠMerc":10252,"Ġdivisions":10253,"Ġauthors":10254,"Ġ1935":10255,"iva":10256,"Ġproperties":10257,"Ġassociation":10258,"Ġfighter":10259,"olph":10260,"ĠMorris":10261,"nels":10262,"ĠUSA":10263,"Ġpredecess":10264,"ĠSweden":10265,"Remember":10266,"Ġramp":10267,"Ġmagazines":10268,"Ġminer":10269,"Ġratings":10270,"Ġsnakes":10271,"Ġille":10272,"Ġimper":10273,"Ġcho":10274,"Ġobserv":10275,"ĠFro":10276,"Ġtallest":10277,"Ġcurly":10278,"ĠTemple":10279,"ĠFa":10280,"Ġvotes":10281,"ĠNations":10282,"ĠBor":10283,"Ġcolumn":10284,"Ġpilots":10285,"abled":10286,"Ġengineer":10287,"Ġheavier":10288,"Ġreinforce":10289,"Ġquant":10290,"ĠResearch":10291,"ĠMi":10292,"ĠCE":10293,"ĠRobinson":10294,"wich":10295,"Ġ1951":10296,"Ġ92":10297,"otes":10298,"Ġ1949":10299,"ĠBah":10300,"Ġfever":10301,"ĠArsenal":10302,"Ġcupc":10303,"Ġglobal":10304,"Ġwealth":10305,"ĠNelson":10306,"idi":10307,"ĠSuzie":10308,"Ġvisible":10309,"ĠScient":10310,"Ġpenalty":10311,"ĠWelsh":10312,"ĠImp":10313,"Ġrelative":10314,"Ġcommunities":10315,"ĠProf":10316,"Ġethn":10317,"ĠByzantine":10318,"uty":10319,"Ġrushing":10320,"ĠUs":10321,"Ġprinting":10322,"Ġpremiere":10323,"Ġhomework":10324,"Ġensure":10325,"Ġabsor":10326,"From":10327,"Ġshivered":10328,"ĠNetherlands":10329,"Ġpolished":10330,"ĠJews":10331,"ĠTar":10332,"Ġstrategy":10333,"Ġdevice":10334,"eers":10335,"ĠEs":10336,"Ġmeasures":10337,"ouch":10338,"ĠToronto":10339,"emeter":10340,"Ġpermitted":10341,"itely":10342,"Ġsticking":10343,"Ġgrows":10344,"Exc":10345,"eline":10346,"Ġblocked":10347,"Ġinterpret":10348,"Ġphotograph":10349,"Ġcruiser":10350,"owned":10351,"Ġslimy":10352,"ĠAdvent":10353,"...":10354,"Ġbattleships":10355,"Ġbon":10356,"Ġclaiming":10357,"ĠCry":10358,"Ġwears":10359,"ĠFord":10360,"Ġhistorians":10361,"Ġprogramme":10362,"Ġfled":10363,"naments":10364,"Ġdens":10365,"ici":10366,"ĠRuth":10367,"Ġpretends":10368,"Ġgap":10369,"Ġsilent":10370,"Ġrenew":10371,"ÅĵOh":10372,"Ġfitted":10373,"ĠMartha":10374,"ivia":10375,"inton":10376,"ichol":10377,"Ġlogs":10378,"Ġshirts":10379,"ĠBeing":10380,"Ġcolony":10381,"Ġsausages":10382,"Ġsubur":10383,"Ġbelieves":10384,"Ġsomebody":10385,"Ġdiff":10386,"Ġtechniques":10387,"Ġaccounts":10388,"Ġblast":10389,"ĠPremier":10390,"ĠGray":10391,"Ġtrained":10392,"Ġshined":10393,"Ġslower":10394,"Ġappropri":10395,"Ġdocumentary":10396,"ĠAdditionally":10397,"Ġmate":10398,"ĠSophia":10399,"ĠTransport":10400,"ĠIraq":10401,"mers":10402,"ĠAz":10403,"Ġsweets":10404,"Ġclearly":10405,"Ġfunding":10406,"ĠTake":10407,"Ġfarther":10408,"onaut":10409,"ĠChron":10410,"Ġvari":10411,"Ġreass":10412,"uthor":10413,"Ġtowels":10414,"ĠUr":10415,"ĠSax":10416,"ĠSher":10417,"Ġworries":10418,"apse":10419,"Ġ1900":10420,"Ġclimate":10421,"going":10422,"ĠOak":10423,"Ġsomewhat":10424,"erves":10425,"Ġtemporary":10426,"Ġdismissed":10427,"ĠJournal":10428,"Ġbasement":10429,"ĠRover":10430,"Ġgrade":10431,"Ġdetermine":10432,"CA":10433,"bra":10434,"oline":10435,"ĠPinky":10436,"ĠArmen":10437,"Ġsled":10438,"ogy":10439,"Ġearn":10440,"Ġremn":10441,"ĠBristol":10442,"ĠStill":10443,"Ġspraying":10444,"Ġcategory":10445,"Ġmurd":10446,"Ġarchitecture":10447,"Ġwasted":10448,"Ġdesigner":10449,"oz":10450,"Ġexpert":10451,"Ġsiblings":10452,"ĠcanÃ¢":10453,"Ġannounce":10454,"boy":10455,"Ġchildhood":10456,"Ġclassification":10457,"Ġradishes":10458,"Ġintersect":10459,"Ġjobs":10460,"ĠUntil":10461,"Ġannoy":10462,"Ġlamb":10463,"Ġchairman":10464,"ĠCentre":10465,"Ġmedieval":10466,"ĠQuack":10467,"ĠRussell":10468,"ĠSilver":10469,"Ġtone":10470,"child":10471,"Ġstarred":10472,"ĠJesus":10473,"Ġinvolvement":10474,"ĠInn":10475,"Ġwaiter":10476,"Ġdiving":10477,"ĠBol":10478,"Ġninth":10479,"Ġcode":10480,"Ġrestric":10481,"ĠLena":10482,"Ġsubmarine":10483,"Ġzookeeper":10484,"Ġcredit":10485,"ĠNFL":10486,"Ġhandful":10487,"Ġspan":10488,"ĠDE":10489,"Ġreferences":10490,"Ġoutfit":10491,"Ġdollar":10492,"ĠPolice":10493,"Ġpresidential":10494,"Ġprincesses":10495,"19":10496,"Ġtot":10497,"Ġsecured":10498,"Ġimmediate":10499,"ĠHold":10500,"Ġsurviv":10501,"Ġtemperatures":10502,"ĠShortly":10503,"lan":10504,"Ġscheme":10505,"uther":10506,"Ġtalented":10507,"Ġsailors":10508,"Ġori":10509,"ĠPA":10510,"Ġyoungest":10511,"Ġsighs":10512,"ĠLion":10513,"ĠyouÃ¢":10514,"Ġfolding":10515,"acter":10516,"Ġstor":10517,"Ġbuying":10518,"ĠTenn":10519,"ĠDer":10520,"ĠLenn":10521,"Ġclassical":10522,"Ġneare":10523,"Ġchannel":10524,"Ġunw":10525,"Ġabsence":10526,"Ġconvent":10527,"ĠMarine":10528,"ĠRem":10529,"Ġcommem":10530,"ĠJos":10531,"Ġgoods":10532,"Ġties":10533,"Ġrainbows":10534,"Ġventured":10535,"Ġsed":10536,"Ġitem":10537,"Ġic":10538,"ido":10539,"ĠPitt":10540,"Ġslap":10541,"Ġblink":10542,"ĠPuerto":10543,"ĠCher":10544,"Ġforehead":10545,"coming":10546,"Ġdusty":10547,"char":10548,"ĠWright":10549,"Ġmargin":10550,"Ġcul":10551,"acles":10552,"Ġpremiered":10553,"Ġpatted":10554,"Ġstartled":10555,"Ġreviewer":10556,"Ġposter":10557,"Ġoperate":10558,"izzie":10559,"ĠRi":10560,"ĠCarter":10561,"Ġabsol":10562,"Ġadaptation":10563,"wealth":10564,"Ġconclusion":10565,"ĠHoly":10566,"ĠGlob":10567,"Ġgrowling":10568,"ĠIslam":10569,"ĠCroatian":10570,"Ġcolonial":10571,"umph":10572,"Ġdropping":10573,"whel":10574,"stic":10575,"ĠKaren":10576,"ĠNiel":10577,"Ġinterior":10578,"ĠFront":10579,"Ġunsuccessful":10580,"Ġcrabs":10581,"Ġacademic":10582,"Ġoccasions":10583,"Ġexisted":10584,"usic":10585,"Ġcarbon":10586,"Ġcarrier":10587,"Ġenters":10588,"Ġdeemed":10589,"Ġsongwr":10590,"Ġtubes":10591,"Ġconvection":10592,"onze":10593,"ounced":10594,"Ġglee":10595,"Ġvisits":10596,"ĠThompson":10597,"etime":10598,"Ġromantic":10599,"ilst":10600,"Ġelections":10601,"Ġblooming":10602,"Ġpreferred":10603,"Ġdating":10604,"Ġsuperior":10605,"active":10606,"Ġquestioned":10607,"Ġteaches":10608,"Ġattempting":10609,"ĠPalace":10610,"ĠTelevision":10611,"itzer":10612,"Jen":10613,"ĠMedia":10614,"Ġmonarch":10615,"ĠHarris":10616,"Ġfacility":10617,"Ġpaddled":10618,"ĠAut":10619,"Ġmunicip":10620,"Ġbombard":10621,"ifer":10622,"ĠLibrary":10623,"ĠHope":10624,"acent":10625,"ĠIndians":10626,"Ġconsist":10627,"ĠSin":10628,"ĠDur":10629,"ĠHorse":10630,"velt":10631,"ixon":10632,"uations":10633,"Ġlegislation":10634,"itable":10635,"ĠHend":10636,"Ġcontroversial":10637,"Ġretirement":10638,"ĠNC":10639,"pan":10640,"Ġdisaster":10641,"Ġmushrooms":10642,"Ġrecr":10643,"eks":10644,"ĠMaster":10645,"Ġ1926":10646,"yes":10647,"ĠId":10648,"ĠEls":10649,"Ġranger":10650,"Ġdistributed":10651,"Ġpots":10652,"ĠHungarian":10653,"Ġ1913":10654,"ĠIce":10655,"Ġimmig":10656,"Ġhealed":10657,"ĠBarry":10658,"Ġstandards":10659,"Ġexcell":10660,"Ġarrangement":10661,"Ġ1921":10662,"Ġtimer":10663,"Ġblows":10664,"Ġmodified":10665,"ĠBerlin":10666,"ĠTechn":10667,"Ġunn":10668,"Ġcubes":10669,"ĠHeart":10670,"Ġmere":10671,"Ġchuck":10672,"Ġpossession":10673,"hib":10674,"ontin":10675,"Ġgrowl":10676,"Ġdominated":10677,"Ġnickn":10678,"ĠDomin":10679,"orting":10680,"ĠLucas":10681,"Ġ06":10682,"Ġrailroad":10683,"Ġnavig":10684,"ĠUlt":10685,"Ġ1934":10686,"Ġinformed":10687,"Ġgraphics":10688,"ĠThanks":10689,"Ġunion":10690,"Ġrarely":10691,"Ġcracked":10692,"Ġdepicted":10693,"ĠPa":10694,"oen":10695,"Ġacknowled":10696,"eles":10697,"Despite":10698,"Excuse":10699,"Ġconstit":10700,"ĠMot":10701,"ĠAcc":10702,"Ġdefended":10703,"ĠWeb":10704,"Ġvalues":10705,"urches":10706,"Ġthirt":10707,"ĠPin":10708,"ĠHand":10709,"ĠHouston":10710,"ĠLizzie":10711,"ĠParker":10712,"ĠCommonwealth":10713,"you":10714,"Ġnoon":10715,"Ġ1912":10716,"ĠBatman":10717,"ultane":10718,"attle":10719,"sea":10720,"zing":10721,"ĠAud":10722,"lines":10723,"Ġsupplied":10724,"ĠAnthony":10725,"atus":10726,"Ġseeking":10727,"Ġtrembling":10728,"Ġodd":10729,"Ġkneeled":10730,"Ġ1927":10731,"Ġcleared":10732,"ĠAround":10733,"ectar":10734,"ĠEverybody":10735,"Ġhelmets":10736,"din":10737,"roying":10738,"ĠGary":10739,"Ġrepresenting":10740,"ĠHospital":10741,"ĠDNA":10742,"Ġintense":10743,"Ġ900":10744,"Ġcompleting":10745,"Ġnormally":10746,"omy":10747,"Ġcloses":10748,"ĠDig":10749,"ielded":10750,"Ġrolls":10751,"Ġreveals":10752,"Ġbehaviour":10753,"omot":10754,"ĠFamily":10755,"BI":10756,"ĠBye":10757,"ĠUSS":10758,"onn":10759,"ĠPak":10760,"Ġshops":10761,"Ġshorter":10762,"Ġfairies":10763,"Ġraising":10764,"Ġoutbreak":10765,"Ġflown":10766,"ige":10767,"rupted":10768,"Ġsan":10769,"ĠSar":10770,"ĠSupp":10771,"owa":10772,"elle":10773,"Ġexpression":10774,"tenance":10775,"lie":10776,"Ġformerly":10777,"Ġwandering":10778,"ĠProv":10779,"ĠAny":10780,"Ġcancer":10781,"Ġnations":10782,"Ġcomplaining":10783,"ĠBelg":10784,"Ġconvention":10785,"Ġbelief":10786,"Ġmayor":10787,"ilda":10788,"Ġstores":10789,"roit":10790,"Ġnarrative":10791,"lyn":10792,"Ġalco":10793,"Ġemotional":10794,"Ġsynthes":10795,"ivated":10796,"ĠSwedish":10797,"Ġstays":10798,"ĠThus":10799,"Ġdepos":10800,"asha":10801,"Ġcycle":10802,"ĠAth":10803,"Ġbloomed":10804,"Ġdeployed":10805,"ĠYan":10806,"Ġ1932":10807,"Ġsiren":10808,"Ġbishop":10809,"ĠAI":10810,"á»":10811,"Ġreleases":10812,"jamin":10813,"ĠNa":10814,"Ġapproval":10815,"fare":10816,"Ġpace":10817,"Ġcompliment":10818,"Ġmood":10819,"Ġeru":10820,"Ġtunnels":10821,"Ġpencils":10822,"Ġpaj":10823,"ĠSamuel":10824,"Ġcommit":10825,"ĠNBC":10826,"Ġpregn":10827,"ĠFollow":10828,"Ġinfluential":10829,"inations":10830,"Ġdestroying":10831,"Ġmoderate":10832,"ez":10833,"Ġnectar":10834,"ĠEve":10835,"ĠKar":10836,"Ġgenerated":10837,"ĠMort":10838,"ĠCommander":10839,"Ġgarrison":10840,"Ġrelationships":10841,"Ġwarn":10842,"Ġhistoric":10843,"Ġmuscle":10844,"ĠLabor":10845,"Ġoverwhel":10846,"Ġexcess":10847,"ĠPrinc":10848,"Ġpenguins":10849,"ĠAk":10850,"Ġproc":10851,"Ġrockets":10852,"Ġsuccessor":10853,"ĠSimpson":10854,"ugoslav":10855,"Ġmathem":10856,"Qu":10857,"ĠNichol":10858,"ĠCorporation":10859,"ĠNar":10860,"Ġsweep":10861,"ĠBrand":10862,"Yeah":10863,"ĠEc":10864,"Ġairl":10865,"Ġdais":10866,"Ġapparently":10867,"ĠLeave":10868,"Ġoffices":10869,"Ġpajamas":10870,"Ġsteady":10871,"fied":10872,"ĠSay":10873,"Ġvictims":10874,"ĠRAAF":10875,"ĠSports":10876,"Ġscientists":10877,"Ġtravelling":10878,"step":10879,"Ġkites":10880,"ĠWithin":10881,"Ġvert":10882,"Ġvanish":10883,"found":10884,"Ġcourts":10885,"Ġamongst":10886,"ĠCop":10887,"Ġpy":10888,"rose":10889,"ogen":10890,"Ġsharks":10891,"ĠLaure":10892,"ĠOpen":10893,"Ġsiege":10894,"otype":10895,"Ġ1929":10896,"Ġbadge":10897,"Ġassass":10898,"Ġmedium":10899,"Ġwrist":10900,"ĠNetwork":10901,"emetery":10902,"imore":10903,"Ġtrials":10904,"Ġjournalist":10905,"ĠSlowly":10906,"Ġcollapsed":10907,"Ġdiplom":10908,"book":10909,"asant":10910,"ĠEduc":10911,"Ġexecuted":10912,"ĠTower":10913,"Ã³n":10914,"och":10915,"ĠDick":10916,"ĠReal":10917,"Ġsweat":10918,"Ġpolishing":10919,"Ġmisses":10920,"tan":10921,"Ġparticipate":10922,"Ġdaisies":10923,"Ġtractor":10924,"Ġtoll":10925,"ĠWarner":10926,"ĠXbox":10927,"PA":10928,"ĠRoberts":10929,"Ġ140":10930,"ĠBrun":10931,"Ġrains":10932,"Ġ08":10933,"stances":10934,"ĠAsian":10935,"Ġlinked":10936,"Ġuncertain":10937,"ĠTerry":10938,"Ġopponents":10939,"ĠYugoslav":10940,"Ġlowest":10941,"ĠRAF":10942,"Ġ1931":10943,"rations":10944,"ĠBure":10945,"Ġrender":10946,"ĠCategory":10947,"ĠSpears":10948,"athy":10949,"Ġfactors":10950,"ĠCas":10951,"Ġpromises":10952,"ĠGuy":10953,"araway":10954,"Ġfighters":10955,"Ġridge":10956,"Ġchapter":10957,"Ġgay":10958,"Ġ1911":10959,"Ġresigned":10960,"spec":10961,"Ġvision":10962,"Ġunlike":10963,"Ġthereafter":10964,"Ġsignal":10965,"Ġdipped":10966,"Ġformat":10967,"rected":10968,"Ġdiet":10969,"Ġabilities":10970,"Ġrecordings":10971,"ĠDeath":10972,"Ġ1922":10973,"Ġdiver":10974,"Ġpersonality":10975,"hanna":10976,"ĠFel":10977,"Ġstorekeeper":10978,"Ġtraded":10979,"Ġdetailed":10980,"ĠNielsen":10981,"Ġfootage":10982,"Ġinhabit":10983,"Ġlessons":10984,"Ġcrops":10985,"icting":10986,"Ġslam":10987,"Ġenvironmental":10988,"ĠDetroit":10989,"ĠGaga":10990,"Ġripe":10991,"ĠBudd":10992,"Ġexposed":10993,"Ġgrandfather":10994,"Ġaccompany":10995,"ĠCroatia":10996,"Sometimes":10997,"ĠGun":10998,"Ġreportedly":10999,"burn":11000,"Ġknees":11001,"Ġanimation":11002,"Ġphra":11003,"ĠExpress":11004,"Ġdentist":11005,"agu":11006,"ĠMelbourne":11007,"Ġ09":11008,"Ġdialogue":11009,"ĠPC":11010,"Ġintrig":11011,"Ġformally":11012,"obi":11013,"ĠEvans":11014,"omic":11015,"Ġenh":11016,"ĠMurray":11017,"Ġinfluences":11018,"ĠFif":11019,"Ġglasses":11020,"Ġjoking":11021,"iday":11022,"ĠMuslim":11023,"usal":11024,"Ġnotably":11025,"Ġattitude":11026,"Ġheroes":11027,"bage":11028,"Ġconst":11029,"ivan":11030,"ĠSpeed":11031,"Ġgest":11032,"ĠNic":11033,"ĠChamber":11034,"Ġperspect":11035,"ĠSomers":11036,"ĠCooper":11037,"ĠBenjamin":11038,"rolled":11039,"ĠCook":11040,"Ġresumed":11041,"wan":11042,"ĠHell":11043,"ĠLate":11044,"Ġcommemor":11045,"ĠLane":11046,"Ġemployees":11047,"Ġcautiously":11048,"bean":11049,"run":11050,"Ġmac":11051,"Ġdeparted":11052,"ĠMario":11053,"structure":11054,"icity":11055,"anta":11056,"sole":11057,"race":11058,"Ġdescribe":11059,"Ġfiring":11060,"Ġpoetry":11061,"Ġcelebrating":11062,"Ġresidential":11063,"Ġborrowed":11064,"ĠStewart":11065,"ĠEst":11066,"ĠTurkish":11067,"Ġsubjects":11068,"ipes":11069,"Ġfant":11070,"Ġsymp":11071,"ylan":11072,"Ġovercome":11073,"ĠBaltimore":11074,"Ġbeads":11075,"Ġextent":11076,"DS":11077,"Like":11078,"mission":11079,"Ġlink":11080,"Ġgaze":11081,"Ġseriously":11082,"ogan":11083,"mad":11084,"Ġbeam":11085,"ĠVice":11086,"Ġrewarded":11087,"Ġsubstantial":11088,"Ġ170":11089,"Ġperiods":11090,"nett":11091,"ĠQueens":11092,"Ġgroceries":11093,"ĠDal":11094,"Ġseesaw":11095,"pon":11096,"ĠTrib":11097,"ĠStory":11098,"ĠFran":11099,"ĠSweet":11100,"Ġblocking":11101,"Ġsimpl":11102,"alo":11103,"ĠBrook":11104,"Ġdifficulties":11105,"ĠRey":11106,"ropolitan":11107,"Ã±":11108,"endment":11109,"ĠColorado":11110,"Ġassemb":11111,"ĠAustria":11112,"ĠNevertheless":11113,"Ġmasks":11114,"Ġcollapse":11115,"Ġsquealed":11116,"Ġinstance":11117,"ĠSimilar":11118,"ĠGreece":11119,"Ġupd":11120,"Ġaudio":11121,"Ġhull":11122,"Ġvillages":11123,"Ġconvoy":11124,"Ġwidened":11125,"Ġcotton":11126,"Ġvul":11127,"Ġsatell":11128,"Ġpitched":11129,"Ġhorror":11130,"ĠAlbums":11131,"Ġarriving":11132,"Ġrebell":11133,"Ġvessel":11134,"Ġcoc":11135,"Ġroses":11136,"rin":11137,"ĠFight":11138,"ĠCarib":11139,"ĠLennon":11140,"Ġreviewers":11141,"Ġappointment":11142,"Ġenthusiasm":11143,"Ġsunk":11144,"itcher":11145,"Ġaccomplished":11146,"ĠRaw":11147,"iami":11148,"Ġaren":11149,"Ġquacked":11150,"Ġarchae":11151,"Ġcriminal":11152,"Ġimprison":11153,"orious":11154,"Ġaged":11155,"ĠClinton":11156,"Ġterritories":11157,"Ġpublisher":11158,"ĠPope":11159,"ĠObs":11160,"Ġlollipops":11161,"ĠEnter":11162,"Ġrepairs":11163,"Ġtwinkle":11164,"Ġoption":11165,"Ġconfidence":11166,"ĠwasnÃ¢":11167,"Ġdiameter":11168,"ĠSocial":11169,"icians":11170,"Ġfeud":11171,"Ġjunior":11172,"Ġoverse":11173,"Ġtempor":11174,"Ġswirl":11175,"Ġutil":11176,"Cl":11177,"Ġcrumbs":11178,"Ġbases":11179,"ĠMilo":11180,"orous":11181,"Ġdiagn":11182,"ĠDoggy":11183,"Ġcough":11184,"ĠCR":11185,"ĠNancy":11186,"Ġfinale":11187,"Ġagents":11188,"Ġfaraway":11189,"Ġcorners":11190,"Ġnegotiations":11191,"ĠMargaret":11192,"Ġtechnique":11193,"Ġisolated":11194,"ĠRap":11195,"Ġconcerts":11196,"ES":11197,"Ġbeating":11198,"Ġ1928":11199,"Ġlistens":11200,"Ġupgraded":11201,"ĠAuthor":11202,"raph":11203,"Ġmart":11204,"Ġrounds":11205,"ĠContin":11206,"ĠJackie":11207,"Ġtenth":11208,"ĠWolf":11209,"Ġ05":11210,"gery":11211,"Ġsimultane":11212,"ĠAlfred":11213,"Run":11214,"ĠGiants":11215,"Ġfounder":11216,"ĠJonathan":11217,"icies":11218,"ĠCall":11219,"Ġpartly":11220,"ports":11221,"amese":11222,"Ġyesterday":11223,"Ġprotest":11224,"Ġfrequent":11225,"Ġminerals":11226,"Ġdrifted":11227,"Ġmarker":11228,"Ġcruisers":11229,"bel":11230,"ĠGre":11231,"ĠFoundation":11232,"Ġspecimens":11233,"Ġfactor":11234,"hal":11235,"Ġinher":11236,"Ġthoughts":11237,"ĠMalays":11238,"ĠOliver":11239,"Ġwithdrew":11240,"Ġcrisis":11241,"Ġpause":11242,"Ġscholars":11243,"Ġcomments":11244,"ĠArk":11245,"cription":11246,"Ġmolec":11247,"Ġvice":11248,"ĠAnglo":11249,"ĠMira":11250,"olis":11251,"Ġresear":11252,"ikes":11253,"ĠMiami":11254,"ĠVin":11255,"Ġrefug":11256,"Ġproced":11257,"Ġpeeking":11258,"ĠSomerset":11259,"Ġreflection":11260,"Ġwhereas":11261,"ois":11262,"Ġmaintenance":11263,"ĠAnton":11264,"Ġkicks":11265,"Ġcarries":11266,"Ġbenefit":11267,"ĠProfess":11268,"ĠTess":11269,"Ġtraveling":11270,"Ġfifty":11271,"ĠBurt":11272,"Ġreplacing":11273,"Ġconversation":11274,"Ġbid":11275,"ĠHeavy":11276,"Ġbaker":11277,"Ġplatinum":11278,"ĠEight":11279,"Ġstriking":11280,"Ġ1925":11281,"mith":11282,"ĠUnivers":11283,"ĠSorry":11284,"ĠJu":11285,"ĠNear":11286,"Ġpastries":11287,"ĠPandy":11288,"Ġverse":11289,"Ġgob":11290,"Ġbackwards":11291,"Ġdivor":11292,"ĠCharlotte":11293,"abama":11294,"Ġturrets":11295,"ĠWing":11296,"Ġfuzzy":11297,"atically":11298,"ĠBlood":11299,"arling":11300,"Ġtargets":11301,"ĠHans":11302,"utt":11303,"Ġengineering":11304,"Ġsuggestion":11305,"Ġ1924":11306,"Ġorganizations":11307,"ĠMichel":11308,"igen":11309,"Ġawake":11310,"ĠRoc":11311,"ĠUnlike":11312,"Ġcreator":11313,"ĠFrederick":11314,"boo":11315,"Ġbanks":11316,"Ġcriticised":11317,"ĠDance":11318,"Ġ1890":11319,"borough":11320,"Then":11321,"Ġmamm":11322,"aya":11323,"ĠExt":11324,"Ġfinals":11325,"Ġforty":11326,"ĠGuardian":11327,"ĠHorn":11328,"Ġelsewhere":11329,"Ġmainstream":11330,"Ġadvis":11331,"umm":11332,"Ġlocomot":11333,"urance":11334,"Ġpartially":11335,"ridge":11336,"arents":11337,"ĠRecording":11338,"ĠTreaty":11339,"uscript":11340,"Ġsurroundings":11341,"ĠTrek":11342,"Ġfires":11343,"uv":11344,"Ġpowered":11345,"Ġvic":11346,"ĠGa":11347,"Ġsympt":11348,"Ġdesper":11349,"Ġspreading":11350,"Ġshear":11351,"ĠWend":11352,"ĠPlayer":11353,"ĠRemember":11354,"ĠSeattle":11355,"Ġcompeted":11356,"Ġfroze":11357,"umin":11358,"ĠSparky":11359,"Ġextreme":11360,"Ġfifteen":11361,"Ġpolicies":11362,"Ġchuckled":11363,"Ġproport":11364,"Ġmonument":11365,"Ġrefers":11366,"Ġexamples":11367,"ĠBed":11368,"Ġsuitable":11369,"mo":11370,"ĠSon":11371,"Ġforcing":11372,"ĠCow":11373,"ĠGigi":11374,"ĠYanke":11375,"ipl":11376,"ĠMarshall":11377,"ĠChildren":11378,"Ġrates":11379,"Ġsplashes":11380,"ĠCrown":11381,"hibited":11382,"aria":11383,"ĠStock":11384,"ĠCz":11385,"Ġsuitcase":11386,"ĠMas":11387,"Ġovers":11388,"Ġchemical":11389,"atherine":11390,"Ġ1923":11391,"ĠBou":11392,"olves":11393,"Ġprompted":11394,"Ġsubt":11395,"ologists":11396,"ĠOrgan":11397,"bat":11398,"ĠCanal":11399,"ĠIowa":11400,"Ġdescription":11401,"ĠKarl":11402,"Ġcounts":11403,"Ġrubs":11404,"ĠBros":11405,"ĠFI":11406,"Ġprompt":11407,"ĠDragon":11408,"ĠBirth":11409,"ĠFish":11410,"ĠCaribbean":11411,"Ġcustomers":11412,"Ġschedule":11413,"idd":11414,"Ġstare":11415,"Ġexceed":11416,"Ġambit":11417,"ĠDylan":11418,"Ġexplorers":11419,"Ġrepresentative":11420,"ĠHockey":11421,"Ġcharacteristics":11422,"Ġsuggesting":11423,"Ġjur":11424,"udes":11425,"Ġintent":11426,"ĠForces":11427,"inction":11428,"Ġmelody":11429,"ĠGrammy":11430,"ĠBull":11431,"Ġillness":11432,"Ġbumpy":11433,"uts":11434,"romise":11435,"Ġvast":11436,"ĠRen":11437,"ĠStart":11438,"oded":11439,"Ġhonk":11440,"Ġtrend":11441,"ĠAlabama":11442,"Ġphen":11443,"Ġchurches":11444,"Ġrespected":11445,"ĠMississ":11446,"Ġminimum":11447,"Ġwinked":11448,"Ġhorizon":11449,"30":11450,"ĠAy":11451,"ĠAnim":11452,"ĠFeder":11453,"Ġhonour":11454,"ĠEdge":11455,"Ġmeow":11456,"cribed":11457,"Ġhousing":11458,"Ġexercises":11459,"ĠModern":11460,"ĠStella":11461,"Ġreversed":11462,"Ġfeast":11463,"Ġcrackers":11464,"Ġdynasty":11465,"ibilities":11466,"ĠLim":11467,"cester":11468,"hog":11469,"Ġtribute":11470,"ĠUSD":11471,"Ġprotagonist":11472,"ĠMissou":11473,"Ġhabitat":11474,"ĠMinnes":11475,"ĠAbbie":11476,"ĠTyler":11477,"Ġrent":11478,"Ġunless":11479,"Ġlegend":11480,"Ġadjacent":11481,"ĠDiego":11482,"Ġrip":11483,"Ġcaps":11484,"Ġswooped":11485,"Ġinaug":11486,"Ġease":11487,"Ġstall":11488,"Ġvictories":11489,"ĠTownship":11490,"ÅĵWhatÃ¢":11491,"eling":11492,"Ġdestroyers":11493,"MA":11494,"ullivan":11495,"ÅĵMommy":11496,"Ġturb":11497,"ĠCountry":11498,"Ġanger":11499,"ĠEddie":11500,"Ġflooded":11501,"Ġpedals":11502,"ĠIan":11503,"ĠWork":11504,"Ġterror":11505,"Ġpunishment":11506,"ĠNazi":11507,"gas":11508,"Ġpastels":11509,"ĠML":11510,"Ġgardens":11511,"Ġnaps":11512,"Ġstored":11513,"ĠAle":11514,"Ġrecognised":11515,"Ġloan":11516,"ĠChampionships":11517,"ĠAh":11518,"Ġresign":11519,"ĠDead":11520,"ĠMinistry":11521,"Ġfluttered":11522,"ĠTs":11523,"Ġcertainly":11524,"Ġtreaty":11525,"ĠSenator":11526,"Ġ07":11527,"brush":11528,"ĠApple":11529,"Ġexplo":11530,"fly":11531,"Ġtables":11532,"Ġmand":11533,"Bad":11534,"ye":11535,"ĠAustralians":11536,"namese":11537,"Ġpartnership":11538,"ĠDod":11539,"ĠLouise":11540,"Ġdownload":11541,"Ġbowls":11542,"Ġappreciated":11543,"Ġbombers":11544,"ĠLawrence":11545,"Ġinstrumental":11546,"ĠBelgium":11547,"Ġalleg":11548,"ĠCole":11549,"Ġtrading":11550,"Ġwiggled":11551,"ĠNapole":11552,"ĠSque":11553,"Ġreven":11554,"Ġsurprising":11555,"Ġviolent":11556,"ĠRobbie":11557,"Ġpurposes":11558,"rats":11559,"ĠVietnamese":11560,"Ġsnowballs":11561,"Ġdies":11562,"urg":11563,"Ġdegrees":11564,"Ġarts":11565,"Ġminimal":11566,"Ġdances":11567,"Ġencl":11568,"ĠThroughout":11569,"Ġeliminated":11570,"uda":11571,"Ġcashier":11572,"Ġitchy":11573,"Ġindicate":11574,"zed":11575,"Ġelectricity":11576,"Ġtricked":11577,"Ġtipto":11578,"onnaissance":11579,"Ġsuicide":11580,"Ġexplosion":11581,"Ġprecip":11582,"Ġinnov":11583,"Ġpiggy":11584,"Ġdispute":11585,"Ġshares":11586,"ĠLad":11587,"Ġweaken":11588,"Ġcheeks":11589,"Ġloading":11590,"ĠRing":11591,"Ġorganised":11592,"rap":11593,"ĠYor":11594,"Ġradar":11595,"talions":11596,"Ġchallenged":11597,"Ġsymbols":11598,"Ġgreeted":11599,"Ġpoorly":11600,"inals":11601,"Ġbay":11602,"Ġhides":11603,"ĠChristopher":11604,"Ġcanal":11605,"ctic":11606,"oosevelt":11607,"Ġopponent":11608,"Ġdeserve":11609,"ĠDevelopment":11610,"Ġpaddle":11611,"ĠHungary":11612,"Ġexcellent":11613,"ints":11614,"Ġdiscussing":11615,"Ġarrows":11616,"Ġdrift":11617,"Ġriders":11618,"Ġtomb":11619,"oral":11620,"ĠHills":11621,"Ġmanuscript":11622,"Ġlaying":11623,"Ġ1908":11624,"ĠMach":11625,"hattan":11626,"ĠMP":11627,"Ġastronaut":11628,"Ġcargo":11629,"Ġpitcher":11630,"Ġclothing":11631,"Ġkeyboard":11632,"Ġclin":11633,"ĠShakes":11634,"ika":11635,"ĠHamp":11636,"Ġprofessor":11637,"Ġencouraging":11638,"odies":11639,"Ġoccupation":11640,"Ġnib":11641,"Ġprospect":11642,"Ġdesignation":11643,"ĠZero":11644,"Ġedges":11645,"Ġdefeating":11646,"Ġ1909":11647,"ĠThor":11648,"vant":11649,"orship":11650,"ĠSmall":11651,"Ġ1905":11652,"acon":11653,"Ġdelivering":11654,"ori":11655,"akery":11656,"ĠTan":11657,"ounce":11658,"Ġoverl":11659,"Ġtangled":11660,"Ġbacking":11661,"Ġpreserved":11662,"Ġcateg":11663,"Ġsneaky":11664,"Ġsurvivors":11665,"Ġwow":11666,"ĠHoll":11667,"Ġmesmer":11668,"Ġstruct":11669,"Ġlayer":11670,"life":11671,"rep":11672,"Ġsacri":11673,"Ġconcrete":11674,"Ġlists":11675,"Ġcreativity":11676,"Ġreflected":11677,"ĠPeninsula":11678,"Ġintensified":11679,"Ġtricky":11680,"forced":11681,"ĠHud":11682,"ĠNobody":11683,"Ġaccomplishment":11684,"ĠMinnesota":11685,"FC":11686,"icky":11687,"ĠKhan":11688,"Ġstrict":11689,"ĠJudy":11690,"Ġpublicly":11691,"Ġ105":11692,"Ġfirefighters":11693,"onies":11694,"Ġplus":11695,"oval":11696,"affes":11697,"ĠCamer":11698,"Ġemperor":11699,"ĠDC":11700,"ados":11701,"ĠCold":11702,"Ġelectronic":11703,"ĠFranklin":11704,"Ġcandidates":11705,"Ġunderw":11706,"Ġlob":11707,"ĠRoosevelt":11708,"Ġassists":11709,"Ġ1907":11710,"Ġcustom":11711,"Ġrepr":11712,"ĠABC":11713,"ĠPier":11714,"ques":11715,"Ġfoundation":11716,"ĠLex":11717,"Ġastronom":11718,"dale":11719,"ĠCob":11720,"ĠRepresent":11721,"err":11722,"ĠRh":11723,"Ã©e":11724,"Ġthorn":11725,"ĠHotel":11726,"ographical":11727,"Ġmanufacture":11728,"ĠGilbert":11729,"ĠEducation":11730,"ĠFal":11731,"Ġadvoc":11732,"Ġvoy":11733,"ĠRocky":11734,"ĠExcited":11735,"hl":11736,"imeter":11737,"Ġchip":11738,"ĠRand":11739,"Ġelabor":11740,"igins":11741,"roph":11742,"ĠFly":11743,"ĠFlight":11744,"igger":11745,"ashes":11746,"iffe":11747,"Ġapartment":11748,"Ġshallow":11749,"Ġalignment":11750,"ĠKansas":11751,"Ġ125":11752,"ulating":11753,"ante":11754,"Ġagricultural":11755,"ĠLin":11756,"helm":11757,"Ġpreparation":11758,"Ġassisted":11759,"Ġperspective":11760,"bre":11761,"ĠCro":11762,"Ġmines":11763,"Ġneutral":11764,"ĠPed":11765,"ĠHelen":11766,"ĠAmb":11767,"Ġbypass":11768,"Ġcredits":11769,"eing":11770,"Ëľ":11771,"ĠKurt":11772,"Ġserial":11773,"ĠBanks":11774,"ĠMississipp":11775,"âĤ¬Ëľ":11776,"Ġcandies":11777,"Ġparish":11778,"Ġbusinesses":11779,"Ġtack":11780,"ĠBuzzy":11781,"Ġsurge":11782,"ĠWes":11783,"Ġbeloved":11784,"ĠOlive":11785,"Since":11786,"mph":11787,"ĠTag":11788,"Ġgrandp":11789,"ĠBuilding":11790,"Ġciting":11791,"Ġcontext":11792,"Ġchef":11793,"Ġbehalf":11794,"munition":11795,"ĠNat":11796,"Ġbakery":11797,"Ġcott":11798,"ĠMedal":11799,"river":11800,"Ġamounts":11801,"Ġsandcastles":11802,"ĠAlexand":11803,"Ġspiritual":11804,"bishop":11805,"Ġsubmitted":11806,"ĠPortland":11807,"Ġpercentage":11808,"ĠOsc":11809,"Ġsituated":11810,"ĠMikey":11811,"ĠIndustry":11812,"mont":11813,"Ġresolution":11814,"Ġ164":11815,"ĠArea":11816,"Ġscientist":11817,"Ġcancelled":11818,"inted":11819,"ĠAR":11820,"resents":11821,"peare":11822,"Ġdocuments":11823,"ĠMuch":11824,"Ġ165":11825,"Ġscaring":11826,"Ġpeacefully":11827,"Ġflights":11828,"ĠAdv":11829,"Ġfirmly":11830,"Ġportra":11831,"ĠÃĨ":11832,"ĠMov":11833,"?\",":11834,"Ġfuneral":11835,"ensions":11836,"itchell":11837,"Ġhesitated":11838,"Ġethnic":11839,"Ġdeliber":11840,"ĠBert":11841,"Ġwhilst":11842,"Ġobvious":11843,"Ġneighbours":11844,"Ġgiraffes":11845,"ĠEnjoy":11846,"ĠGoodbye":11847,"Ġdots":11848,"ĠMint":11849,"ĠWalker":11850,"ĠBlues":11851,"ĠAst":11852,"Ġpron":11853,"Ġsurgery":11854,"Ġvoiced":11855,"Ġreaders":11856,"Ġentertainment":11857,"onymous":11858,"Ġmeetings":11859,"Ġune":11860,"Ġsuspended":11861,"Ġcollaboration":11862,"ĠHong":11863,"Ġ1880":11864,"Ġdefinitely":11865,"Ġtigers":11866,"Ġrepresents":11867,"Ġgrandson":11868,"inea":11869,"umbling":11870,"ĠCampbell":11871,"Ġdemonstrated":11872,"Ġexplaining":11873,"Ġattendance":11874,"ĠInterstate":11875,"ĠPearl":11876,"ĠClar":11877,"ĠOlivia":11878,"Ġmeals":11879,"Ġjunction":11880,"Ġexplan":11881,"ĠHindu":11882,"Ġcalmed":11883,"Ġsmarter":11884,"Ġfiled":11885,"Ġdiscussion":11886,"Ġsav":11887,"uggles":11888,"ternal":11889,"ĠLith":11890,"Ġteachers":11891,"Ġfarmers":11892,"Ġbumps":11893,"ĠFre":11894,"ĠVel":11895,"Ġtickled":11896,"vity":11897,"xual":11898,"ĠHu":11899,"ĠHuman":11900,"Ġrebuilt":11901,"Ġcompilation":11902,"Ġpuppet":11903,"ĠYears":11904,"ĠRobby":11905,"Ġaudiences":11906,"ĠMun":11907,"Ġammunition":11908,"Ġteased":11909,"Ġsquares":11910,"ĠBelle":11911,"Ġimperial":11912,"Ġjudges":11913,"Ġcans":11914,"Ġ04":11915,"Ġmarking":11916,"ĠSpe":11917,"lah":11918,"Ġcontrols":11919,"Ġcircuit":11920,"Ġmagnets":11921,"zes":11922,"ĠThing":11923,"ĠDiv":11924,"Ġknocks":11925,"alog":11926,"ĠGrey":11927,"Ġdevast":11928,"Ġ360":11929,"ĠTennes":11930,"vo":11931,"ĠBab":11932,"ĠAff":11933,"Ġseashell":11934,"issa":11935,"tuce":11936,"Ġabol":11937,"Ġhypot":11938,"ĠKal":11939,"ĠKings":11940,"ĠAbi":11941,"Ġlieutenant":11942,"idel":11943,"Ġfunctions":11944,"orders":11945,"Ġfavorable":11946,"ĠJustin":11947,"Ġcorpor":11948,"Ġalcohol":11949,"isp":11950,"unction":11951,"ĠEgyptian":11952,"Ġhesitant":11953,"pled":11954,"Ġoperational":11955,"Ġaffair":11956,"ĠVI":11957,"Ġassess":11958,"iat":11959,"ĠNash":11960,"ĠOri":11961,"ĠShakespeare":11962,"Ġdepending":11963,"Ġweeping":11964,"Ġrecipe":11965,"ĠMississippi":11966,"rer":11967,"reted":11968,"Ġfulf":11969,"Ġcro":11970,"Ġgems":11971,"ethe":11972,"antha":11973,"Ġregistered":11974,"Ġparks":11975,"ĠConnect":11976,"Ġhissed":11977,"ĠNative":11978,"odore":11979,"Ġrecur":11980,"ĠHallow":11981,"Grandma":11982,"Wh":11983,"ĠPad":11984,"ĠRat":11985,"ĠMontreal":11986,"ecraft":11987,"Ġ1906":11988,"Ġstroke":11989,"Ġaffairs":11990,"hee":11991,"Ġovert":11992,"Ġcompeting":11993,"Ġaffili":11994,"Ġtemporarily":11995,"itated":11996,"ucy":11997,"Ġrestoration":11998,"ĠManhattan":11999,"ĠLouisiana":12000,"Ġoblig":12001,"Ġfalse":12002,"Ġprol":12003,"Ġsymptoms":12004,"ĠMack":12005,"Ġdarling":12006,"Ġflapping":12007,"Those":12008,"ĠScout":12009,"ĠGranny":12010,"Ġceremon":12011,"Ġdemands":12012,"Ġresidence":12013,"ĠLam":12014,"ĠAdminist":12015,"?'":12016,"ĠFried":12017,"Ġhallway":12018,"rix":12019,"face":12020,"ĠPink":12021,"ĠSpir":12022,"Ġsequences":12023,"Ġopportun":12024,"Ġsector":12025,"Fine":12026,"Two":12027,"Ġbehaved":12028,"Ġmerchant":12029,"Ġsignature":12030,"Ġ01":12031,"ĠPalest":12032,"ĠHalo":12033,"Ġtribes":12034,"Ġwrapping":12035,"erts":12036,"Ġsobbed":12037,"ĠTennessee":12038,"Ġ*":12039,"Ġgang":12040,"ĠPeace":12041,"Ġrit":12042,"ĠGraham":12043,"Ġforecast":12044,"Ġcyl":12045,"Ġbowling":12046,"Ġresisted":12047,"ĠMissouri":12048,"Ġdeeply":12049,"Ġjoins":12050,"ĠBeh":12051,"Ġartistic":12052,"Ġ1870":12053,"Ġtails":12054,"Ġpractices":12055,"Ġ1904":12056,"olve":12057,"Ġalliance":12058,"ĠWrestling":12059,"Ġprime":12060,"Ġleap":12061,"Ġfatal":12062,"tered":12063,"ĠGate":12064,"ĠJenn":12065,"Ġgracefully":12066,"Ġwink":12067,"ĠDest":12068,"Ġbuses":12069,"Ġcommunication":12070,"ĠMetro":12071,"ĠDw":12072,"othy":12073,"ĠFiles":12074,"racy":12075,"Ġcreations":12076,"iac":12077,"rants":12078,"ĠWard":12079,"rum":12080,"teenth":12081,"lay":12082,"rim":12083,"ĠJuan":12084,"Ġtouring":12085,"Ġplacing":12086,"Ġsung":12087,"Ġclowns":12088,"Ġjackets":12089,"Ġconvince":12090,"Ġlettuce":12091,"ÅĵCome":12092,"ĠHistoric":12093,"Ġdramatic":12094,"Ġroutine":12095,"ĠLabour":12096,"ĠMes":12097,"Ġswitched":12098,"ictions":12099,"of":12100,"aft":12101,"Ġearning":12102,"Ġwarmer":12103,"Ġlacked":12104,"ĠMitchell":12105,"ĠGuide":12106,"ĠMabel":12107,"Ġconsole":12108,"Ġretail":12109,"Ġpatrol":12110,"ĠWol":12111,"zona":12112,"SP":12113,"ĠHealth":12114,"Ġswords":12115,"Ġstab":12116,"andal":12117,"Ġsmallest":12118,"Ġengagement":12119,"ĠGw":12120,"Ġcomparison":12121,"ĠHoney":12122,"away":12123,"Ġscarves":12124,"Ã§":12125,"Ġdimens":12126,"Ġcolonies":12127,"Ġwicket":12128,"Ġinhabitants":12129,"Ġappreciation":12130,"Ġconcentrated":12131,"lock":12132,"Ġtale":12133,"Ġsalty":12134,"Ġlimits":12135,"yon":12136,"ĠRico":12137,"ickly":12138,"Ġfrig":12139,"Ġrobber":12140,"anium":12141,"TA":12142,"inet":12143,"ĠIndependent":12144,"encing":12145,"Ġechoed":12146,"Ġsac":12147,"ellect":12148,"Ġpredomin":12149,"Next":12150,"ĠCuba":12151,"ĠTurn":12152,"Ġownership":12153,"ĠTamil":12154,"Ġseverely":12155,"Ġremnants":12156,"hu":12157,"ĠSony":12158,"attered":12159,"Ġdirectors":12160,"Ġdoubt":12161,"Ġstopping":12162,"Ġbronze":12163,"Ġtouches":12164,"ĠPhoen":12165,"ĠPhilippines":12166,"Ġspat":12167,"Ġfloors":12168,"Ġargues":12169,"ĠArizona":12170,"ĠFarmer":12171,"Un":12172,"hard":12173,"Ġmental":12174,"ulous":12175,"ĠPret":12176,"choo":12177,"ĠMicro":12178,"Ġcryst":12179,"ĠIndies":12180,"ĠTracy":12181,"Ġcasting":12182,"ĠCzech":12183,"isd":12184,"Ġexclud":12185,"issions":12186,"aughters":12187,"thel":12188,"Ġyourselves":12189,"ĠFrost":12190,"Ġstorage":12191,"ĠHaving":12192,"Ġjustice":12193,"Ġseeker":12194,"Ġcoverage":12195,"ĠPersian":12196,"ĠHarvey":12197,"Ġdistinctive":12198,"Ġboundary":12199,"ĠMagic":12200,"ĠHalloween":12201,"kshire":12202,"ancell":12203,"Ġadministrative":12204,"Ġbombs":12205,"Ġcamps":12206,"ĠSnuggles":12207,"ĠErn":12208,"rome":12209,"ĠMess":12210,"Ġruining":12211,"Ġcam":12212,"usty":12213,"ĠZip":12214,"species":12215,"ĠPerry":12216,"ĠWarren":12217,"ĠAthlet":12218,"Ġeth":12219,"asters":12220,"Ġpredicted":12221,"Ġcontributions":12222,"agen":12223,"Ġhaw":12224,"Ġremarked":12225,"Ġgrandchild":12226,"ateur":12227,"Ġcharacterized":12228,"isle":12229,"Ġclosest":12230,"Ġfluttering":12231,"iate":12232,"Ġpatients":12233,"Ġvulner":12234,"rator":12235,"Ġlegislature":12236,"Ġranks":12237,"Ġrestricted":12238,"Ġteles":12239,"Ġranging":12240,"oga":12241,"ĠInitially":12242,"Ġinland":12243,"Ġsatellite":12244,"ĠSeven":12245,"ĠTun":12246,"Ġideal":12247,"Ġcondem":12248,"ĠDepression":12249,"Ġreunited":12250,"Ġdynam":12251,"Ġsnuck":12252,"Ġlun":12253,"shore":12254,"Ġacceler":12255,"Ġunsure":12256,"ĠSpl":12257,"Ġneedles":12258,"Ġcrews":12259,"Ġwishing":12260,"Ġ03":12261,"Ġslaves":12262,"Ġvibr":12263,"Ġscores":12264,"Ġinstitutions":12265,"Ġcreamy":12266,"ĠToky":12267,"ĠCirc":12268,"ĠProgram":12269,"itzerland":12270,"sk":12271,"Ġabund":12272,"Ġtonn":12273,"Ġflank":12274,"ĠBureau":12275,"cru":12276,"Ġrepeatedly":12277,"rating":12278,"orph":12279,"Ġgenetic":12280,"Ġmaneu":12281,"Ġspoken":12282,"Ġencounter":12283,"Ġlungs":12284,"CC":12285,"Ġconservative":12286,"ruption":12287,"Ġcupcakes":12288,"Ġexhibition":12289,"lahoma":12290,"Ġtapped":12291,"ĠFriday":12292,"Ġevolved":12293,"ĠAbbey":12294,"Ġelectron":12295,"pit":12296,"Ġsnatched":12297,"Ġ174":12298,"Ġapplication":12299,"Ġhouseholds":12300,"Ġsynd":12301,"Ġnorthward":12302,"Ġ115":12303,"Ġpriest":12304,"Ġshrinking":12305,"Ġmilitia":12306,"Ġfra":12307,"Ġpeaking":12308,"Ġpuppies":12309,"ĠMurphy":12310,"Ġdistinguished":12311,"gate":12312,"Ġstroked":12313,"ĠRav":12314,"Ġsituations":12315,"Ġpairs":12316,"Ġlighting":12317,"Ġraind":12318,"Ġcoinc":12319,"ĠBroadway":12320,"Ġreapp":12321,"osa":12322,"ieties":12323,"Ġdiscipl":12324,"Ġflagship":12325,"Ġnearest":12326,"ĠKyle":12327,"Ġbedtime":12328,"Ġgrassy":12329,"Ġillegal":12330,"ĠLia":12331,"erpiece":12332,"Ġchallenges":12333,"ĠKnow":12334,"ĠOriginal":12335,"Ġannouncement":12336,"erg":12337,"idency":12338,"Ġarrives":12339,"Ġrainco":12340,"Ġcinema":12341,"Ġimagining":12342,"Ġarmored":12343,"Ġdominant":12344,"Ġorchestra":12345,"acts":12346,"Ġsubspecies":12347,"Ġdip":12348,"Ġopinions":12349,"Shh":12350,"Ġrecruit":12351,"ĠBi":12352,"ĠEP":12353,"Ġattained":12354,"Ġfewer":12355,"Ġpenn":12356,"ĠSwitzerland":12357,"Ġrusty":12358,"atics":12359,"Ġarmament":12360,"ĠPrior":12361,"ĠLeslie":12362,"Ġdaring":12363,"Ġoutl":12364,"ĠNon":12365,"ects":12366,"Ġwipes":12367,"ĠSat":12368,"ĠStri":12369,"hr":12370,"Ġautobi":12371,"sequently":12372,"ĠLithuan":12373,"isen":12374,"Ġthunderstorm":12375,"folk":12376,"Ġapproaching":12377,"Ġcircumstances":12378,"but":12379,"ĠDigital":12380,"Ġarticles":12381,"Ġobtain":12382,"Ġagency":12383,"Ġ1901":12384,"Ġplayoffs":12385,"Ġpredecessor":12386,"His":12387,"Ġcharity":12388,"Ġbows":12389,"Ġslowed":12390,"ÅĵYouÃ¢":12391,"hous":12392,"Ġcarriers":12393,"Ġcock":12394,"aders":12395,"Ġconfusion":12396,"Ġ155":12397,"Ġwounds":12398,"Ġallies":12399,"ĠPast":12400,"ĠRace":12401,"Ġpaths":12402,"icut":12403,"Ġsmiley":12404,"Ġexcav":12405,"ĠAustrian":12406,"Ġbulk":12407,"Ġphilosophy":12408,"Ġvertical":12409,"Ġyells":12410,"ĠArnold":12411,"Great":12412,"ĠKenn":12413,"ÅĵDo":12414,"Ġwestward":12415,"ĠBinky":12416,"Ġornaments":12417,"Ġhider":12418,"Ġstrengthened":12419,"ĠNik":12420,"Ġgonna":12421,"Ġintellect":12422,"Ġrestrict":12423,"Ġ1902":12424,"rist":12425,"Ġtying":12426,"eton":12427,"Ġyielded":12428,"Ġscratches":12429,"Ġprices":12430,"Ġincreases":12431,"Ġphenomen":12432,"nered":12433,"ĠÄ":12434,"iona":12435,"overed":12436,"Ġages":12437,"Ġdrugs":12438,"ĠWo":12439,"Ġreproduc":12440,"Ġruling":12441,"Ġvs":12442,"angle":12443,"Ġperceived":12444,"Ġmini":12445,"ĠOrange":12446,"Ġpupils":12447,"ĠPow":12448,"Ġarmour":12449,"ĠOklahoma":12450,"bi":12451,"ĠWorks":12452,"Ġscrubbed":12453,"ĠOscar":12454,"uters":12455,"ĠYellow":12456,"Ġ101":12457,"ĠCur":12458,"Ġspikes":12459,"Ġadds":12460,"Ġbreathing":12461,"Ġproceeded":12462,"Ġmedals":12463,"Ġ1903":12464,"coon":12465,"ĠSi":12466,"ĠRidge":12467,"math":12468,"ĠÅ":12469,"ĠSullivan":12470,"Ġdock":12471,"ĠMaur":12472,"Ġconcentration":12473,"Ġports":12474,"Ġgover":12475,"ĠKirk":12476,"weed":12477,"Ġbiographer":12478,"Ġreject":12479,"ĠAra":12480,"ĠOnt":12481,"ĠSuch":12482,"Ġaudition":12483,"bal":12484,"Ġgrave":12485,"Ġconfron":12486,"ĠDenmark":12487,"arant":12488,"arrow":12489,"Ġrays":12490,"Ġalternate":12491,"Ġsculpture":12492,"Ġhind":12493,"Ġgrabbing":12494,"ĠFederation":12495,"Ġpossess":12496,"Ġleaning":12497,"Ġsimultaneously":12498,"rying":12499,"apolis":12500,"Ġcompanion":12501,"Ġfantastic":12502,"Time":12503,"otted":12504,"estyle":12505,"ascar":12506,"igs":12507,"Ġguitarist":12508,"ĠChand":12509,"Ġcrest":12510,"Ġcivilian":12511,"Ġinqu":12512,"Ġpanel":12513,"ĠTree":12514,"Ġlanes":12515,"Ġpul":12516,"Ġwhales":12517,"ĠNag":12518,"Ġautumn":12519,"Ġhandsome":12520,"ĠZo":12521,"ĠWilhelm":12522,"Ġconscious":12523,"Ġmobile":12524,"AR":12525,"jan":12526,"ĠStu":12527,"Ġtriple":12528,"Ġcongrat":12529,"ĠConfederate":12530,"ĠUE":12531,"Ġportions":12532,"Ġsuspic":12533,"Ġtyphoon":12534,"ĠMaj":12535,"ĠFem":12536,"Ġdefinition":12537,"Ġsimilarly":12538,"ĠBirthday":12539,"mall":12540,"imen":12541,"ĠBaker":12542,"ÅĵHi":12543,"ĠTerrit":12544,"Ġrisks":12545,"ĠDelaware":12546,"Ġrumble":12547,"ĠFather":12548,"Ġretain":12549,"Ġhandled":12550,"ogram":12551,"Ġarmies":12552,"chy":12553,"eland":12554,"ĠChel":12555,"Ġincomp":12556,"esh":12557,"uma":12558,"Ġcannon":12559,"ĠKeith":12560,"berry":12561,"Ġblind":12562,"cott":12563,"Ġreconnaissance":12564,"Ġsingers":12565,"ĠPerform":12566,"ĠTokyo":12567,"otions":12568,"immering":12569,"Ġstress":12570,"upiter":12571,"Ġbattalions":12572,"Ġdiscovers":12573,"Ġinstitution":12574,"Ġshipping":12575,"Ġgrandparents":12576,"esty":12577,"Ġextend":12578,"Ġ168":12579,"ĠRailroad":12580,"Ġessential":12581,"AC":12582,"Ġrevenue":12583,"ĠDS":12584,"Ġsolar":12585,"Ġexploration":12586,"ĠPrize":12587,"uki":12588,"ĠAna":12589,"ĠPil":12590,"ĠSamantha":12591,"Ġtreehouse":12592,"Ġhealing":12593,"Ġathletes":12594,"ĠWendy":12595,"Ew":12596,"Lucy":12597,"stick":12598,"ardo":12599,"estone":12600,"ÅĵWow":12601,"Ġmillimet":12602,"ĠBaseball":12603,"Ġonward":12604,"pha":12605,"Ġpersonally":12606,"Ġpursue":12607,"Ġeld":12608,"ĠLost":12609,"Ġwrink":12610,"Ġenlisted":12611,"opsy":12612,"Ġcuddly":12613,"ĠBusiness":12614,"bot":12615,"ĠwouldnÃ¢":12616,"Ġdump":12617,"ĠHad":12618,"Ġangle":12619,"Ġbonus":12620,"erm":12621,"Ġsacrif":12622,"Ġdollhouse":12623,"ĠJanie":12624,"Ġpion":12625,"mingham":12626,"Ġmainland":12627,"Ġbombing":12628,"Ġappropriate":12629,"tery":12630,"Ġmessages":12631,"Ġcorrectly":12632,"Ġpassion":12633,"Ġonions":12634,"ĠGor":12635,"Ġdemoc":12636,"Ġfrust":12637,"ĠFlying":12638,"Ġmining":12639,"TW":12640,"ĠFat":12641,"ĠAtlanta":12642,"Ġconnecting":12643,"Ġdemolished":12644,"sa":12645,"ĠWag":12646,"Ġcoloring":12647,"Ġempire":12648,"Ġnests":12649,"rors":12650,"stand":12651,"ĠNad":12652,"ucker":12653,"ĠJacky":12654,"ĠPitts":12655,"ĠYankees":12656,"Ġrif":12657,"Ġstool":12658,"Ġacclaim":12659,"Äģ":12660,"ĠwonÃ¢":12661,"ĠSadie":12662,"aration":12663,"ĠMegan":12664,"Ġpropag":12665,"Ġimprovements":12666,"ĠMadag":12667,"Ġpans":12668,"ĠKiki":12669,"ordinary":12670,"Ġchefs":12671,"ĠInternet":12672,"riors":12673,"Ġmarketing":12674,"Ġcancel":12675,"Ġsprinkled":12676,"Ġchop":12677,"hist":12678,"Ġrunner":12679,"Ġdecorating":12680,"ĠDin":12681,"ĠEva":12682,"Ġstarring":12683,"ĠNature":12684,"Ġtodd":12685,"quet":12686,"ĠEdwards":12687,"Ġdefending":12688,"Ġtours":12689,"ĠJere":12690,"ĠPerson":12691,"Ġcompens":12692,"Ġcounties":12693,"ĠBark":12694,"ĠConstruction":12695,"Ġtramp":12696,"Ġartific":12697,"ĠAmelia":12698,"Ġprotein":12699,"Ġcontinu":12700,"Ġrequires":12701,"ĠWayne":12702,"ĠNixon":12703,"ĠHudson":12704,"Ġmaps":12705,"Ġblues":12706,"Ġpunk":12707,"ĠJupiter":12708,"ĠMason":12709,"odox":12710,"Ġexperiments":12711,"Ġcrashing":12712,"cer":12713,"Ġobst":12714,"Ġbells":12715,"hand":12716,"Ġsinking":12717,"acre":12718,"Ġduo":12719,"itals":12720,"Ġhedgehog":12721,"Ġclerk":12722,"ĠRihanna":12723,"Ġmeter":12724,"Ġ166":12725,"ĠAmaz":12726,"Ġclip":12727,"Ġ109":12728,"Ġaggreg":12729,"Ġ02":12730,"Ne":12731,"LC":12732,"Ġrely":12733,"ĠKra":12734,"ĠVis":12735,"Ġlifting":12736,"Ġrenov":12737,"Ġfest":12738,"ĠPle":12739,"Ġaccum":12740,"Ġintrigued":12741,"Ġcha":12742,"ĠThunder":12743,"Ġsq":12744,"Ġdissipated":12745,"ista":12746,"Ġdonated":12747,"Ġbeats":12748,"ĠPhoenix":12749,"ĠSty":12750,"stan":12751,"Ġoverseas":12752,"Ġconfront":12753,"ultan":12754,"Ġconsidering":12755,"ĠBooks":12756,"Ġski":12757,"EC":12758,"ĠSean":12759,"Ġaltered":12760,"ĠEnterprise":12761,"vous":12762,"terbury":12763,"Ġorganisation":12764,"ĠCass":12765,"ĠObama":12766,"ĠSpirit":12767,"ĠOntario":12768,"tions":12769,"ĠMake":12770,"ĠRecord":12771,"Ġrefreshing":12772,"ĠWriting":12773,"ĠKu":12774,"Ġacou":12775,"Ġprofile":12776,"Ġobservations":12777,"ĠLang":12778,"ĠkW":12779,"Ġdod":12780,"Ġsurpass":12781,"Ġgraduated":12782,"Ġaggressive":12783,"ĠRights":12784,"Ġacknowledged":12785,"Ġropes":12786,"Ġobjective":12787,"pent":12788,"Ġhighways":12789,"haw":12790,"reation":12791,"Ġdeterior":12792,"Ġindicating":12793,"Ġremembering":12794,"Ġdefences":12795,"Ġstung":12796,"Ġclick":12797,"lon":12798,"Ġengage":12799,"ĠMust":12800,"ensively":12801,"ĠMadagascar":12802,"Ġconversion":12803,"Ġvoyage":12804,"Ġneur":12805,"Ġscen":12806,"Ġnights":12807,"Ġopportunities":12808,"ĠSem":12809,"Ġsponge":12810,"ĠChuck":12811,"Ġfairly":12812,"Ġchapel":12813,"ĠRiley":12814,"ĠBox":12815,"Ġsettlers":12816,"Ġvenue":12817,"tes":12818,"Ġfaded":12819,"ĠIran":12820,"Ġtransformed":12821,"ĠMcCartney":12822,"ĠSid":12823,"Ġfins":12824,"ratropical":12825,"Ġhosts":12826,"Ġelevation":12827,"imm":12828,"ĠCurt":12829,"Ġsecretary":12830,"Ġquarterback":12831,"mn":12832,"Ġfantasy":12833,"rency":12834,"Ġeducational":12835,"ĠGoth":12836,"ĠGina":12837,"Ġpeppers":12838,"bly":12839,"Ġtopped":12840,"ouver":12841,"ĠCha":12842,"ĠConnecticut":12843,"ĠAllies":12844,"Ġpraying":12845,"ĠBuc":12846,"Ġque":12847,"ĠPruss":12848,"Ġaerial":12849,"Ġidentify":12850,"Ġscrewd":12851,"Ġtiptoed":12852,"ĠSqueaky":12853,"Ġerected":12854,"Ġhelpers":12855,"ĠBrig":12856,"Ġcoral":12857,"Ġnumbered":12858,"Ġprofit":12859,"Ġloses":12860,"ĠChen":12861,"ĠFurthermore":12862,"Ġslammed":12863,"Ġpatron":12864,"ĠOutstanding":12865,"Ġtrough":12866,"ĠCanterbury":12867,"Ġconspir":12868,"Ġanth":12869,"ĠUniversal":12870,"Ġraids":12871,"placed":12872,"Ġoh":12873,"Ġpublishing":12874,"Ġcolleagues":12875,"Ġcompound":12876,"ĠGirls":12877,"Ġraindrops":12878,"Ġcottage":12879,"ĠHugh":12880,"Ġstead":12881,"ĠBosn":12882,"ĠMcM":12883,"ĠTro":12884,"Ġoriginated":12885,"Ġguards":12886,"Ġcampaigns":12887,"Ġpeas":12888,"Ġturret":12889,"Ġexplorer":12890,"Ġlabels":12891,"Ġremoval":12892,"Ġexecution":12893,"10":12894,"ighing":12895,"ĠLess":12896,"Ġjurisd":12897,"Ġforks":12898,"Ġguarant":12899,"Ġextratropical":12900,"ĠMountains":12901,"Ġarrangements":12902,"hears":12903,"Ġshift":12904,"Ġcomed":12905,"Ġevacuated":12906,"Ġglac":12907,"ĠSpart":12908,"ĠBoys":12909,"Ġstomped":12910,"Ġthirteen":12911,"ciples":12912,"ĠDrive":12913,"ancouver":12914,"Ġequally":12915,"uguese":12916,"Ġorigins":12917,"Ġwiping":12918,"Ġmerely":12919,"Have":12920,"Ġfounding":12921,"Ġstationed":12922,"ĠDefence":12923,"Ġinitiated":12924,"ĠMam":12925,"Ġbaths":12926,"Ġunpacked":12927,"ĠMans":12928,"ĠCaval":12929,"Ġchampions":12930,"Ġphrase":12931,"ĠPir":12932,"ĠMorrison":12933,"Ro":12934,"arry":12935,"asked":12936,"Ġweekly":12937,"Ġbubb":12938,"ĠLem":12939,"Ġwindy":12940,"Ġwatershed":12941,"Ġnoses":12942,"ĠIsa":12943,"ĠCommunity":12944,"ĠBernard":12945,"ĠBirmingham":12946,"ĠMouse":12947,"ĠDeep":12948,"Ġdreamt":12949,"Ġles":12950,"Ġhopeful":12951,"Ġqualified":12952,"Ġdebt":12953,"ĠPortuguese":12954,"ĠMond":12955,"ippy":12956,"Ġmarkets":12957,"Ġblend":12958,"Ġtwe":12959,"Ġestablishing":12960,"mund":12961,"ĠCelt":12962,"ĠEdin":12963,"ĠRobin":12964,"ĠâĤ":12965,"Ġrebellion":12966,"ÅĵMy":12967,"Ġvanilla":12968,"Ġtheatrical":12969,"Ġache":12970,"ĠPolit":12971,"Ġlifetime":12972,"Ġdread":12973,"Ġongoing":12974,"Ġrect":12975,"ĠDiam":12976,"ĠPy":12977,"soft":12978,"Ġattending":12979,"Ġsailboat":12980,"Ġ173":12981,"Ġ152":12982,"ĠSymph":12983,"Several":12984,"Ġrotten":12985,"ĠBath":12986,"Ġedited":12987,"aa":12988,"ĠTrophy":12989,"Ġgates":12990,"season":12991,"Ġaliens":12992,"ĠDall":12993,"Ġgardener":12994,"Ġpigeons":12995,"ĠMik":12996,"ĠSof":12997,"Ġwaterfall":12998,"ĠGib":12999,"ĠMaddie":13000,"ennium":13001,"ĠWindows":13002,"Ġstrategic":13003,"Ġfits":13004,"Ġtrailer":13005,"ĠVancouver":13006,"ski":13007,"Ġdaughters":13008,"ĠAshley":13009,"Ġvirus":13010,"Ġscrewdriver":13011,"OT":13012,"ĠTiger":13013,"Ġlimes":13014,"agger":13015,"Ġimprovement":13016,"Most":13017,"Ġjury":13018,"anton":13019,"Ġrealizes":13020,"Ġbasin":13021,"Ġinnoc":13022,"Ġslices":13023,"actions":13024,"Ġmature":13025,"Ġpointy":13026,"Ġtroubles":13027,"Ġrig":13028,"Ġunderwater":13029,"Ġbattlecru":13030,"ĠAfg":13031,"Ġlowered":13032,"ĠPakistan":13033,"ods":13034,"Ġretrie":13035,"ĠMarge":13036,"ĠScar":13037,"Ġtil":13038,"venth":13039,"Ġrevealing":13040,"Ġhypothes":13041,"ugs":13042,"ĠChick":13043,"Ġninet":13044,"ĠNine":13045,"Ġpublications":13046,"Ġvolumes":13047,"oria":13048,"Ġ1860":13049,"Ġseized":13050,"Ġsuperheroes":13051,"loyd":13052,"Many":13053,"Ġtox":13054,"Ġphotographs":13055,"Ġpartial":13056,"Ġloyalty":13057,"Ġscrews":13058,"Ġrustling":13059,"alling":13060,"Ġcompounds":13061,"Ġsquish":13062,"Ġpotion":13063,"Ġmagician":13064,"Ġtrampoline":13065,"Ġdubbed":13066,"ĠDou":13067,"Ġmembership":13068,"ĠOfficer":13069,"rine":13070,"itively":13071,"ĠChampion":13072,"ĠBluey":13073,"Ġlifts":13074,"Ġfortress":13075,"ĠTriple":13076,"Ġbearing":13077,"Ġ104":13078,"Ġ1893":13079,"ĠBessie":13080,"wa":13081,"Ġwadd":13082,"Ġblamed":13083,"Ġterrain":13084,"sky":13085,"Ġexposure":13086,"Ġadvised":13087,"Ġdisplays":13088,"Ġspecimen":13089,"ĠPepper":13090,"Ġdensity":13091,"ĠBuff":13092,"Ġsnowmen":13093,"Ġparody":13094,"Ġfossil":13095,"ĠNapoleon":13096,"Ġpersons":13097,"ĠMosc":13098,"Ġwithdrawal":13099,"Yummy":13100,"Ġpouted":13101,"Ġdrummer":13102,"Ġinterpretation":13103,"Ġmunicipal":13104,"Ġmal":13105,"Ġfourteen":13106,"Ġgobbled":13107,"Ġlent":13108,"ĠBubb":13109,"Ġassembly":13110,"Ġ1896":13111,"ĠEdinburgh":13112,"ĠNation":13113,"Ġgrowls":13114,"Ġamid":13115,"meal":13116,"Ġannually":13117,"Ġadvertising":13118,"Ġblown":13119,"Donald":13120,"ĠReserve":13121,"ĠAirl":13122,"Ġfeared":13123,"ĠNCAA":13124,"istoc":13125,"Ġranges":13126,"Ġsnowfl":13127,"ĠOwen":13128,"Ġwobbled":13129,"Mary":13130,"Ġprovision":13131,"Ġflavors":13132,"Ġavoided":13133,"ĠBradman":13134,"Ġbiting":13135,"ĠTon":13136,"ĠAlask":13137,"Ġcorps":13138,"ĠHawaii":13139,"ĠDwight":13140,"ĠAndre":13141,"beat":13142,"ĠSig":13143,"Ġsparks":13144,"ĠCost":13145,"Ġjudg":13146,"ĠCampaign":13147,"she":13148,"ĠTNA":13149,"unning":13150,"ĠGriff":13151,"ĠChampions":13152,"Meow":13153,"Ġconventional":13154,"Sur":13155,"Ġpuff":13156,"Ġsofter":13157,"Ġoffense":13158,"Ġpromotional":13159,"Ġexter":13160,"Ġcruc":13161,"Sammy":13162,"ĠVillage":13163,"Ġgaining":13164,"ĠDom":13165,"Ġemphasis":13166,"cient":13167,"ieve":13168,"Ġcuriously":13169,"Ġbacter":13170,"Ġanime":13171,"Ġassembled":13172,"Bl":13173,"semble":13174,"ĠKo":13175,"ĠCricket":13176,"igenous":13177,"ĠAfghan":13178,"Ġextraordinary":13179,"gi":13180,"hop":13181,"Ġregime":13182,"Ġforgetting":13183,"Ġoptions":13184,"Ġballad":13185,"Ġsteering":13186,"Ġgarbage":13187,"Ġwakes":13188,"ĠWigg":13189,"Ġmagnit":13190,"Ġrobots":13191,"Ġshifted":13192,"Ġ350":13193,"Äį":13194,"Ġimproving":13195,"ĠOutside":13196,"Ġconductor":13197,"Ġfailing":13198,"ĠPubl":13199,"ĠNAS":13200,"Ġsoftware":13201,"Ġhumor":13202,"Ġsixteen":13203,"otyp":13204,"ĠPars":13205,"ĠBoat":13206,"ĠPotter":13207,"SA":13208,"Ġnep":13209,"ĠRic":13210,"adier":13211,"ĠDemocrats":13212,"Ġslave":13213,"Ġidentical":13214,"Ġchore":13215,"Ġexperimental":13216,"broken":13217,"Ġmic":13218,"atra":13219,"hammad":13220,"Ġportrayal":13221,"idae":13222,"Ġbru":13223,"Ġceased":13224,"ãĥ":13225,"ĠLas":13226,"ricanes":13227,"Ġprovincial":13228,"Ġ1898":13229,"ĠConvention":13230,"player":13231,"Ġcad":13232,"ĠBrothers":13233,"Ġoutput":13234,"ifies":13235,"Ġ172":13236,"ĠHoot":13237,"ĠCraig":13238,"otal":13239,"ĠMarvel":13240,"Ġindicates":13241,"ĠHampshire":13242,"Ġunderwent":13243,"Ġhawk":13244,"fect":13245,"elli":13246,"Ġrepresentatives":13247,"Ġprisoner":13248,"ĠYorkshire":13249,"Ġdemanding":13250,"elta":13251,"ĠKaty":13252,"ĠZoey":13253,"itis":13254,"Ġlegit":13255,"Ġgrandd":13256,"ĠMiles":13257,"ĠChronicle":13258,"utely":13259,"ĠHarold":13260,"Ġeval":13261,"Ġsentence":13262,"Ġunclear":13263,"Ġbeaten":13264,"Ġsla":13265,"ĠBlu":13266,"ĠBeaut":13267,"Ġneatly":13268,"Ġachievement":13269,"ĠChes":13270,"Ġdrowned":13271,"Ġemployment":13272,"Ġnominations":13273,"ĠVictorian":13274,"ĠAdministration":13275,"grad":13276,"Ġimagery":13277,"Ġhydrogen":13278,"Ġstrand":13279,"ĠGlen":13280,"OS":13281,"Ġpens":13282,"rik":13283,"ĠFreddie":13284,"ĠJunior":13285,"Ġgalax":13286,"Ġjer":13287,"Ġ127":13288,"Ġbreathed":13289,"ĠBomb":13290,"osing":13291,"Ġswans":13292,"Ġwinners":13293,"aux":13294,"Ġsuits":13295,"regation":13296,"crow":13297,"ĠWii":13298,"Ġhops":13299,"ĠDeb":13300,"Ġexternal":13301,"Ġaftermath":13302,"ĠAbd":13303,"guard":13304,"Ġliberal":13305,"Ġbits":13306,"Ġstere":13307,"Ġrefuse":13308,"Ġraccoon":13309,"Ġconquered":13310,"maid":13311,"ĠSpider":13312,"Ġpraising":13313,"ĠArgentina":13314,"Ãº":13315,"Ġduration":13316,"Ġcommentary":13317,"Ġcens":13318,"Ġrepeating":13319,"ĠForeign":13320,"Ġpecked":13321,"ĠFighting":13322,"--":13323,"town":13324,"ĠJama":13325,"ĠZara":13326,"ĠCycl":13327,"Ġexclusive":13328,"Jane":13329,"ookie":13330,"Ġtenure":13331,"Ġ1899":13332,"ania":13333,"ĠLloyd":13334,"Oops":13335,"Ġredes":13336,"oret":13337,"ensed":13338,"Ġdevices":13339,"ĠCritics":13340,"hyl":13341,"Before":13342,"Ġaccompanying":13343,"ĠMission":13344,"Ġdisband":13345,"Ġcolder":13346,"Ġresolved":13347,"ĠPatch":13348,"Ġtransported":13349,"Ġworship":13350,"car":13351,"rawn":13352,"ceeds":13353,"Ġclues":13354,"ĠStay":13355,"Ġwrestling":13356,"ĠBehind":13357,"gro":13358,"ĠSak":13359,"ersed":13360,"Ġacoustic":13361,"ĠFinland":13362,"Ġmechanical":13363,"Ġdim":13364,"Ġspac":13365,"Ġwarrior":13366,"ieth":13367,"Ġdecay":13368,"Ġdevelopers":13369,"ĠChristianity":13370,"ĠTol":13371,"Ġexclusively":13372,"ni":13373,"changed":13374,"Ġproductions":13375,"ĠColin":13376,"ĠQueensland":13377,"cht":13378,"ĠFreed":13379,"Ġcontribution":13380,"Geor":13381,"Ġtranslation":13382,"ĠCollins":13383,"Ġfate":13384,"Ġcharter":13385,"Ġplatforms":13386,"ellation":13387,"Ġconservation":13388,"ĠClay":13389,"Ġ169":13390,"ĠBelgian":13391,"Ġreducing":13392,"Ġmasterpiece":13393,"assador":13394,"Ġimpression":13395,"Ġpel":13396,"Ġdads":13397,"ĠJanet":13398,"etheless":13399,"Ġ111":13400,"Ġbanned":13401,"ĠMong":13402,"Ġforgets":13403,"ĠHey":13404,"equ":13405,"Ġconsistent":13406,"Ġcenters":13407,"ĠHalf":13408,"Ġreinforcements":13409,"ĠLat":13410,"ĠCatherine":13411,"ĠGard":13412,"Ġcod":13413,"Ġpays":13414,"Ġangels":13415,"Ġprecipitation":13416,"elope":13417,"hum":13418,"Ġrend":13419,"Ġ108":13420,"Ġnoble":13421,"Ġdressing":13422,"Ġmints":13423,"Ġunlik":13424,"Ġslavery":13425,"ĠTit":13426,"ĠCrow":13427,"ĠZe":13428,"ĠTurner":13429,"ĠUEFA":13430,"Ġflows":13431,"Ġpenet":13432,"Ġ1850":13433,"Jenny":13434,"itudes":13435,"ĠPrix":13436,"Ġintersects":13437,"onium":13438,"Ġparking":13439,"Ġduckling":13440,"Ġvaried":13441,"Ġdwar":13442,"Ġcomponents":13443,"pike":13444,"ĠSet":13445,"Ġbrig":13446,"Ġraincoat":13447,"ĠHeritage":13448,"Rex":13449,"Ġdived":13450,"ĠCrab":13451,"Ġdisob":13452,"Ġgovernments":13453,"Ġreviewed":13454,"Ġelectrical":13455,"ĠTrail":13456,"Ġstreak":13457,"Ġslips":13458,"ĠCommunist":13459,"igible":13460,"ĠHav":13461,"Ġatop":13462,"Ġsuspect":13463,"ĠLiberal":13464,"Ġsamples":13465,"Ġswallowed":13466,"ambers":13467,"cha":13468,"andom":13469,"dles":13470,"Ġpier":13471,"Ġmoo":13472,"Ġcounterp":13473,"Ġobserving":13474,"Ġtaxes":13475,"ĠRangers":13476,"ĠSwift":13477,"Ġsunflowers":13478,"ĠHardy":13479,"rates":13480,"ricts":13481,"Ġdisturbance":13482,"ĠLt":13483,"Ġobsc":13484,"Ġrespective":13485,"Ġconnections":13486,"secution":13487,"Ġgrat":13488,"Ġcomponent":13489,"ĠDavey":13490,"ĠBald":13491,"ĠDonald":13492,"Ġprofession":13493,"Ġfrequency":13494,"Ġdecoration":13495,"riters":13496,"Ġbelts":13497,"Ġprettier":13498,"iar":13499,"ĠWonder":13500,"strong":13501,"ĠOslo":13502,"Äĥ":13503,"utive":13504,"Ġsuccession":13505,"ĠNorfolk":13506,"Ġartificial":13507,"Ġusers":13508,"ĠPlayers":13509,"ĠProtest":13510,"Ad":13511,"ĠSalt":13512,"ĠHaz":13513,"uating":13514,"Ġcomplicated":13515,"Ġtriangles":13516,"ĠBecky":13517,"ĠSaxon":13518,"iolet":13519,"Ġexists":13520,"Ġconceived":13521,"Ġradiation":13522,"Ġinsist":13523,"formation":13524,"Ġdict":13525,"Ġrej":13526,"Ġtexts":13527,"Ġsongwriter":13528,"Ġspoonful":13529,"Ġstroll":13530,"Ġmans":13531,"Ġ163":13532,"Alice":13533,"Ġarchitectural":13534,"Ġcomplimented":13535,"Ġtoured":13536,"angel":13537,"Ġreserv":13538,"Ġaddressed":13539,"Ġwraps":13540,"Ġvoting":13541,"ĠMix":13542,"Ġretro":13543,"Ġhatch":13544,"Ġreferring":13545,"Ġgrossing":13546,"Ġrecip":13547,"Ġrequirements":13548,"Ġperformers":13549,"ĠType":13550,"Ġheir":13551,"ester":13552,"ĠProfessor":13553,"Ġtelescope":13554,"Ġpresses":13555,"Ġ1897":13556,"Ġexplanation":13557,"oving":13558,"Ġisot":13559,"Ġspy":13560,"ĠEug":13561,"ĠBright":13562,"Ġpolitely":13563,"stance":13564,"ĠNatural":13565,"Ġdesigning":13566,"Ġtablet":13567,"Ġdestroyer":13568,"Ġsample":13569,"ĠVincent":13570,"ĠDiamond":13571,"Ġstrikes":13572,"ĠNicholas":13573,"Every":13574,"autical":13575,"Ġairfield":13576,"Ġdisturbing":13577,"ĠLock":13578,"ails":13579,"Ġtactics":13580,"Ġnephew":13581,"Ġecc":13582,"ĠBea":13583,"Ġsurvival":13584,"Ġreduction":13585,"how":13586,"Ġcontinuous":13587,"Ġseaweed":13588,"ĠMoscow":13589,"Ġlasting":13590,"master":13591,"Ġrecovery":13592,"Ġconstitutional":13593,"Ġlakes":13594,"Ġsoph":13595,"Ġconsiders":13596,"ĠBurton":13597,"Ġsou":13598,"ĠMalt":13599,"Ġfights":13600,"Ġhybr":13601,"Ġrelatives":13602,"Ġatomic":13603,"ĠRan":13604,"achute":13605,"Ġzipping":13606,"Ġ154":13607,"ĠTry":13608,"Ġpanicked":13609,"Ġboilers":13610,"Ġattorney":13611,"ĠBach":13612,"Ġinvestment":13613,"ĠSwiss":13614,"Ġadvertis":13615,"nik":13616,"ĠAx":13617,"ĠJTW":13618,"ĠBennett":13619,"ĠBurn":13620,"ĠJTWC":13621,"Ġfer":13622,"Ġrainy":13623,"Ġpleaded":13624,"Ġrider":13625,"Ġquad":13626,"Ġamateur":13627,"rene":13628,"apper":13629,"Ġconsult":13630,"Roar":13631,"MI":13632,"Ġforts":13633,"Ġharbour":13634,"Ġcommanding":13635,"Amy":13636,"Ġdying":13637,"ĠButter":13638,"ĠâĢ¦":13639,"Ġcompromise":13640,"ĠAntonio":13641,"feld":13642,"itarian":13643,"eness":13644,"ĠFido":13645,"Ġwatering":13646,"Ġvillain":13647,"Ġconduc":13648,"ĠPittsburgh":13649,"amount":13650,"ĠHarvard":13651,"ĠSofia":13652,"ĠMove":13653,"Ġinfra":13654,"Ġ106":13655,"mediately":13656,"Ġmarshmall":13657,"Our":13658,"ĠMina":13659,"Ġglued":13660,"Ġconsul":13661,"Ġstatues":13662,"Ġunlikely":13663,"ĠHob":13664,"Ġreorgan":13665,"Ġspells":13666,"ean":13667,"ĠRoom":13668,"Ġrelocated":13669,"ĠMayor":13670,"ĠMand":13671,"Ġmanga":13672,"Ġrevised":13673,"Ġcommunist":13674,"Ġlegislative":13675,"Ġtonnes":13676,"Ġnautical":13677,"ĠFund":13678,"ĠAar":13679,"Ġdoorway":13680,"Ġphotography":13681,"ĠÃĨthel":13682,"ĠGene":13683,"ussion":13684,"ĠHughes":13685,"hill":13686,"ooking":13687,"Ġscamp":13688,"ĠOpp":13689,"Ġdiscou":13690,"Ġprotests":13691,"Ġ167":13692,"Ġsummit":13693,"ĠNi":13694,"Ġinstantly":13695,"ĠPeters":13696,"ĠMagn":13697,"ĠJennifer":13698,"Ġmerc":13699,"ĠSyria":13700,"Ġminority":13701,"ĠEth":13702,"Ġdesp":13703,"ĠDavies":13704,"Ġzebras":13705,"ĠDarwin":13706,"ĠChelsea":13707,"gom":13708,"Ġextending":13709,"Ġhunters":13710,"uy":13711,"Ġgirlfriend":13712,"Ġaccord":13713,"ĠMedical":13714,"ĠPretty":13715,"ĠAlaska":13716,"gra":13717,"Ġconstruct":13718,"ĠTraining":13719,"nought":13720,"Ġstacked":13721,"illes":13722,"Ġventure":13723,"ĠCameron":13724,"Ġfishes":13725,"Ġshaft":13726,"ugal":13727,"ĠYe":13728,"Ġprogramming":13729,"Ġcommenced":13730,"Ġpractical":13731,"Ġashore":13732,"cially":13733,"Ġwoof":13734,"Ġrats":13735,"Ġsovere":13736,"Ġfee":13737,"Ġexplicit":13738,"Ġdischar":13739,"Ġemotion":13740,"ĠSteel":13741,"Ġbuzzed":13742,"Ġlaps":13743,"ĠWis":13744,"Ġstarfish":13745,"ologies":13746,"Ġbully":13747,"Ġgeese":13748,"Ġrehears":13749,"ocy":13750,"Ġvictim":13751,"ĠAngl":13752,"roe":13753,"Ġdisappointment":13754,"ĠAustin":13755,"minster":13756,"Ġtoddler":13757,"Ġmagnitude":13758,"ĠDenn":13759,"Ġboundaries":13760,"Ġaccurate":13761,"Ġnit":13762,"Ġspices":13763,"eyer":13764,"Ġinfection":13765,"Ġignoring":13766,"Ġsnuggle":13767,"Ġwithdrawn":13768,"Ġtranslated":13769,"ĠApo":13770,"Ġcommanders":13771,"inge":13772,"ĠGot":13773,"Ġreinforced":13774,"ĠIndonesia":13775,"low":13776,"Ġid":13777,"Ġadmiration":13778,"Ġreleasing":13779,"ĠHonor":13780,"IV":13781,"ĠWoman":13782,"ĠKane":13783,"ĠShak":13784,"Ġextinct":13785,"Ġanticipation":13786,"Ġtraditions":13787,"Ġrevolt":13788,"Joe":13789,"ĠMicrosoft":13790,"Sue":13791,"isive":13792,"Ġabuse":13793,"Ġdisplaced":13794,"Ġmarine":13795,"Ġprovinces":13796,"ĠPictures":13797,"ĠEsc":13798,"Ġmanaging":13799,"Ġcharacteristic":13800,"Ġfame":13801,"Ġcollections":13802,"ĠJefferson":13803,"Ġcoordin":13804,"Ġhanding":13805,"Ġinterpreted":13806,"Ġculmin":13807,"ĠFu":13808,"Ġconven":13809,"ĠUsing":13810,"Ġairing":13811,"Ġradical":13812,"Ġrivalry":13813,"Ġlava":13814,"ĠHowe":13815,"enesis":13816,"Ġmesmerized":13817,"backs":13818,"Ġcoug":13819,"uto":13820,"Ġenforce":13821,"ffield":13822,"Ġescort":13823,"adesh":13824,"ĠBryan":13825,"mel":13826,"ector":13827,"ĠIsraeli":13828,"Ġplucked":13829,"getic":13830,"Ġprinciples":13831,"Ġabsent":13832,"Ġponies":13833,"icial":13834,"ĠRP":13835,"Ġefficient":13836,"onomy":13837,"Ġoatmeal":13838,"Ġstain":13839,"ĠDy":13840,"ortion":13841,"oca":13842,"ĠStars":13843,"Ġapproaches":13844,"ĠHir":13845,"ongo":13846,"Ġconflicts":13847,"Ġkit":13848,"IS":13849,"ĠAren":13850,"iga":13851,"Ġconce":13852,"Ġhorri":13853,"inian":13854,"ĠListen":13855,"achment":13856,"ective":13857,"ĠSimilarly":13858,"ĠDallas":13859,"ĠLiving":13860,"Ġcurve":13861,"Ġrepresentation":13862,"Ġdense":13863,"enger":13864,"Ġvig":13865,"Ġmultiplayer":13866,"Ġmerry":13867,"aman":13868,"Ġwarfare":13869,"ĠHarbor":13870,"Ġinterviews":13871,"Arthur":13872,"Ġgranddaughter":13873,"Ġchron":13874,"ĠPoor":13875,"ĠHunter":13876,"Ġgods":13877,"Ġchoosing":13878,"Ġvulnerable":13879,"ayer":13880,"ĠBour":13881,"Ġsheets":13882,"uitars":13883,"ĠStuart":13884,"otan":13885,"Joh":13886,"Em":13887,"Woof":13888,"Ġmaker":13889,"Ġshorts":13890,"emma":13891,"ĠWallace":13892,"bid":13893,"avia":13894,"ĠUpper":13895,"Ġpetition":13896,"Ġ1895":13897,"ĠHerald":13898,"ĠQuest":13899,"Ġpredators":13900,"vation":13901,"Ġsupplement":13902,"Ġparticipation":13903,"Ġgraduate":13904,"Sally":13905,"rien":13906,"ĠAmber":13907,"ĠRebec":13908,"ĠSecurity":13909,"osy":13910,"Ġcyclones":13911,"Ġproposals":13912,"Ġscraped":13913,"Ġfert":13914,"Ġcomputers":13915,"ĠOwl":13916,"Ġtoler":13917,"aro":13918,"Ġmarvel":13919,"ginning":13920,"Ġadminister":13921,"Ġkills":13922,"Ġtransportation":13923,"Ġencouragement":13924,"ĠSquirrel":13925,"ĠFalls":13926,"Ġgro":13927,"astery":13928,"Ġpersuaded":13929,"ayan":13930,"Ġentert":13931,"Ġintervention":13932,"Ġrows":13933,"rable":13934,"ĠKel":13935,"lain":13936,"asa":13937,"Ġsneezing":13938,"Ġedit":13939,"ĠRest":13940,"Ġcolum":13941,"Ġsalary":13942,"Ġmaintaining":13943,"Ġhomeless":13944,"ĠRab":13945,"ivation":13946,"Ġroller":13947,"ĠJeremy":13948,"Ġast":13949,"Ġjoyful":13950,"Ġrecurring":13951,"Ġclar":13952,"ĠStef":13953,"Ġbreast":13954,"ĠDanish":13955,"Ġreforms":13956,"Ġairline":13957,"ĠBubba":13958,"Ġgrip":13959,"Ġspare":13960,"Ġproof":13961,"ĠJudge":13962,"itate":13963,"Ġvalid":13964,"ĠGeoff":13965,"flies":13966,"ĠGreatest":13967,"ormer":13968,"onde":13969,"Other":13970,"ĠRena":13971,"Ġcourses":13972,"ĠSyl":13973,"ĠMatilda":13974,"ĠQuebec":13975,"ds":13976,"illo":13977,"Ġestimates":13978,"ĠFourth":13979,"isons":13980,"ĠAS":13981,"udi":13982,"Ġhandling":13983,"Ġexploded":13984,"Ġdistricts":13985,"screen":13986,"ĠiP":13987,"Whee":13988,"ĠWant":13989,"ĠDak":13990,"ĠGuitar":13991,"Ġremoving":13992,"ĠOverall":13993,"Ġjurisdiction":13994,"Upon":13995,"oped":13996,"Ġnapkins":13997,"Ġsolving":13998,"ĠStevens":13999,"ĠRebecca":14000,"Boo":14001,"utton":14002,"ĠCathedral":14003,"lad":14004,"Ġdiverse":14005,"ĠEmer":14006,"ĠDesign":14007,"ĠDefense":14008,"Ġspins":14009,"Ġhonked":14010,"ĠPrim":14011,"ĠServices":14012,"Ġpm":14013,"ĠSheffield":14014,"ĠShaw":14015,"ĠAmanda":14016,"ĠExec":14017,"Ġwhispers":14018,"Ġracial":14019,"ĠTransportation":14020,"Br":14021,"ĠAM":14022,"ĠMomma":14023,"Ġspeeds":14024,"ĠSega":14025,"Ġthreats":14026,"Ġsponsored":14027,"ĠAuthority":14028,"eng":14029,"ĠFBI":14030,"Ġveloc":14031,"ĠOriginally":14032,"ĠCyrus":14033,"ĠCase":14034,"Ġpops":14035,"Ġcommunications":14036,"worm":14037,"ĠMine":14038,"ĠGlobe":14039,"Ġreleg":14040,"Ġsurve":14041,"ova":14042,"leans":14043,"abilities":14044,"Ġbatted":14045,"Ġpresentation":14046,"Ġtossed":14047,"Tr":14048,"onica":14049,"ĠMae":14050,"Ġinclusion":14051,"Ġtribe":14052,"Ġhem":14053,"ĠJohnston":14054,"Ġqualifying":14055,"ĠMalaysia":14056,"ĠNeil":14057,"ĠthatÃ¢":14058,"Ġupcoming":14059,"oviÄĩ":14060,"ĠRio":14061,"ĠAgency":14062,"ĠBrazilian":14063,"ĠBears":14064,"ĠAlban":14065,"Ġerror":14066,"ĠGuinea":14067,"onomic":14068,"Ġguitars":14069,"ĠList":14070,"ĠMS":14071,"Ġcharted":14072,"Ġobservation":14073,"ĠGreater":14074,"ĠBaa":14075,"years":14076,"ĠMall":14077,"Ġdiamonds":14078,"ĠPedro":14079,"Ġseals":14080,"ÅĵBut":14081,"Ġessentially":14082,"Ġpotentially":14083,"Ġmerged":14084,"Ġtrigger":14085,"ĠTrade":14086,"Ġcompetitions":14087,"ĠMaddy":14088,"ĠUtah":14089,"Ġchallenging":14090,"Ġexem":14091,"eston":14092,"ĠStat":14093,"Ġrede":14094,"Ġcurved":14095,"ÅĵMom":14096,"Ġtriumph":14097,"Ġharmon":14098,"ĠDub":14099,"anche":14100,"Ġdescent":14101,"Ġnecklaces":14102,"ĠDaw":14103,"ĠLev":14104,"Ġreceives":14105,"ĠClarke":14106,"Ġsized":14107,"ĠTai":14108,"ĠFiona":14109,"Ġcaution":14110,"Ġcrimes":14111,"Ġminds":14112,
[...]
